-7.461528480052947998e-02 7.039071619510650635e-02 -3.744671121239662170e-02 -1.834340021014213562e-02 5.023978278040885925e-02 -1.306265592575073242e-02 3.046805039048194885e-02 4.787128418684005737e-03 -4.040338471531867981e-02 -2.624358236789703369e-02 4.984998703002929688e-02 3.562395274639129639e-02 -4.303383454680442810e-02 -7.447028532624244690e-03 -5.308634787797927856e-02 3.279449045658111572e-02 4.175831004977226257e-02 -3.963197395205497742e-02 -2.623562701046466827e-02 4.928159713745117188e-02 1.585219614207744598e-02 -4.342652857303619385e-02 4.276896268129348755e-02 -3.034315258264541626e-02 4.743833467364311218e-02 -2.294367179274559021e-02 6.772630661725997925e-02 1.096537243574857712e-02 1.572027802467346191e-02 -3.478292608633637428e-03 1.799076050519943237e-02 1.184416934847831726e-02
-7.126940786838531494e-02 8.627632260322570801e-02 -5.052342265844345093e-02 1.776506938040256500e-02 7.342839986085891724e-02 2.242498844861984253e-02 1.260222773998975754e-02 5.947195924818515778e-03 -6.064250320196151733e-02 -1.689084805548191071e-02 5.606860294938087463e-02 5.215910449624061584e-02 -5.053610727190971375e-02 -4.016956780105829239e-03 -7.294606417417526245e-02 3.999887034296989441e-02 3.456243500113487244e-02 -3.088645078241825104e-02 -1.588820107281208038e-02 1.540290750563144684e-02 2.862760610878467560e-02 -1.819190010428428650e-02 5.461053177714347839e-02 -4.845398291945457458e-02 6.589650362730026245e-02 -3.690872341394424438e-02 1.165651977062225342e-01 2.339821122586727142e-02 1.313617220148444176e-03 -5.113166291266679764e-03 2.015535160899162292e-02 2.882907353341579437e-02
-4.685399308800697327e-02 7.932181656360626221e-02 -4.781126976013183594e-02 2.696266956627368927e-02 4.426524415612220764e-02 4.999590665102005005e-02 -2.782391756772994995e-02 9.573955321684479713e-05 -6.897647678852081299e-02 8.344702422618865967e-03 2.916822768747806549e-02 6.073787435889244080e-02 -4.212752729654312134e-02 -1.967401057481765747e-02 -7.139676809310913086e-02 4.776437953114509583e-02 3.084034472703933716e-02 -9.596229530870914459e-03 1.406396477250382304e-04 -2.486581541597843170e-02 4.005213826894760132e-02 1.423995941877365112e-02 5.750499293208122253e-02 -4.414853826165199280e-02 4.463615640997886658e-02 -3.498153388500213623e-02 7.381682097911834717e-02 2.150773629546165466e-02 -2.369789406657218933e-02 8.438505232334136963e-03 3.655723109841346741e-02 3.649546578526496887e-02
-2.639456279575824738e-02 6.776977330446243286e-02 -4.588404297828674316e-02 1.234413217753171921e-02 5.553062539547681808e-03 5.361064150929450989e-02 -1.816271804273128510e-02 -1.395850162953138351e-02 -6.206937134265899658e-02 2.615667693316936493e-02 1.291173696517944336e-02 5.400376766920089722e-02 -2.842339500784873962e-02 -2.008104138076305389e-02 -7.748152315616607666e-02 4.326929897069931030e-02 4.050360992550849915e-02 -1.597161591053009033e-02 3.100346773862838745e-02 -4.306538775563240051e-02 3.151553124189376831e-02 2.915846928954124451e-02 4.772337898612022400e-02 -3.413322195410728455e-02 9.833811782300472260e-03 -3.864343836903572083e-02 -1.769060268998146057e-02 2.005964890122413635e-02 -4.732856154441833496e-02 1.170630753040313721e-02 5.262010172009468079e-02 2.307065762579441071e-02
-6.417984142899513245e-03 3.218856453895568848e-02 -2.508615888655185699e-02 -1.457782741636037827e-02 -1.488204486668109894e-02 4.996448755264282227e-02 1.734169945120811462e-02 -1.649785228073596954e-02 -5.277293920516967773e-02 3.578618913888931274e-02 -9.947172366082668304e-03 6.000422313809394836e-02 -2.158832736313343048e-02 -6.566085387021303177e-03 -6.706757843494415283e-02 4.804228618741035461e-02 2.985720150172710419e-02 -1.015939004719257355e-02 4.883347079157829285e-02 -9.068987332284450531e-03 3.465705085545778275e-03 2.947433292865753174e-02 3.078573942184448242e-02 -3.118086233735084534e-02 -1.310303620994091034e-02 -2.329935505986213684e-02 -7.169725745916366577e-02 1.818339526653289795e-02 -5.169153213500976562e-02 2.267171256244182587e-02 3.626517206430435181e-02 1.810097880661487579e-02
-7.961878925561904907e-02 3.692765906453132629e-02 -3.255538642406463623e-02 -2.276021800935268402e-02 4.767480120062828064e-02 1.574616180732846260e-04 1.857773028314113617e-02 9.402028808835893869e-05 -2.868688479065895081e-02 -3.374766930937767029e-02 3.962945938110351562e-02 2.138386294245719910e-02 -3.352729603648185730e-02 -1.045610290020704269e-02 -5.563155189156532288e-02 5.813052412122488022e-03 4.679458588361740112e-02 -2.178352512419223785e-02 -3.685705363750457764e-02 5.589016526937484741e-02 1.973387598991394043e-02 -4.287206009030342102e-02 2.814785204827785492e-02 2.726759947836399078e-02 4.605306778103113174e-03 -6.786773353815078735e-02 1.398374885320663452e-01 1.039082836359739304e-02 2.063214592635631561e-02 -8.534747175872325897e-03 1.663149148225784302e-02 -6.031687371432781219e-03
-7.501354068517684937e-02 5.881766602396965027e-02 -3.754455968737602234e-02 1.824351958930492401e-02 6.029520928859710693e-02 2.993951737880706787e-02 5.448793992400169373e-03 -3.342303447425365448e-03 -4.698687046766281128e-02 -2.269866690039634705e-02 5.311543121933937073e-02 3.304207697510719299e-02 -4.759588465094566345e-02 4.477662965655326843e-03 -7.248301059007644653e-02 6.185187026858329773e-03 3.166624158620834351e-02 -1.701011881232261658e-02 -3.181401640176773071e-02 3.305656136944890022e-03 2.740862779319286346e-02 -3.799751028418540955e-02 3.696742653846740723e-02 3.017292171716690063e-02 2.090204134583473206e-02 -7.882128655910491943e-02 1.921497285366058350e-01 2.240087650716304779e-02 1.522206887602806091e-02 -2.473184838891029358e-03 9.211461059749126434e-03 1.423804927617311478e-02
-4.482756182551383972e-02 6.160432100296020508e-02 -2.746971882879734039e-02 2.308038622140884399e-02 2.284543216228485107e-02 4.861206933856010437e-02 -2.268530242145061493e-02 -1.075673568993806839e-02 -5.884855985641479492e-02 1.007781829684972763e-02 3.358414024114608765e-02 4.272995516657829285e-02 -4.579924419522285461e-02 -5.187681876122951508e-03 -7.392508536577224731e-02 9.713107720017433167e-03 1.963318325579166412e-02 2.492365660145878792e-03 -3.944965079426765442e-03 -3.933013603091239929e-02 4.306875914335250854e-02 -1.086613442748785019e-02 4.643577709794044495e-02 4.715166985988616943e-02 6.091267336159944534e-03 -7.130197435617446899e-02 1.255287230014801025e-01 7.815695367753505707e-03 -2.272854372859001160e-02 1.542148925364017487e-02 1.968109235167503357e-02 3.295687586069107056e-02
-1.525551732629537582e-02 5.456154048442840576e-02 -1.172134932130575180e-02 4.059227183461189270e-03 -1.136504858732223511e-02 4.007519409060478210e-02 -8.075782097876071930e-03 -1.602390222251415253e-02 -5.611671507358551025e-02 2.357351221144199371e-02 2.149766124784946442e-02 4.307072609663009644e-02 -4.137253761291503906e-02 -3.737387945875525475e-03 -7.481732964515686035e-02 8.431787602603435516e-03 2.541339024901390076e-02 -8.474160917103290558e-03 3.374513238668441772e-02 -4.255665466189384460e-02 3.473502770066261292e-02 7.082083728164434433e-03 3.961101546883583069e-02 6.050729379057884216e-02 -1.852185092866420746e-02 -6.406734138727188110e-02 3.625365905463695526e-03 2.183912787586450577e-03 -5.829663202166557312e-02 2.244496159255504608e-02 3.278081119060516357e-02 2.464990131556987762e-02
1.159091293811798096e-02 1.592269726097583771e-02 1.667664945125579834e-02 -3.107298165559768677e-02 -2.037462219595909119e-02 3.412400186061859131e-02 3.129961714148521423e-02 -1.581829972565174103e-02 -4.400808736681938171e-02 1.702510938048362732e-02 4.618767648935317993e-03 5.525612086057662964e-02 -4.531487822532653809e-02 1.457631681114435196e-02 -6.218002736568450928e-02 2.206547372043132782e-02 1.286327466368675232e-02 -1.707879453897476196e-02 5.375307798385620117e-02 3.829081542789936066e-03 6.442799232900142670e-03 1.486978121101856232e-02 3.069539368152618408e-02 4.930737242102622986e-02 -3.286599740386009216e-02 -3.595876321196556091e-02 -6.059558317065238953e-02 2.970452187582850456e-03 -6.999690830707550049e-02 3.728753700852394104e-02 1.831151172518730164e-02 2.000052854418754578e-02
-8.095864951610565186e-02 -6.642605643719434738e-03 -3.355243941769003868e-03 -1.100060716271400452e-02 3.524547070264816284e-02 4.676504526287317276e-03 -1.759797683916985989e-03 -5.677535198628902435e-03 -6.263261660933494568e-03 -1.899166218936443329e-02 1.462770532816648483e-02 -7.556800264865159988e-03 3.843861632049083710e-03 -1.444322802126407623e-02 -3.570161759853363037e-02 -1.499051786959171295e-02 4.648199677467346191e-02 -9.774229489266872406e-03 -3.941522911190986633e-02 4.993623867630958557e-02 -2.420480549335479736e-02 -2.876030839979648590e-02 1.206106413155794144e-02 7.047080248594284058e-02 -8.813089691102504730e-03 -1.051588207483291626e-01 1.532839238643646240e-01 4.326094407588243484e-03 2.718743402510881424e-03 -1.226119510829448700e-02 1.405361760407686234e-02 -8.816048502922058105e-03
-8.166912198066711426e-02 1.896926388144493103e-02 -1.112931058742105961e-03 2.854459546506404877e-02 4.062940925359725952e-02 1.429551467299461365e-02 -1.259646750986576080e-02 -1.501914113759994507e-02 -1.731191761791706085e-02 -1.700639352202415466e-02 3.682397305965423584e-02 -8.672314696013927460e-03 -2.660391386598348618e-03 1.767841400578618050e-03 -4.495796188712120056e-02 -1.663010753691196442e-02 3.472981229424476624e-02 -6.312048528343439102e-03 -3.814313933253288269e-02 -1.162564754486083984e-02 -2.139894105494022369e-02 -2.719538286328315735e-02 1.657629571855068207e-02 8.826093375682830811e-02 -1.533377508167177439e-04 -1.080360785126686096e-01 2.055964916944503784e-01 1.645441539585590363e-02 6.176582537591457367e-03 -1.187418936751782894e-03 3.943647257983684540e-03 2.011931687593460083e-02
-5.627661198377609253e-02 3.538792952895164490e-02 1.274432986974716187e-02 3.418194875121116638e-02 1.428703690180554986e-04 1.839107461273670197e-02 -2.232236973941326141e-02 -1.882157474756240845e-02 -2.901975624263286591e-02 1.439767330884933472e-02 3.018897399306297302e-02 -1.887984108179807663e-03 -4.737420007586479187e-03 -2.447894075885415077e-03 -4.276867583394050598e-02 -1.352719496935606003e-02 2.748327888548374176e-02 1.393399480730295181e-02 -1.242533233016729355e-02 -5.367311462759971619e-02 -3.900277428328990936e-03 -9.686001576483249664e-03 2.936466224491596222e-02 1.096873208880424500e-01 -1.170536968857049942e-02 -9.459710121154785156e-02 1.230960860848426819e-01 -6.834895350039005280e-03 -2.154055051505565643e-02 1.040991395711898804e-02 1.303177047520875931e-02 5.278445035219192505e-02
-2.448358573019504547e-02 4.150788858532905579e-02 3.242085501551628113e-02 1.627683825790882111e-02 -3.591018542647361755e-02 2.992975758388638496e-03 -3.242748090997338295e-03 -2.199800312519073486e-02 -3.521146252751350403e-02 2.166681550443172455e-02 2.021799050271511078e-02 6.110762245953083038e-03 -1.357551012188196182e-02 1.753363758325576782e-03 -3.816092759370803833e-02 -1.389293558895587921e-02 3.233081102371215820e-02 6.331377197057008743e-03 1.103970129042863846e-02 -4.536875337362289429e-02 -4.116582218557596207e-03 -2.215028041973710060e-03 2.754929661750793457e-02 1.262691318988800049e-01 -2.078011818230152130e-02 -7.623646408319473267e-02 -6.952966563403606415e-03 -1.704310066998004913e-02 -4.646528884768486023e-02 1.953780278563499451e-02 2.504147030413150787e-02 5.439289659261703491e-02
-3.028537146747112274e-03 1.833843439817428589e-02 5.870418995618820190e-02 -2.274025976657867432e-02 -3.573200851678848267e-02 -4.171428736299276352e-03 3.297580033540725708e-02 -2.066791243851184845e-02 -2.527514100074768066e-02 -1.307343714870512486e-03 2.290933858603239059e-03 1.730819977819919586e-02 -3.156575933098793030e-02 2.041353099048137665e-02 -2.526275999844074249e-02 9.814883582293987274e-03 1.856758259236812592e-02 -1.190054696053266525e-02 3.650719672441482544e-02 1.032869331538677216e-02 -1.551726274192333221e-02 -3.528530942276120186e-03 2.279399335384368896e-02 1.057177037000656128e-01 -1.958621479570865631e-02 -4.789383709430694580e-02 -7.182195037603378296e-02 -1.009451318532228470e-02 -5.598134547472000122e-02 3.609268367290496826e-02 1.837628893554210663e-02 4.592993482947349548e-02
-7.873322069644927979e-02 -4.426731169223785400e-02 1.280184742063283920e-02 1.374165620654821396e-02 2.166494354605674744e-02 3.852584864944219589e-03 -3.338400647044181824e-02 -2.535168547183275223e-03 2.303654327988624573e-03 5.534952506422996521e-03 -2.066264487802982330e-02 -1.839927583932876587e-02 3.785084933042526245e-02 -8.488400839269161224e-03 8.387630805373191833e-04 5.671402905136346817e-04 2.528846636414527893e-02 -6.565214134752750397e-04 -4.147758707404136658e-02 4.620552435517311096e-02 -3.453538194298744202e-02 -4.217486083507537842e-02 -6.140421610325574875e-03 6.176736950874328613e-02 4.226982966065406799e-02 -1.036477386951446533e-01 1.029007732868194580e-01 -1.472099404782056808e-02 -1.481791213154792786e-02 -1.200439408421516418e-02 8.504417724907398224e-03 -7.609668187797069550e-03
-8.485103398561477661e-02 -1.819632574915885925e-02 2.120150811970233917e-02 4.731427505612373352e-02 2.151972241699695587e-02 9.072906104847788811e-04 -4.424294084310531616e-02 -1.088281534612178802e-02 2.378199278609827161e-04 -4.896667320281267166e-03 7.490981370210647583e-03 -1.616841554641723633e-02 3.879586234688758850e-02 3.396268235519528389e-03 -4.678237251937389374e-03 -2.404628321528434753e-03 2.664298005402088165e-02 9.548789239488542080e-04 -3.821025416254997253e-02 -4.549203906208276749e-03 -3.253728896379470825e-02 -4.712225124239921570e-02 -1.287091150879859924e-02 8.129560947418212891e-02 4.073102027177810669e-02 -9.811741113662719727e-02 1.445991247892379761e-01 1.629614853300154209e-04 7.790040224790573120e-03 -3.661426948383450508e-03 6.527554360218346119e-04 1.836765184998512268e-02
-5.671208724379539490e-02 -1.612291554920375347e-03 2.117005735635757446e-02 5.029872059822082520e-02 -1.711148954927921295e-02 -4.276860971003770828e-03 -4.328304156661033630e-02 -1.553215831518173218e-02 -3.796479199081659317e-03 1.822738535702228546e-02 4.084152635186910629e-03 -1.724321581423282623e-02 3.241351246833801270e-02 5.642292671836912632e-04 6.122529506683349609e-03 2.564363880082964897e-03 3.270281851291656494e-02 1.701349765062332153e-02 -2.105375193059444427e-02 -3.917077183723449707e-02 -1.044901739805936813e-02 -3.346481546759605408e-02 -4.221776034682989120e-03 9.892013669013977051e-02 3.276371210813522339e-02 -8.661128580570220947e-02 6.924239546060562134e-02 -1.489735580980777740e-02 8.091536350548267365e-03 1.467472640797495842e-03 1.232704985886812210e-02 6.467169523239135742e-02
-2.243454754352569580e-02 1.899817958474159241e-02 3.185180574655532837e-02 2.850769832730293274e-02 -5.088390409946441650e-02 -1.859615743160247803e-02 -1.959525234997272491e-02 -2.375425957143306732e-02 -1.280194055289030075e-02 2.187418378889560699e-02 -9.843095205724239349e-03 -1.380602736026048660e-02 8.971558883786201477e-03 5.348885897547006607e-03 1.116370037198066711e-02 7.495625410228967667e-03 3.620781749486923218e-02 7.291651796549558640e-03 -4.447179089765995741e-04 -2.979632467031478882e-02 -2.431456698104739189e-03 -3.136074170470237732e-02 -3.832726972177624702e-03 1.086960807442665100e-01 3.595378249883651733e-02 -6.722629815340042114e-02 -4.670191556215286255e-02 -1.158825214952230453e-02 2.650259761139750481e-03 6.611645221710205078e-03 2.588186040520668030e-02 7.421040534973144531e-02
-8.258366957306861877e-03 9.859267622232437134e-03 4.706054553389549255e-02 -6.684412248432636261e-03 -4.521416500210762024e-02 -1.813539490103721619e-02 1.686157286167144775e-02 -2.352266386151313782e-02 -8.719689212739467621e-03 -5.754965823143720627e-03 -2.935786172747612000e-02 -8.822278119623661041e-03 -2.174511551856994629e-02 1.837032102048397064e-02 2.155473455786705017e-02 3.395157679915428162e-02 1.758842170238494873e-02 -1.527195237576961517e-02 1.975527405738830566e-02 1.265809591859579086e-02 -7.700200192630290985e-03 -3.071406669914722443e-02 -5.875716451555490494e-03 8.575145900249481201e-02 4.431123286485671997e-02 -4.001891240477561951e-02 -9.685461968183517456e-02 2.225601579993963242e-03 -1.177783031016588211e-02 1.557269040495157242e-02 2.519006282091140747e-02 6.403876841068267822e-02
-5.649168789386749268e-02 -3.969379514455795288e-02 2.074714750051498413e-02 4.808079078793525696e-02 1.503545790910720825e-02 6.602134089916944504e-04 -5.017533525824546814e-02 7.242917083203792572e-03 -8.812066167593002319e-03 6.602471228688955307e-03 -2.743215672671794891e-02 -1.613549701869487762e-02 2.595779113471508026e-02 -6.920203100889921188e-03 2.214225381612777710e-02 -1.287309546023607254e-02 -1.051458343863487244e-02 -1.090173982083797455e-02 -4.107091575860977173e-02 4.401976987719535828e-02 -4.491403698921203613e-02 -5.393864959478378296e-02 -5.138289183378219604e-03 1.320523209869861603e-02 4.762559756636619568e-02 -9.722935408353805542e-02 6.199809908866882324e-02 -2.252843696624040604e-03 -2.184911631047725677e-02 6.501148454844951630e-03 -9.562057093717157841e-04 -2.454610168933868408e-02
-5.430476367473602295e-02 -2.328785322606563568e-02 1.720705255866050720e-02 7.732871919870376587e-02 1.321606803685426712e-02 -2.356626326218247414e-03 -6.194679066538810730e-02 -2.399754710495471954e-03 -1.979265594854950905e-03 -5.840528290718793869e-03 -7.932101376354694366e-03 -1.440649665892124176e-02 2.732301317155361176e-02 2.479249669704586267e-04 2.341101691126823425e-02 -1.976703107357025146e-02 -6.219233619049191475e-04 -1.562823541462421417e-02 -3.649343177676200867e-02 9.079311043024063110e-03 -3.642509132623672485e-02 -5.818817019462585449e-02 -1.889115199446678162e-02 1.992238685488700867e-02 5.123654380440711975e-02 -9.080908447504043579e-02 7.488547265529632568e-02 1.736548729240894318e-02 1.392818521708250046e-02 2.076319232583045959e-02 -7.539912592619657516e-03 -5.780288483947515488e-03
-2.334043383598327637e-02 -1.315653510391712189e-02 2.142304088920354843e-03 7.527101784944534302e-02 -1.373663451522588730e-02 -1.063251588493585587e-02 -5.402110144495964050e-02 -8.263794705271720886e-03 4.030585289001464844e-03 8.828490041196346283e-03 -1.032001897692680359e-02 -1.849157921969890594e-02 1.430735550820827484e-02 -3.305401420220732689e-03 3.457698598504066467e-02 -7.618685718625783920e-03 2.206876873970031738e-02 -1.028898730874061584e-02 -2.278018556535243988e-02 -1.530817802995443344e-02 -1.888722926378250122e-02 -4.980416223406791687e-02 -1.563809253275394440e-02 2.912458963692188263e-02 5.022384226322174072e-02 -7.936171442270278931e-02 1.102748606353998184e-02 1.523177791386842728e-02 3.677364811301231384e-02 2.113975025713443756e-02 -3.154014935716986656e-03 2.959302254021167755e-02
-4.175501875579357147e-03 8.232758380472660065e-03 8.268040255643427372e-04 4.534282535314559937e-02 -4.363793134689331055e-02 -2.638773247599601746e-02 -2.054141275584697723e-02 -2.065402269363403320e-02 -2.854284830391407013e-03 6.549637764692306519e-03 -2.754970639944076538e-02 -2.227103523910045624e-02 -8.019271306693553925e-03 -7.888969033956527710e-03 4.259796440601348877e-02 6.843385752290487289e-03 2.542918361723423004e-02 -2.477386966347694397e-02 -1.356632448732852936e-02 -1.055325847119092941e-02 -1.315641310065984726e-02 -4.663691669702529907e-02 -1.466007903218269348e-02 3.675321489572525024e-02 5.335621908307075500e-02 -6.068857386708259583e-02 -8.202507346868515015e-02 1.831196062266826630e-02 4.476955905556678772e-02 1.746339537203311920e-02 8.920741267502307892e-03 3.981973230838775635e-02
-8.095182129181921482e-04 8.198122493922710419e-03 1.490757055580615997e-02 1.364481355994939804e-02 -4.133010655641555786e-02 -2.220758982002735138e-02 1.508820056915283203e-02 -2.275558188557624817e-02 -1.485836219217162579e-05 -1.749226078391075134e-02 -4.559985175728797913e-02 -2.179511450231075287e-02 -3.028205782175064087e-02 3.795048687607049942e-04 4.471616446971893311e-02 2.634115889668464661e-02 4.949625115841627121e-03 -4.558447748422622681e-02 -4.365274216979742050e-03 1.704536005854606628e-02 -1.780826970934867859e-02 -5.328638851642608643e-02 -2.062276564538478851e-02 2.264029718935489655e-02 5.494347587227821350e-02 -3.463831171393394470e-02 -1.152985692024230957e-01 2.266465313732624054e-02 2.994627878069877625e-02 1.918289437890052795e-02 1.192990504205226898e-02 3.747589886188507080e-02
-6.541908252984285355e-03 -1.775589585304260254e-02 -2.136560529470443726e-02 3.819033876061439514e-02 3.047476150095462799e-02 -6.431631743907928467e-02 -1.821576803922653198e-02 7.812970317900180817e-03 -5.835648160427808762e-03 -1.457185391336679459e-02 -3.065520897507667542e-02 2.975416183471679688e-02 -3.110444406047463417e-03 -2.330601774156093597e-02 6.114777177572250366e-03 -8.295677602291107178e-03 1.094910223037004471e-02 -4.560993984341621399e-02 1.179061736911535263e-02 9.715765714645385742e-03 1.196362078189849854e-01 3.252147510647773743e-02 4.270778223872184753e-02 4.388188943266868591e-03 -1.979655399918556213e-02 -1.619194261729717255e-02 6.477591395378112793e-02 4.224717617034912109e-02 -3.690379858016967773e-02 -3.408511355519294739e-02 2.432864345610141754e-02 -3.028992749750614166e-02
-1.290797907859086990e-02 -7.973487488925457001e-03 -5.322520434856414795e-02 3.824856132268905640e-02 5.540997162461280823e-02 -4.064067453145980835e-02 -4.378139600157737732e-02 -2.087527140974998474e-02 -2.642983570694923401e-03 -1.528512220829725266e-02 -6.376732140779495239e-02 7.266632467508316040e-02 -1.603379845619201660e-02 -4.759928956627845764e-02 2.670722082257270813e-02 3.193551441654562950e-03 1.918673142790794373e-02 -3.474987344816327095e-03 2.086888439953327179e-02 3.638972295448184013e-03 6.251831352710723877e-02 2.054494991898536682e-02 4.516179859638214111e-02 1.895872317254543304e-02 -1.888565532863140106e-02 -1.155790500342845917e-02 5.332534760236740112e-02 2.106772176921367645e-02 -5.005318671464920044e-02 -5.608705431222915649e-02 4.221450164914131165e-02 -3.272145753726363182e-03
-1.485498854890465736e-03 2.193269319832324982e-02 -5.446628481149673462e-02 3.952170908451080322e-02 4.924482107162475586e-02 -2.350869029760360718e-02 -5.846602469682693481e-02 -4.058948531746864319e-02 1.788227818906307220e-02 1.850576326251029968e-02 -1.092692017555236816e-01 4.951770603656768799e-02 -6.312832236289978027e-02 -1.999714039266109467e-02 -8.990295464172959328e-04 3.689118311740458012e-04 1.481769606471061707e-02 3.753213584423065186e-02 3.955908492207527161e-02 -2.845060639083385468e-02 2.220229618251323700e-02 -8.602566085755825043e-03 5.769915878772735596e-02 2.358225919306278229e-02 4.084222763776779175e-02 1.161860302090644836e-02 -1.177839562296867371e-02 4.417211562395095825e-02 -5.298532545566558838e-02 -6.640756130218505859e-02 8.927562832832336426e-02 -3.241756185889244080e-02
-2.318985294550657272e-03 3.811585903167724609e-02 -6.003995612263679504e-02 3.475157916545867920e-02 1.214389316737651825e-02 6.712422240525484085e-03 -5.116492509841918945e-02 -4.276021569967269897e-02 5.862156860530376434e-03 -1.370620355010032654e-02 -1.037052646279335022e-01 2.186808735132217407e-02 -3.957540914416313171e-02 -1.610060106031596661e-03 -5.864874925464391708e-03 -7.749922806397080421e-04 -7.117612287402153015e-03 -1.065139891579747200e-03 1.985989511013031006e-02 -5.920692160725593567e-02 2.232117392122745514e-02 -1.195384174934588373e-04 1.077043823897838593e-02 3.620507940649986267e-02 4.490880668163299561e-02 1.069848239421844482e-02 -2.680475637316703796e-02 4.810899123549461365e-02 2.096547512337565422e-03 -6.578157097101211548e-02 1.124527081847190857e-01 -5.001617968082427979e-02
2.586039714515209198e-03 -1.484579127281904221e-02 2.975478302687406540e-03 1.405128277838230133e-02 -3.924117237329483032e-02 6.339582800865173340e-02 -3.802093863487243652e-02 -3.342662006616592407e-02 -9.175814688205718994e-03 -4.675598815083503723e-02 -7.123359292745590210e-02 2.714377082884311676e-02 -4.897801205515861511e-03 4.445127770304679871e-02 -5.098924785852432251e-02 -5.077105015516281128e-03 3.805939340963959694e-03 -3.533176705241203308e-02 3.973402082920074463e-02 -5.064138770103454590e-02 1.185459177941083908e-02 5.514856427907943726e-02 -5.422463640570640564e-02 3.516387194395065308e-02 -2.507103793323040009e-02 -2.818733453750610352e-02 1.320592314004898071e-02 6.282042711973190308e-02 5.765526369214057922e-02 -1.276961565017700195e-01 9.259979426860809326e-02 -2.846303768455982208e-02
4.648724943399429321e-02 5.215860903263092041e-02 -3.232813626527786255e-02 -1.441105362027883530e-02 1.969586312770843506e-02 9.983086027204990387e-03 -6.078229844570159912e-02 4.227505996823310852e-02 -1.693218015134334564e-02 -5.146668106317520142e-02 -7.235724478960037231e-02 5.155542120337486267e-02 1.205064170062541962e-02 -2.290056290803477168e-04 5.124568939208984375e-03 -3.379955142736434937e-02 -1.026678550988435745e-02 1.222811639308929443e-02 -2.902370644733309746e-03 4.431837052106857300e-02 8.379485458135604858e-02 -1.120114233344793320e-02 4.356632009148597717e-02 1.194944046437740326e-02 -3.104358166456222534e-02 -8.540975861251354218e-03 8.893287181854248047e-02 1.030888408422470093e-01 -1.012178510427474976e-01 -1.201037913560867310e-01 2.827253565192222595e-02 -1.580406539142131805e-02
3.517139330506324768e-02 3.881345316767692566e-02 -7.793078571557998657e-02 1.192094478756189346e-02 4.477086663246154785e-02 3.872523829340934753e-02 -8.930934965610504150e-02 1.884469675133004785e-04 1.246912172064185143e-03 -5.318828672170639038e-02 -1.065909639000892639e-01 8.277455717325210571e-02 -1.294111553579568863e-02 -1.735298708081245422e-02 2.095823921263217926e-02 -6.155700981616973877e-02 -1.896970719099044800e-02 4.654094576835632324e-02 -1.279466226696968079e-02 3.218445181846618652e-02 5.843074992299079895e-02 -1.901106443256139755e-04 4.726406186819076538e-02 9.179282933473587036e-03 -1.941554620862007141e-02 -8.688516914844512939e-03 8.266807347536087036e-02 8.518232405185699463e-02 -1.215948164463043213e-01 -6.585562974214553833e-02 4.544500261545181274e-02 4.503437783569097519e-03
2.638492919504642487e-02 4.199904203414916992e-02 -7.207661122083663940e-02 5.332013126462697983e-03 3.462405130267143250e-02 3.529844433069229126e-02 -1.080506891012191772e-01 -2.646236494183540344e-02 3.904458135366439819e-02 -2.057386562228202820e-02 -1.373181939125061035e-01 8.023390918970108032e-02 -7.321786135435104370e-02 -2.841757237911224365e-02 -3.951974213123321533e-03 -6.086677312850952148e-02 -1.158989313989877701e-02 7.236629724502563477e-02 1.903023384511470795e-02 -7.391985040158033371e-03 2.161235921084880829e-02 -2.401698939502239227e-02 2.958149835467338562e-02 2.132145687937736511e-02 3.348616883158683777e-02 -1.402827445417642593e-02 1.152996555902063847e-03 9.740149229764938354e-02 -9.118928760290145874e-02 -4.165334627032279968e-02 9.665561467409133911e-02 -3.551988676190376282e-02
2.404983341693878174e-02 4.686883091926574707e-02 -2.876910381019115448e-02 -1.362422946840524673e-02 -1.260777376592159271e-02 1.521872915327548981e-02 -9.304559230804443359e-02 -3.527997806668281555e-02 3.370595723390579224e-02 -1.185289304703474045e-02 -1.174798458814620972e-01 5.816544219851493835e-02 -5.899954587221145630e-02 -3.285363316535949707e-02 -2.564110793173313141e-02 -5.151771008968353271e-02 -1.513827126473188400e-03 2.076156809926033020e-02 1.038837619125843048e-02 -1.284926943480968475e-02 1.219983864575624466e-02 1.175787951797246933e-02 -2.770197950303554535e-02 1.475302688777446747e-02 5.417916178703308105e-02 -2.164209075272083282e-02 -3.333302959799766541e-02 1.007887348532676697e-01 -2.918186830356717110e-03 -3.084734641015529633e-02 1.179848089814186096e-01 -5.559255182743072510e-02
3.642942383885383606e-02 2.642481215298175812e-02 4.981075227260589600e-02 -3.329734131693840027e-02 -5.736444517970085144e-02 2.185275591909885406e-02 -3.616161644458770752e-02 -2.305369265377521515e-02 2.451746352016925812e-02 -1.006450504064559937e-02 -1.052897274494171143e-01 3.028307855129241943e-02 -1.740212179720401764e-02 -1.104556210339069366e-02 -4.600483551621437073e-02 -2.806989848613739014e-02 -6.235903594642877579e-03 -2.675297670066356659e-02 2.252176776528358459e-02 -5.116678308695554733e-03 2.035854943096637726e-02 4.198775067925453186e-02 -6.671679019927978516e-02 8.147194981575012207e-03 1.580792851746082306e-02 -3.615402802824974060e-02 -2.826314978301525116e-02 8.547670394182205200e-02 4.417613893747329712e-02 -8.660054951906204224e-02 9.173581749200820923e-02 -2.936260588467121124e-02
8.026024699211120605e-02 5.566654726862907410e-02 2.313348837196826935e-02 1.290237344801425934e-02 -1.925278827548027039e-02 1.107094436883926392e-01 -4.424526542425155640e-02 4.536912590265274048e-02 -1.015154831111431122e-02 -6.731134653091430664e-02 -9.814733266830444336e-02 8.944202214479446411e-03 1.619325205683708191e-02 5.337929725646972656e-02 -4.076781217008829117e-03 -5.520272627472877502e-02 -1.020374428480863571e-02 1.145912259817123413e-01 -4.631984920706599951e-04 4.489733278751373291e-02 7.513110525906085968e-03 5.924244411289691925e-03 4.361480101943016052e-02 -1.198897883296012878e-02 -8.036415278911590576e-02 -2.318469993770122528e-02 6.232392042875289917e-02 9.297768771648406982e-02 -9.069436043500900269e-02 -1.549097448587417603e-01 1.732473261654376984e-02 -1.347106788307428360e-02
6.121908128261566162e-02 2.688868530094623566e-02 -1.091976277530193329e-02 2.433206140995025635e-02 1.824493147432804108e-02 6.814371049404144287e-02 -1.023467406630516052e-01 1.975721493363380432e-02 4.673259705305099487e-02 -7.422421872615814209e-02 -1.115795969963073730e-01 3.421107679605484009e-02 -1.888787001371383667e-02 6.091088056564331055e-03 1.470344886183738708e-02 -4.891046509146690369e-02 -2.374676801264286041e-02 9.676254540681838989e-02 -6.591091398149728775e-03 9.786814916878938675e-04 -2.068240661174058914e-03 2.077550441026687622e-02 3.271993622183799744e-02 -1.740103587508201599e-02 -8.100046217441558838e-02 2.479476155713200569e-03 5.540545284748077393e-02 1.020498797297477722e-01 -1.202594563364982605e-01 -6.214030086994171143e-02 1.475714705884456635e-02 2.373671345412731171e-02
3.513297811150550842e-02 2.155166491866111755e-02 1.259886194020509720e-03 7.280859630554914474e-03 1.870788075029850006e-02 1.300872676074504852e-02 -1.102933362126350403e-01 -1.913868938572704792e-03 7.506448030471801758e-02 -2.233888581395149231e-02 -1.114930808544158936e-01 3.538613393902778625e-02 -8.440061658620834351e-02 -1.294595934450626373e-02 -1.993615366518497467e-02 -5.989870056509971619e-02 -2.316922880709171295e-03 8.715574443340301514e-02 3.268357738852500916e-02 8.391483686864376068e-03 -1.484553609043359756e-02 -4.536142107099294662e-03 -1.387401716783642769e-03 -8.865876123309135437e-03 -5.742281675338745117e-02 -9.309612214565277100e-03 -2.343694120645523071e-02 1.069683134555816650e-01 -7.184061408042907715e-02 -2.205526083707809448e-02 4.483038187026977539e-02 -1.944917999207973480e-02
3.723535686731338501e-02 2.515507303178310394e-02 3.965426981449127197e-02 -1.208194810897111893e-02 -2.101545222103595734e-02 -8.274895139038562775e-03 -9.220980852842330933e-02 -4.205462522804737091e-03 6.448183953762054443e-02 2.026593312621116638e-02 -7.755569368600845337e-02 3.032080829143524170e-03 -5.024378374218940735e-02 -3.958099335432052612e-02 -1.382577791810035706e-02 -4.759163409471511841e-02 7.169263437390327454e-03 4.693740978837013245e-02 2.337740734219551086e-02 2.775296941399574280e-02 -4.983548074960708618e-03 2.310749143362045288e-02 -1.699225604534149170e-02 -1.528387796133756638e-02 -3.532445058226585388e-02 -1.783269084990024567e-02 -4.236001521348953247e-02 6.790728867053985596e-02 1.455404702574014664e-02 4.658426158130168915e-03 6.702686101198196411e-02 -1.566406339406967163e-02
4.405761510133743286e-02 4.098682478070259094e-02 8.385531604290008545e-02 -2.065776102244853973e-02 -4.018312320113182068e-02 -1.057599112391471863e-02 -1.755000650882720947e-02 3.078157780691981316e-03 4.365616664290428162e-02 9.528090246021747589e-03 -7.218655198812484741e-02 -2.636169455945491791e-02 -1.249607931822538376e-02 -6.471992935985326767e-03 -1.867213100194931030e-02 -2.036979421973228455e-02 2.825154457241296768e-03 -8.955673314630985260e-03 2.549748867750167847e-02 1.983015611767768860e-02 -1.009835745207965374e-03 4.017852619290351868e-02 -2.149450220167636871e-02 -3.835333138704299927e-02 -3.685835376381874084e-02 -2.004526928067207336e-02 -2.786841429769992828e-02 1.629202440381050110e-02 6.692846864461898804e-02 -3.123305365443229675e-02 4.043009877204895020e-02 -2.343476982787251472e-03
4.649826884269714355e-02 6.437235325574874878e-02 2.954507060348987579e-02 3.807299537584185600e-03 -3.337340429425239563e-02 5.284317582845687866e-02 -2.223804593086242676e-02 1.474802661687135696e-02 1.727293129079043865e-03 -4.420637339353561401e-02 -9.024405479431152344e-02 -1.331943552941083908e-02 1.389962248504161835e-02 7.484411448240280151e-02 -2.129938080906867981e-02 -6.258323788642883301e-02 4.881457425653934479e-03 9.119746088981628418e-02 -2.995222061872482300e-02 2.430637832731008530e-03 1.990533061325550079e-02 2.072160830721259117e-03 -1.284498441964387894e-02 -5.486630275845527649e-02 -2.203222364187240601e-02 4.151900939177721739e-04 3.126225620508193970e-02 4.505005106329917908e-02 -4.806411266326904297e-02 -1.097252517938613892e-01 8.361754938960075378e-03 -1.698311604559421539e-02
4.251501709222793579e-02 -2.374405739828944206e-03 5.489223450422286987e-02 1.114964392036199570e-02 -8.053389377892017365e-03 1.114553213119506836e-02 -8.292494714260101318e-02 3.355748718604445457e-03 4.503209516406059265e-02 -5.086223036050796509e-02 -5.828558281064033508e-02 2.343229763209819794e-02 -2.501441538333892822e-02 2.048825100064277649e-02 2.599910949356853962e-04 -1.771122403442859650e-02 -1.395576260983943939e-02 5.773781612515449524e-02 3.897786606103181839e-03 -4.302993789315223694e-02 2.636921824887394905e-03 7.220831699669361115e-03 -5.310791078954935074e-03 -2.998452074825763702e-02 -3.736328706145286560e-02 3.424506261944770813e-02 2.766863256692886353e-02 4.624716192483901978e-02 -6.740336865186691284e-02 -4.571760445833206177e-02 -1.724640722386538982e-03 1.338397525250911713e-02
1.803007163107395172e-02 -1.003911718726158142e-02 7.669594883918762207e-02 3.897128859534859657e-03 -7.223519030958414078e-03 -4.503362253308296204e-02 -8.660346269607543945e-02 3.524745116010308266e-03 5.935201421380043030e-02 -1.248798612505197525e-02 -3.525831177830696106e-02 1.447297912091016769e-02 -6.704837083816528320e-02 -1.404300145804882050e-02 -4.634459502995014191e-03 -9.100673720240592957e-03 1.579657313413918018e-03 5.375143140554428101e-02 4.316716268658638000e-02 6.007837597280740738e-03 4.685829859226942062e-03 -5.307368002831935883e-03 -1.712961867451667786e-02 -3.647693246603012085e-02 -6.093920767307281494e-02 3.512198850512504578e-02 -4.132783412933349609e-02 3.918481245636940002e-02 -3.979754447937011719e-02 -3.423228114843368530e-02 2.651176787912845612e-02 -1.860621944069862366e-02
3.087815642356872559e-02 3.856515279039740562e-03 5.601666867733001709e-02 -4.051168914884328842e-03 -4.190213605761528015e-02 -4.266028851270675659e-02 -8.345309644937515259e-02 1.372136408463120461e-03 5.305886641144752502e-02 2.163274399936199188e-02 -2.808645926415920258e-02 -1.018500607460737228e-02 -3.175579756498336792e-02 -2.791750803589820862e-02 1.654785685241222382e-02 1.229313015937805176e-02 1.878418587148189545e-02 3.697354346513748169e-02 3.470667451620101929e-02 3.627189248800277710e-02 2.695228718221187592e-02 1.290505658835172653e-02 1.260964479297399521e-02 -3.201321139931678772e-02 -7.636629790067672729e-02 1.528194639831781387e-03 -2.740225940942764282e-02 -1.524051185697317123e-04 1.975048705935478210e-02 1.355991791933774948e-02 3.437840938568115234e-02 -5.195777863264083862e-03
3.960595652461051941e-02 3.284281119704246521e-02 7.375375926494598389e-02 -1.606551371514797211e-02 -3.417306393384933472e-02 -3.098328784108161926e-02 -4.648860543966293335e-02 3.144948510453104973e-03 2.767184190452098846e-02 3.372888639569282532e-02 -5.132041499018669128e-02 -2.658114582300186157e-02 7.312730420380830765e-03 6.386539433151483536e-03 3.730034455657005310e-02 5.189491063356399536e-02 2.694234624505043030e-02 -2.667322941124439240e-02 4.703195765614509583e-02 3.672794625163078308e-02 1.919941604137420654e-02 1.222251798026263714e-03 1.037373673170804977e-02 -4.244811087846755981e-02 -7.113940268754959106e-02 1.610456407070159912e-02 -1.360110938549041748e-02 -2.809470985084772110e-03 4.807231947779655457e-02 1.941630803048610687e-02 1.875812886282801628e-03 1.978930830955505371e-02
-3.703523799777030945e-02 3.930589929223060608e-02 2.087273262441158295e-02 2.619971334934234619e-02 -2.780958078801631927e-02 -1.495121326297521591e-02 -2.872092649340629578e-02 -1.708673685789108276e-02 -2.969684265553951263e-02 -2.842975594103336334e-02 -5.688296630978584290e-02 1.528561767190694809e-02 2.247984893620014191e-02 4.140744730830192566e-02 3.427453571930527687e-03 -3.549831733107566833e-02 -1.439656037837266922e-02 4.236391931772232056e-02 -3.103422001004219055e-02 -2.438088133931159973e-02 4.576218500733375549e-02 -3.613307140767574310e-03 -4.014929756522178650e-02 -5.446802452206611633e-02 5.626515671610832214e-02 -8.477100171148777008e-03 -3.584692487493157387e-03 -1.758535392582416534e-02 -1.336694601923227310e-02 -2.905320934951305389e-02 3.038859926164150238e-02 -2.459808997809886932e-02
-4.202786367386579514e-03 -2.456251345574855804e-02 6.201181560754776001e-02 1.276193652302026749e-02 -3.062484599649906158e-02 -2.028326317667961121e-02 -6.406382471323013306e-02 4.184596240520477295e-03 -3.925465513020753860e-03 -3.460767120122909546e-02 1.556021627038717270e-02 3.786840289831161499e-02 -2.536240732297301292e-03 -2.254562079906463623e-02 2.314757741987705231e-02 3.560157492756843567e-02 -3.281695023179054260e-02 -4.048685077577829361e-03 6.374980788677930832e-03 -5.874996632337570190e-02 2.364724874496459961e-02 -2.157640643417835236e-03 -6.686900276690721512e-03 -1.541953813284635544e-02 5.954582709819078445e-03 2.969873510301113129e-02 3.432335099205374718e-03 -1.031672861427068710e-02 -2.485900931060314178e-02 -1.564968191087245941e-02 -4.430943634361028671e-03 -8.832023479044437408e-03
1.158368322649039328e-04 -4.369836300611495972e-03 6.544931977987289429e-02 7.090045139193534851e-03 -2.104260213673114777e-02 -5.174088850617408752e-02 -5.898282304406166077e-02 1.850525289773941040e-02 3.194385021924972534e-02 -4.946738015860319138e-03 5.197757855057716370e-02 1.980570144951343536e-02 -3.968529030680656433e-02 -4.451528191566467285e-02 4.253992065787315369e-02 6.284712255001068115e-02 -1.375763583928346634e-02 7.048696745187044144e-03 1.962667517364025116e-02 -9.778164327144622803e-03 1.720679737627506256e-02 8.358020335435867310e-03 -1.025136653333902359e-02 -2.015788853168487549e-02 -4.842869937419891357e-02 3.341833502054214478e-02 -2.362275309860706329e-02 -1.423326786607503891e-02 2.330245636403560638e-02 -1.146591827273368835e-02 8.945573121309280396e-03 -6.815750617533922195e-03
3.360342979431152344e-02 1.497057080268859863e-02 2.762600546702742577e-03 -4.354095086455345154e-03 -3.933302313089370728e-02 -2.857577241957187653e-02 -8.141136914491653442e-02 3.121704608201980591e-02 3.726597875356674194e-02 5.834391922689974308e-04 2.726219967007637024e-02 -9.501698426902294159e-03 -6.842735689133405685e-03 -5.974342674016952515e-02 5.832886323332786560e-02 8.915497362613677979e-02 8.851118385791778564e-03 1.788911409676074982e-02 1.831153593957424164e-02 4.998956341296434402e-03 4.121039807796478271e-02 1.681357994675636292e-02 1.695332489907741547e-02 -3.025193139910697937e-02 -5.305720493197441101e-02 -3.548997454345226288e-03 5.519135389477014542e-03 -1.790378615260124207e-02 2.946687489748001099e-02 5.276910960674285889e-03 1.521422155201435089e-02 2.660874277353286743e-02
3.145056217908859253e-02 2.472738362848758698e-02 1.152843236923217773e-02 -8.286851458251476288e-03 -4.589515179395675659e-02 -1.601857692003250122e-02 -7.415563613176345825e-02 1.328247599303722382e-04 1.496305037289857864e-02 1.041273935697972775e-03 -1.662976667284965515e-02 -2.530198730528354645e-02 2.821716293692588806e-02 -5.453521385788917542e-02 7.217465341091156006e-02 9.420742094516754150e-02 6.471580825746059418e-03 -2.700205519795417786e-02 5.692236870527267456e-02 3.730586916208267212e-02 3.773342445492744446e-02 -2.464248426258563995e-02 2.627883665263652802e-02 -4.274689778685569763e-02 -4.070848226547241211e-02 1.250493805855512619e-02 2.987787500023841858e-02 2.080030739307403564e-02 -1.222787890583276749e-02 1.274685002863407135e-02 -6.946523208171129227e-03 5.311239883303642273e-02
3.025221079587936401e-02 1.492067612707614899e-02 -2.407574065728113055e-04 1.408107392489910126e-02 1.456897985190153122e-02 -3.895581141114234924e-02 9.485124610364437103e-03 -2.377254888415336609e-02 -1.665217615664005280e-02 2.081906277453526855e-04 -6.650176830589771271e-03 -3.433142602443695068e-02 -1.439649332314729691e-02 -1.057552546262741089e-02 4.603596404194831848e-02 -7.595445495098829269e-03 1.028892770409584045e-02 1.674095168709754944e-02 2.091327868402004242e-02 4.122847691178321838e-03 1.666173152625560760e-02 -3.026335733011364937e-03 -3.782847896218299866e-02 -1.811044104397296906e-02 1.711400575004518032e-03 8.815228939056396484e-03 1.994385384023189545e-02 2.430730685591697693e-02 -6.690026074647903442e-02 1.303573045879602432e-02 1.830678991973400116e-02 -3.237082064151763916e-02
2.556311897933483124e-02 4.322457313537597656e-02 -9.052901528775691986e-03 2.208786830306053162e-02 1.603189297020435333e-02 -3.653354197740554810e-02 -2.100900560617446899e-02 -3.742428123950958252e-02 -8.491937071084976196e-03 4.242571536451578140e-03 -3.382340818643569946e-02 -1.589755900204181671e-02 -2.804872579872608185e-02 -5.320842377841472626e-03 4.601211845874786377e-02 9.427548386156558990e-03 -9.796451777219772339e-03 1.628671027719974518e-02 1.975606195628643036e-02 -1.066010165959596634e-02 -7.784763351082801819e-03 -8.693538606166839600e-03 -4.006016626954078674e-02 -1.757547259330749512e-02 3.100809082388877869e-02 5.249770474620163441e-04 1.837623864412307739e-02 6.131085008382797241e-02 -5.942658334970474243e-02 1.622766442596912384e-02 1.057229470461606979e-02 -2.562681399285793304e-02
-9.205290116369724274e-03 4.913492500782012939e-02 -2.809300087392330170e-02 2.784343063831329346e-02 3.618830349296331406e-03 -3.361450880765914917e-02 -4.470755904912948608e-02 -4.221956431865692139e-02 7.328110747039318085e-03 2.516189776360988617e-02 -4.314146563410758972e-02 2.093032002449035645e-03 -4.338822513818740845e-02 -8.226567879319190979e-03 4.198937118053436279e-02 1.341612916439771652e-02 -9.122862480580806732e-03 2.434728853404521942e-02 3.223309060558676720e-03 -2.041080780327320099e-02 -9.608584456145763397e-03 -1.451087463647127151e-02 -3.552638366818428040e-02 -1.373922824859619141e-02 5.959857255220413208e-02 -7.338378578424453735e-03 -1.659847050905227661e-02 8.181079477071762085e-02 -3.935737907886505127e-02 1.587594673037528992e-02 2.227359823882579803e-02 -3.629976511001586914e-02
-2.962581440806388855e-02 2.701091580092906952e-02 -9.523379616439342499e-03 1.344796642661094666e-02 -2.490204200148582458e-02 -1.422395091503858566e-02 -2.128815837204456329e-02 -4.029335454106330872e-02 5.101251415908336639e-03 3.958095982670783997e-02 -4.250987246632575989e-02 1.924511161632835865e-03 -3.050076588988304138e-02 2.825540024787187576e-03 3.580931201577186584e-02 2.716322243213653564e-02 -2.065019682049751282e-02 -7.687513716518878937e-03 -2.620588243007659912e-02 -3.261268511414527893e-02 -1.935623027384281158e-02 7.408988196402788162e-03 -3.001687303185462952e-02 -5.934460554271936417e-03 8.599546551704406738e-02 2.043930348008871078e-03 -2.215021662414073944e-02 5.441189557313919067e-02 -7.282772567123174667e-04 2.361370017752051353e-03 2.349200472235679626e-02 -3.130893781781196594e-02
-2.095209807157516479e-02 1.209798362106084824e-02 1.886890828609466553e-02 2.231975784525275230e-03 -4.901438578963279724e-02 -8.819116046652197838e-04 4.003043286502361298e-03 -3.588778525590896606e-02 5.116660613566637039e-03 1.054418087005615234e-02 -3.012419678270816803e-02 -9.265899658203125000e-03 1.584255369380116463e-04 4.105060826987028122e-03 2.243578620254993439e-02 3.384495899081230164e-02 -2.851743623614311218e-02 -2.623544819653034210e-02 -2.041105926036834717e-02 -2.897142991423606873e-02 -1.289149373769760132e-02 2.056030370295047760e-02 -3.047988377511501312e-02 1.706955954432487488e-02 6.722043454647064209e-02 4.830922698602080345e-04 -4.675643052905797958e-03 5.966313648968935013e-03 1.646508648991584778e-02 -1.938986405730247498e-02 2.272566594183444977e-02 -1.984346844255924225e-02
2.543152123689651489e-02 4.392893612384796143e-02 -3.248214349150657654e-02 9.412099607288837433e-03 1.715235412120819092e-02 1.091548148542642593e-02 2.502960851415991783e-03 -2.147424407303333282e-02 -3.489274159073829651e-02 -1.295672822743654251e-02 -4.736642912030220032e-02 -3.291775658726692200e-02 -1.951536163687705994e-02 -4.107087384909391403e-03 2.389313094317913055e-02 -4.345658421516418457e-02 -1.073228474706411362e-02 2.329404093325138092e-02 3.837547823786735535e-02 1.695910841226577759e-02 2.209514006972312927e-02 7.676417008042335510e-03 -1.850288361310958862e-02 -2.317246794700622559e-02 -3.182442113757133484e-02 2.970944903790950775e-02 3.058611229062080383e-02 7.489635050296783447e-02 -9.073249995708465576e-02 8.181294426321983337e-03 9.319431148469448090e-03 -4.417183995246887207e-02
2.191972360014915466e-02 8.663025498390197754e-02 -5.450465530157089233e-02 1.186202000826597214e-02 5.562138184905052185e-02 3.674320178106427193e-03 -5.270003154873847961e-02 -3.135317936539649963e-02 -7.335893809795379639e-03 -3.401268273591995239e-03 -8.326269686222076416e-02 -2.881192043423652649e-02 -4.120130836963653564e-02 -2.547828480601310730e-03 3.239736333489418030e-02 -3.539078310132026672e-02 -3.298566117882728577e-02 2.223071269690990448e-02 3.214985132217407227e-02 3.842512611299753189e-03 5.721925757825374603e-03 1.372817903757095337e-02 -1.868717372417449951e-02 -1.457039546221494675e-02 -1.738008111715316772e-02 2.288196422159671783e-02 3.067024983465671539e-02 1.267021149396896362e-01 -7.417906820774078369e-02 1.802330836653709412e-02 7.912672124803066254e-03 -4.659046232700347900e-02
-9.034478571265935898e-04 7.911189645528793335e-02 -4.837737232446670532e-02 1.909381709992885590e-02 6.219086423516273499e-02 -1.041726581752300262e-02 -7.937503606081008911e-02 -4.193162173032760620e-02 2.288389950990676880e-02 2.621833048760890961e-02 -8.825054019689559937e-02 -2.167886495590209961e-02 -5.025921389460563660e-02 -1.376797538250684738e-02 2.964041754603385925e-02 -2.683050744235515594e-02 -3.156134113669395447e-02 2.039807662367820740e-02 -9.826050139963626862e-03 -4.495310131460428238e-03 3.108507953584194183e-03 1.049459259957075119e-02 -1.398129668086767197e-02 -5.844156257808208466e-03 2.478776127099990845e-02 2.514405362308025360e-02 -2.052393183112144470e-02 1.530820429325103760e-01 -4.643838852643966675e-02 1.673492044210433960e-02 1.811041310429573059e-02 -5.179481953382492065e-02
-1.592307165265083313e-02 6.002318859100341797e-02 -4.152756650000810623e-03 9.648748673498630524e-03 2.305099740624427795e-02 -2.420494705438613892e-02 -4.051417857408523560e-02 -4.299656674265861511e-02 2.927070297300815582e-02 4.867162555456161499e-02 -7.343336939811706543e-02 -1.883045397698879242e-02 -2.442472614347934723e-02 -1.329859253019094467e-02 1.960497535765171051e-02 -1.046837680041790009e-02 -3.291811794042587280e-02 -1.064734184183180332e-03 -5.026520788669586182e-02 -1.510506216436624527e-02 6.277029169723391533e-04 3.146512061357498169e-02 -1.688155531883239746e-02 -1.454816386103630066e-02 7.828994840383529663e-02 3.077721409499645233e-02 -3.747588023543357849e-02 1.041825562715530396e-01 -2.658573677763342857e-03 2.724485471844673157e-03 1.403922587633132935e-02 -2.930115908384323120e-02
-1.554152276366949081e-02 5.336598306894302368e-02 4.215429723262786865e-02 5.130589008331298828e-03 -3.059207089245319366e-02 -2.465108595788478851e-02 2.682159421965479851e-03 -3.331568464636802673e-02 1.983674429357051849e-02 1.997861638665199280e-02 -3.524302318692207336e-02 -2.259541489183902740e-02 2.461796067655086517e-02 -3.567813895642757416e-03 1.606098003685474396e-02 8.222993463277816772e-03 -3.432035446166992188e-02 -1.874796859920024872e-02 -4.497859627008438110e-02 -1.834158413112163544e-02 2.880362095311284065e-03 3.945330902934074402e-02 -2.190602570772171021e-02 -9.826620109379291534e-03 8.376360684633255005e-02 2.343781292438507080e-02 -2.542785182595252991e-02 4.349929094314575195e-02 2.222674898803234100e-02 -1.375815272331237793e-02 1.155526842921972275e-02 -1.246836874634027481e-02
1.048906333744525909e-02 4.371567443013191223e-02 -2.570807375013828278e-02 2.237531822174787521e-03 2.538054995238780975e-02 4.325050115585327148e-02 -2.205244824290275574e-02 -5.553910974413156509e-03 -3.155299648642539978e-02 -2.004137076437473297e-02 -5.586453899741172791e-02 -1.238417066633701324e-02 -3.341506794095039368e-02 -4.976629745215177536e-03 9.025572799146175385e-03 -6.339471042156219482e-02 -5.268848035484552383e-03 3.701173886656761169e-02 5.642020329833030701e-02 2.077026478946208954e-02 1.991863548755645752e-02 1.506725139915943146e-02 8.486157283186912537e-03 -3.737689228728413582e-03 -7.806556671857833862e-02 4.608281701803207397e-02 3.343209624290466309e-02 8.344081789255142212e-02 -6.837441772222518921e-02 1.179276593029499054e-02 3.552314126864075661e-03 -4.395002499222755432e-02
8.600061759352684021e-03 5.455677211284637451e-02 -3.284570947289466858e-02 4.655716475099325180e-03 8.370270580053329468e-02 2.516949176788330078e-02 -6.811436265707015991e-02 -1.334092672914266586e-02 7.091138977557420731e-03 -1.834792434237897396e-03 -8.887435495853424072e-02 -3.278921544551849365e-02 -6.131070479750633240e-02 -8.817808702588081360e-03 1.050209905952215195e-02 -6.365985423326492310e-02 -4.698491096496582031e-02 2.429484017193317413e-02 5.408708751201629639e-02 2.258457709103822708e-03 1.258381083607673645e-02 1.585500873625278473e-02 -1.090944977477192879e-03 8.753112517297267914e-03 -9.388811886310577393e-02 4.435641318559646606e-02 2.680715918540954590e-02 1.394859403371810913e-01 -6.270868331193923950e-02 1.793005317449569702e-02 3.820952726528048515e-03 -3.730458393692970276e-02
5.183211062103509903e-03 4.382242634892463684e-02 -1.691066101193428040e-02 1.033596787601709366e-02 9.706111997365951538e-02 -1.289089303463697433e-02 -7.792699337005615234e-02 -2.504149451851844788e-02 3.851789608597755432e-02 3.914278373122215271e-02 -9.659098088741302490e-02 -3.847345709800720215e-02 -6.510028243064880371e-02 -9.048650041222572327e-03 1.259487960487604141e-02 -4.938159883022308350e-02 -4.885673150420188904e-02 1.871079578995704651e-02 -8.852772880345582962e-04 1.041015423834323883e-02 1.941475272178649902e-02 1.921757683157920837e-02 -7.055790163576602936e-03 9.320490993559360504e-03 -6.342969089746475220e-02 6.006853654980659485e-02 -2.063685655593872070e-02 1.593366861343383789e-01 -3.148690983653068542e-02 2.062624506652355194e-02 9.897070936858654022e-03 -2.408812008798122406e-02
1.839300603023730218e-05 2.751501277089118958e-02 5.839626770466566086e-03 4.289702512323856354e-03 5.637534707784652710e-02 -3.876040130853652954e-02 -4.172206297516822815e-02 -3.036806918680667877e-02 4.192796722054481506e-02 6.734362244606018066e-02 -6.657127290964126587e-02 -2.535941638052463531e-02 -1.522092800587415695e-02 -1.355026196688413620e-02 8.477740921080112457e-03 -2.277406118810176849e-02 -3.233243897557258606e-02 -7.047502323985099792e-03 -4.816097393631935120e-02 2.677635988220572472e-03 1.589782722294330597e-02 3.421903774142265320e-02 -1.598600484430789948e-02 -1.352310646325349808e-02 -1.110886689275503159e-02 5.327028781175613403e-02 -3.667519986629486084e-02 1.089396700263023376e-01 1.741915009915828705e-02 1.650088652968406677e-02 6.815490778535604477e-03 -1.320648938417434692e-03
-1.561260223388671875e-02 3.502877056598663330e-02 3.408585116267204285e-02 5.822335369884967804e-03 -6.984028033912181854e-03 -4.423489049077033997e-02 -2.502280054613947868e-03 -2.388461120426654816e-02 2.743710018694400787e-02 4.024658724665641785e-02 -2.691523730754852295e-02 -1.608927920460700989e-02 2.345219999551773071e-02 -6.897992454469203949e-03 1.524155121296644211e-02 1.377379335463047028e-02 -2.872513234615325928e-02 -6.769222673028707504e-03 -4.838276654481887817e-02 -7.193171419203281403e-03 5.669658072292804718e-03 4.381980001926422119e-02 -1.616995967924594879e-02 -2.557125687599182129e-02 2.885076589882373810e-02 5.017305165529251099e-02 -2.471733838319778442e-02 4.770693928003311157e-02 3.567529097199440002e-02 1.247596181929111481e-02 2.417910611256957054e-03 5.569458473473787308e-03
-2.263479679822921753e-02 3.261803882196545601e-03 1.843089237809181213e-02 -5.306637380272150040e-03 1.019184384495019913e-02 1.249587535858154297e-02 -1.843876950442790985e-02 1.063376571983098984e-02 -2.758127078413963318e-02 -1.040249876677989960e-02 -4.383845254778862000e-02 -2.383355749770998955e-03 -4.637247696518898010e-02 -2.568242372944951057e-03 -5.654497537761926651e-03 -4.669595137238502502e-02 -2.105499617755413055e-02 3.259896486997604370e-02 5.132611840963363647e-02 6.186044774949550629e-03 1.366995088756084442e-02 7.512060925364494324e-03 9.618224576115608215e-03 2.448322437703609467e-02 -5.175654590129852295e-02 4.310544207692146301e-02 2.076247707009315491e-02 6.213394924998283386e-02 -2.596260234713554382e-02 5.231551826000213623e-03 8.932310156524181366e-03 -3.038522601127624512e-02
-2.016084082424640656e-02 -3.813424380496144295e-03 2.154700458049774170e-02 -9.482376277446746826e-03 7.194489985704421997e-02 -3.845354309305548668e-03 -3.791395202279090881e-02 -2.836304018273949623e-03 -2.194967819377779961e-03 3.581330645829439163e-03 -6.664825975894927979e-02 -2.081196568906307220e-02 -5.752404779195785522e-02 -1.740629784762859344e-03 5.394527688622474670e-03 -4.615705460309982300e-02 -5.030573904514312744e-02 1.380110625177621841e-02 4.798130691051483154e-02 -8.330876938998699188e-03 1.288890372961759567e-02 1.459364313632249832e-02 -5.490243900567293167e-03 3.457622602581977844e-02 -9.170441329479217529e-02 5.178028717637062073e-02 1.071252580732107162e-02 9.994949400424957275e-02 -2.939589321613311768e-02 8.568285033106803894e-03 7.416493725031614304e-03 -4.576139617711305618e-03
-3.803037572652101517e-03 -1.950485818088054657e-02 2.712173573672771454e-02 -8.365943096578121185e-03 1.042432710528373718e-01 -4.428591951727867126e-02 -5.158376693725585938e-02 -1.181714609265327454e-02 3.246388211846351624e-02 4.311861470341682434e-02 -6.432514637708663940e-02 -3.063725493848323822e-02 -5.318931862711906433e-02 -4.739888478070497513e-03 1.867336593568325043e-02 -2.436240203678607941e-02 -4.618400335311889648e-02 4.888316034339368343e-04 5.273595452308654785e-03 4.169851599726825953e-04 2.197556570172309875e-02 2.644658833742141724e-02 -7.137083914130926132e-03 2.759499289095401764e-02 -9.603741765022277832e-02 5.842909216880798340e-02 -1.704382151365280151e-02 1.027327850461006165e-01 4.617155995219945908e-03 1.341581717133522034e-02 1.067220978438854218e-02 1.361917424947023392e-02
2.865602727979421616e-03 -2.213578857481479645e-02 1.697450131177902222e-02 -5.870422348380088806e-03 7.832521945238113403e-02 -6.965211778879165649e-02 -4.380832239985466003e-02 -1.576231420040130615e-02 4.242409020662307739e-02 5.282035470008850098e-02 -3.149582818150520325e-02 -1.412727124989032745e-02 -1.701740361750125885e-02 -6.525364704430103302e-03 2.535636909306049347e-02 1.017080806195735931e-02 -1.998514123260974884e-02 -1.875646039843559265e-02 -3.664948046207427979e-02 -7.705455645918846130e-03 2.024136297404766083e-02 4.224794730544090271e-02 -1.634075120091438293e-02 2.246693475171923637e-03 -5.828665196895599365e-02 5.434672534465789795e-02 -1.722661405801773071e-02 6.898293644189834595e-02 3.633307293057441711e-02 1.588901318609714508e-02 6.020934320986270905e-03 2.062266692519187927e-02
-9.500890038907527924e-03 1.117862877435982227e-03 1.282375864684581757e-02 1.159346662461757660e-02 1.351952087134122849e-02 -6.962329894304275513e-02 -1.930324546992778778e-02 -1.694647222757339478e-02 2.728733234107494354e-02 2.564782649278640747e-02 -7.366832811385393143e-03 7.809078320860862732e-03 1.284441258758306503e-02 -9.945900179445743561e-03 2.137750014662742615e-02 2.782510407269001007e-02 -1.715217903256416321e-02 -3.124074311926960945e-03 -3.843114897608757019e-02 -5.217288155108690262e-03 1.204882166348397732e-03 4.299683123826980591e-02 -2.420511562377214432e-03 -1.270049717277288437e-02 -7.072687149047851562e-03 4.665682092308998108e-02 -2.469018101692199707e-03 2.870085649192333221e-02 3.559900447726249695e-02 1.575577259063720703e-02 -4.301437642425298691e-03 2.237983420491218567e-02
-3.362372890114784241e-02 4.754753783345222473e-03 4.723661765456199646e-02 -2.256674878299236298e-02 -7.421221118420362473e-03 -2.484888024628162384e-02 -5.742521025240421295e-03 5.513407522812485695e-04 -2.505361475050449371e-02 5.056811030954122543e-03 -2.461795136332511902e-02 8.865513838827610016e-03 -3.942965343594551086e-02 -5.426217103376984596e-04 -1.415532734245061874e-02 -8.632655953988432884e-05 -3.221112489700317383e-02 1.136100012809038162e-02 4.228082299232482910e-02 1.323143223999068141e-04 7.356159389019012451e-03 -2.042876556515693665e-02 -8.777743205428123474e-03 2.600637450814247131e-02 3.790656570345163345e-03 2.652086690068244934e-02 9.715222753584384918e-03 2.720125950872898102e-02 1.897363923490047455e-02 -6.319039966911077499e-03 8.759180083870887756e-03 -6.414963398128747940e-03
-2.727934718132019043e-02 -5.386657081544399261e-03 5.134216323494911194e-02 -2.759839221835136414e-02 3.801919892430305481e-02 -4.124139994382858276e-02 -6.367125082761049271e-03 -1.207185816019773483e-02 -7.010692264884710312e-03 1.317805610597133636e-02 -1.806363649666309357e-02 -1.913045562105253339e-04 -4.623584821820259094e-02 -1.630507758818566799e-03 3.297083079814910889e-03 2.158709056675434113e-02 -5.181133374571800232e-02 -1.574051566421985626e-02 4.160441085696220398e-02 -1.340578217059373856e-02 8.376331999897956848e-03 -1.197585370391607285e-02 -2.925026044249534607e-02 3.153794258832931519e-02 -3.976556286215782166e-02 2.083720453083515167e-02 1.784402504563331604e-02 4.691232368350028992e-02 2.730339393019676208e-02 -6.217304035089910030e-04 1.040716934949159622e-02 1.517154462635517120e-02
-1.771098701283335686e-03 -1.914495415985584259e-02 2.300818823277950287e-02 -1.808072626590728760e-02 7.024439424276351929e-02 -5.872786045074462891e-02 -2.801105193793773651e-02 -1.607878878712654114e-02 2.192927338182926178e-02 3.141199052333831787e-02 -1.760216802358627319e-02 -4.882753826677799225e-03 -4.280392453074455261e-02 -6.745274644345045090e-03 2.366085164248943329e-02 4.801082611083984375e-02 -4.258034005761146545e-02 -1.344597339630126953e-02 1.491449400782585144e-02 -8.564178831875324249e-03 1.906787231564521790e-02 -1.859706011600792408e-03 -3.278630599379539490e-02 2.780432999134063721e-02 -6.860664486885070801e-02 2.572494372725486755e-02 4.576094914227724075e-03 3.709363192319869995e-02 4.368250444531440735e-02 6.711432244628667831e-03 1.652499102056026459e-02 3.675306960940361023e-02
6.968544796109199524e-03 -1.017463579773902893e-02 9.884187020361423492e-03 -5.631837528198957443e-03 5.579295009374618530e-02 -6.579095870256423950e-02 -4.155784472823143005e-02 -1.731774210929870605e-02 4.609952867031097412e-02 2.653419040143489838e-02 1.247581560164690018e-03 -2.650493057444691658e-03 -1.455418113619089127e-02 -1.212018355727195740e-02 3.087523020803928375e-02 6.591133773326873779e-02 -3.409231454133987427e-02 -1.064504310488700867e-02 -7.837999612092971802e-03 -1.227052044123411179e-02 1.525186933577060699e-02 5.629744380712509155e-03 -2.600362338125705719e-02 1.044469419866800308e-02 -4.708939418196678162e-02 1.892032474279403687e-02 3.711035940796136856e-03 2.254118956625461578e-02 4.714128375053405762e-02 6.691291462630033493e-03 3.871778259053826332e-03 3.014076687395572662e-02
-2.593246987089514732e-03 2.587976166978478432e-03 -5.897843278944492340e-03 9.166706353425979614e-03 8.255777880549430847e-03 -5.935269966721534729e-02 -3.389543667435646057e-02 -2.710199356079101562e-02 3.664285689592361450e-02 1.636165007948875427e-02 4.064448177814483643e-03 -1.249763998202979565e-03 5.833305418491363525e-03 -1.559673808515071869e-02 2.750997804105281830e-02 5.405859276652336121e-02 -2.198833785951137543e-02 8.049920201301574707e-03 -1.245765481144189835e-02 4.698019620263949037e-05 2.477551810443401337e-03 1.627820171415805817e-02 -8.444819599390029907e-03 -2.867031143978238106e-03 -3.347116522490978241e-03 2.029383555054664612e-02 1.587860099971294403e-02 1.262620929628610611e-02 2.205657586455345154e-02 2.161516621708869934e-02 -6.818355992436408997e-03 2.056145854294300079e-02
-2.891977690160274506e-02 1.451419014483690262e-02 -1.468206290155649185e-02 -5.122962873429059982e-03 -1.417188812047243118e-02 -6.843940354883670807e-03 9.325842373073101044e-03 -2.526357769966125488e-02 2.465769881382584572e-03 -1.409438159316778183e-02 3.793682530522346497e-02 -2.035558922216296196e-03 -9.069295629160478711e-06 -1.948274439200758934e-03 -8.745701052248477936e-03 5.046186503022909164e-03 -9.594802744686603546e-03 1.278176496271044016e-04 1.096581690944731236e-03 8.500004187226295471e-04 2.418426796793937683e-02 -1.610803417861461639e-03 -2.920556627213954926e-02 -2.803039923310279846e-02 -2.213609032332897186e-02 2.324561215937137604e-02 5.396639555692672729e-02 4.252153914421796799e-03 8.161996491253376007e-03 1.043064612895250320e-02 1.668218057602643967e-03 -2.299430780112743378e-02
-1.974666304886341095e-02 2.775061130523681641e-02 -2.055025286972522736e-02 -9.115848690271377563e-03 -1.560261938720941544e-02 -5.595451220870018005e-03 1.720243482850492001e-03 -2.986938320100307465e-02 5.340280011296272278e-03 -1.084721926599740982e-02 2.944491617381572723e-02 4.816472996026277542e-03 8.004220202565193176e-03 -8.231610991060733795e-03 -2.133948495611548424e-03 2.018655650317668915e-02 -1.490063406527042389e-02 9.290992282330989838e-03 9.441705420613288879e-03 -9.696247987449169159e-03 2.573453076183795929e-02 2.968222368508577347e-03 -3.880721330642700195e-02 -1.881252415478229523e-02 -1.026575360447168350e-02 4.207003489136695862e-02 4.386292025446891785e-02 1.051782071590423584e-02 3.634562017396092415e-03 2.167987637221813202e-03 -1.506508095189929008e-03 -2.513175830245018005e-02
-1.069880742579698563e-02 2.979831397533416748e-02 -1.729687489569187164e-02 -6.652819924056529999e-03 -1.233930047601461411e-02 1.038798876106739044e-02 -4.992566071450710297e-03 -2.984130568802356720e-02 3.595761256292462349e-03 6.288316100835800171e-03 3.223779052495956421e-02 1.875337213277816772e-02 6.968407426029443741e-03 -1.591149531304836273e-02 -1.578489667735993862e-03 3.672686591744422913e-02 -2.175347879528999329e-02 1.706086657941341400e-02 -2.638890407979488373e-03 -2.210698276758193970e-02 2.866448462009429932e-02 4.830361343920230865e-03 -3.699022531509399414e-02 -3.612779779359698296e-03 6.413713563233613968e-03 5.511957034468650818e-02 3.191994130611419678e-02 7.531164679676294327e-03 -6.722411140799522400e-03 -9.265203843824565411e-04 8.967469329945743084e-04 -2.027842216193675995e-02
-1.127483788877725601e-02 1.759514771401882172e-02 -1.126813609153032303e-02 -3.904339391738176346e-03 -2.637312002480030060e-02 2.418127283453941345e-02 1.150741428136825562e-02 -2.787096053361892700e-02 3.635748988017439842e-03 1.430211309343576431e-02 3.071289882063865662e-02 1.876547932624816895e-02 7.938895374536514282e-03 -8.794636465609073639e-03 -1.781600713729858398e-02 3.725808858871459961e-02 -3.215356916189193726e-02 1.118369493633508682e-02 -8.035611361265182495e-03 -2.264476753771305084e-02 2.563164755702018738e-02 1.098197046667337418e-02 -3.419608250260353088e-02 3.109273035079240799e-03 1.760129444301128387e-02 5.468701943755149841e-02 7.184647955000400543e-03 4.163598176091909409e-03 -8.285429328680038452e-03 -3.949378151446580887e-03 -2.851482247933745384e-03 -1.578043028712272644e-02
-1.223468780517578125e-02 9.722279501147568226e-04 2.015927340835332870e-03 -2.280155196785926819e-03 -4.477391019463539124e-02 4.184138774871826172e-02 1.783503964543342590e-02 -2.110479213297367096e-02 2.907161600887775421e-03 1.789787039160728455e-02 3.283584490418434143e-02 1.706743985414505005e-02 1.033107098191976547e-02 9.953655535355210304e-04 -3.004932403564453125e-02 3.299380838871002197e-02 -3.098509460687637329e-02 3.484480315819382668e-03 -1.404147595167160034e-02 -1.779123395681381226e-02 5.459784530103206635e-03 -7.706288248300552368e-03 -2.937644347548484802e-02 1.655329391360282898e-02 1.466085296124219894e-02 4.525822401046752930e-02 3.212766489014029503e-03 5.272576119750738144e-03 6.178988143801689148e-03 -1.015031524002552032e-02 -6.478085648268461227e-03 -1.903244853019714355e-02
-2.757908403873443604e-02 2.758804149925708771e-02 -2.281500212848186493e-02 -6.111706607043743134e-04 7.200777530670166016e-03 -8.846141397953033447e-03 -3.157690633088350296e-03 -2.164545468986034393e-02 -1.126840477809309959e-03 8.180360309779644012e-04 2.735111303627490997e-02 -7.915380410850048065e-03 1.875475863926112652e-03 1.810471410863101482e-03 -1.795184426009654999e-02 -2.055330015718936920e-02 -1.409615576267242432e-02 -2.891203854233026505e-03 1.010371651500463486e-02 4.261105787009000778e-03 2.523745596408843994e-02 1.027457509189844131e-02 -3.033878095448017120e-02 -2.309913933277130127e-02 -4.179902747273445129e-02 3.525846824049949646e-02 5.225306004285812378e-02 1.392050739377737045e-02 1.512408349663019180e-02 6.829920690506696701e-03 4.212840925902128220e-03 -1.352900266647338867e-02
-2.801442332565784454e-02 3.903024271130561829e-02 -2.614039368927478790e-02 -9.741945192217826843e-03 2.662585116922855377e-02 -7.862809114158153534e-03 -5.571213550865650177e-03 -2.682060189545154572e-02 7.375117391347885132e-03 4.568299744278192520e-03 2.267537638545036316e-02 -1.056041941046714783e-02 3.756574820727109909e-03 -7.173692574724555016e-04 -4.924537613987922668e-03 -6.230773869901895523e-03 -2.684175781905651093e-02 1.380376890301704407e-02 1.191305927932262421e-02 -8.358342573046684265e-03 2.288129739463329315e-02 1.520963665097951889e-02 -3.814941272139549255e-02 -6.011738441884517670e-03 -3.678117692470550537e-02 5.850126594305038452e-02 4.674684256315231323e-02 1.565924473106861115e-02 2.250772714614868164e-02 -1.684527262113988400e-03 6.114793010056018829e-03 -1.096829306334257126e-02
-1.672435924410820007e-02 3.963847458362579346e-02 -2.190564759075641632e-02 -5.975173786282539368e-03 3.140639513731002808e-02 3.406741190701723099e-03 -4.838496446609497070e-03 -2.763097360730171204e-02 1.037058420479297638e-02 1.480742264539003372e-02 2.267777547240257263e-02 -3.823014674708247185e-03 6.026330869644880295e-03 -1.267274469137191772e-02 -7.166823372244834900e-03 1.010805647820234299e-02 -3.581652045249938965e-02 2.092799916863441467e-02 -9.762716479599475861e-03 -1.389098726212978363e-02 1.951487734913825989e-02 1.720655336976051331e-02 -3.483178839087486267e-02 1.044968701899051666e-02 -1.717289350926876068e-02 7.999894767999649048e-02 2.101743966341018677e-02 1.196385081857442856e-02 1.485666073858737946e-02 -9.897640906274318695e-03 8.743315935134887695e-03 -1.033854950219392776e-02
-8.977611549198627472e-03 3.484700247645378113e-02 -9.126676246523857117e-03 2.898820384871214628e-04 1.631388440728187561e-02 2.092588506639003754e-02 1.066103111952543259e-02 -2.457827888429164886e-02 1.467087119817733765e-02 2.271603792905807495e-02 2.789274789392948151e-02 2.657262841239571571e-03 1.403466053307056427e-02 -1.505192089825868607e-02 -1.818392425775527954e-02 1.235625799745321274e-02 -4.406617954373359680e-02 1.540419273078441620e-02 -2.543416060507297516e-02 -1.488073728978633881e-02 1.578235626220703125e-02 2.324917726218700409e-02 -3.466547280550003052e-02 9.472662582993507385e-03 5.559778772294521332e-03 8.438968658447265625e-02 -9.902281686663627625e-03 1.372516527771949768e-02 1.618955470621585846e-02 -1.390424463897943497e-02 1.498710480518639088e-03 -7.898059673607349396e-03
-6.837578956037759781e-03 1.866705156862735748e-02 5.973921623080968857e-03 1.754920464009046555e-03 -1.638841070234775543e-02 3.797940909862518311e-02 2.182076498866081238e-02 -1.871108636260032654e-02 1.198727544397115707e-02 2.279560454189777374e-02 3.456575423479080200e-02 5.254624877125024796e-03 1.358689833432435989e-02 -9.922134689986705780e-03 -2.370835654437541962e-02 1.649469323456287384e-02 -4.773619398474693298e-02 1.430046465247869492e-02 -2.819144539535045624e-02 -1.487502362579107285e-02 2.216885186498984694e-04 9.270180016756057739e-03 -2.569004707038402557e-02 1.235728617757558823e-02 8.515395224094390869e-03 6.756784021854400635e-02 -1.454460155218839645e-02 1.474582683295011520e-02 2.258806861937046051e-02 -1.315440982580184937e-02 -1.497145713074132800e-04 -5.979189649224281311e-03
-2.026858180761337280e-02 2.152670174837112427e-02 -6.801603827625513077e-03 2.713345922529697418e-03 2.361375093460083008e-02 -4.149626009166240692e-03 -1.012718072161078453e-03 -1.354151312261819839e-02 -1.556536648422479630e-03 1.783933676779270172e-02 2.922287955880165100e-02 -3.729645861312747002e-03 2.418469870463013649e-03 9.758259693626314402e-05 -2.324404194951057434e-02 -3.157356008887290955e-02 -9.492142125964164734e-03 4.772386513650417328e-03 9.642312303185462952e-03 -8.500171679770573974e-05 5.033289082348346710e-03 5.174487363547086716e-03 -3.238674998283386230e-02 2.238527173176407814e-03 -5.394641309976577759e-02 3.918755427002906799e-02 3.195567429065704346e-02 1.683912426233291626e-02 2.806219086050987244e-02 -7.257545832544565201e-03 6.173496600240468979e-03 1.314906869083642960e-02
-2.252576313912868500e-02 2.299188449978828430e-02 -1.122030615806579590e-02 -7.139533758163452148e-03 5.292705446481704712e-02 -3.742733271792531013e-03 8.457601652480661869e-04 -1.957893557846546173e-02 6.450075656175613403e-03 2.030737139284610748e-02 1.620483957231044769e-02 -7.466279901564121246e-03 1.452083699405193329e-03 2.289177355123683810e-04 -1.162305753678083420e-02 -2.479773946106433868e-02 -2.692589536309242249e-02 1.813644543290138245e-02 6.227453239262104034e-03 -9.956265799701213837e-03 6.839930545538663864e-03 1.800653524696826935e-02 -4.162298515439033508e-02 2.293604612350463867e-02 -6.212726235389709473e-02 6.371745467185974121e-02 2.528545632958412170e-02 2.368666417896747589e-02 4.057664796710014343e-02 -1.735658943653106689e-02 7.656610570847988129e-03 1.552112959325313568e-02
-1.855654828250408173e-02 2.134723588824272156e-02 -1.730322372168302536e-03 -8.883630856871604919e-03 6.205715611577033997e-02 -2.151140244677662849e-03 3.922300878912210464e-03 -1.974757760763168335e-02 1.279847230762243271e-02 3.027710877358913422e-02 1.145542692393064499e-02 -1.487785764038562775e-02 3.960103727877140045e-03 -8.582226000726222992e-03 -7.465459872037172318e-03 -8.559956215322017670e-03 -3.401184827089309692e-02 1.904584281146526337e-02 -1.375070493668317795e-02 -1.306781731545925140e-02 2.317803213372826576e-03 2.283725515007972717e-02 -3.720375150442123413e-02 3.342805802822113037e-02 -5.320293083786964417e-02 8.981425315141677856e-02 -3.393961116671562195e-03 2.812649123370647430e-02 4.614641889929771423e-02 -2.107330784201622009e-02 1.129704061895608902e-02 1.752377673983573914e-02
-1.176948565989732742e-02 1.592938043177127838e-02 8.186393533833324909e-04 2.539063338190317154e-03 4.063884541392326355e-02 1.149711851030588150e-02 8.753351867198944092e-03 -1.653928495943546295e-02 1.397109311074018478e-02 3.048017993569374084e-02 1.656380295753479004e-02 -5.490949843078851700e-03 1.244239602237939835e-02 -1.121967006474733353e-02 -1.336154993623495102e-02 3.039367147721350193e-04 -3.594084456562995911e-02 1.960514485836029053e-02 -3.086586110293865204e-02 -1.386950258165597916e-02 -7.182769011706113815e-03 2.195235900580883026e-02 -3.550639748573303223e-02 2.341190353035926819e-02 -3.089451603591442108e-02 9.615396708250045776e-02 -2.190334536135196686e-02 2.386223897337913513e-02 4.968650639057159424e-02 -1.703205332159996033e-02 7.543059065937995911e-03 1.607407629489898682e-02
-1.070409733802080154e-02 1.790686324238777161e-02 6.854957435280084610e-03 1.314463373273611069e-02 3.431019140407443047e-03 2.104202099144458771e-02 1.266436278820037842e-02 -1.076053548604249954e-02 1.605424471199512482e-02 3.008771315217018127e-02 2.495612576603889465e-02 1.729056239128112793e-03 1.399095170199871063e-02 -1.299102138727903366e-02 -1.989332959055900574e-02 1.514903921633958817e-02 -3.784657269716262817e-02 1.637167669832706451e-02 -2.897793054580688477e-02 -1.343654096126556396e-02 -1.986239105463027954e-02 4.832509439438581467e-03 -2.204363420605659485e-02 8.192775771021842957e-03 -1.232759561389684677e-02 8.300396054983139038e-02 -2.844323590397834778e-02 2.325091883540153503e-02 4.401296377182006836e-02 -1.865649223327636719e-02 2.267809817567467690e-03 7.565546780824661255e-03
-1.341770123690366745e-02 1.258855778723955154e-02 3.374651074409484863e-03 1.504620909690856934e-02 1.884478330612182617e-02 -8.285813964903354645e-03 1.821215078234672546e-02 -3.085203934460878372e-03 -1.860727788880467415e-03 2.994532883167266846e-02 2.292623184621334076e-02 9.453110396862030029e-03 1.339700887911021709e-03 -6.675590761005878448e-03 -3.800581395626068115e-02 -1.723635755479335785e-02 -1.035661436617374420e-02 1.498473575338721275e-03 -2.333911601454019547e-03 -1.358488947153091431e-02 -6.347271613776683807e-03 -9.526065550744533539e-03 -3.944119438529014587e-02 5.049802828580141068e-03 -1.968307234346866608e-02 3.656103834509849548e-02 -2.607825910672545433e-03 2.038440853357315063e-02 4.090490937232971191e-02 -9.157395921647548676e-03 1.088280137628316879e-02 3.160548210144042969e-02
-1.579312421381473541e-02 7.766428869217634201e-03 5.457245744764804840e-03 1.895748660899698734e-03 4.934794455766677856e-02 -1.601569913327693939e-02 1.381448190659284592e-02 -1.314060203731060028e-02 3.091607009992003441e-03 2.671894803643226624e-02 1.680587790906429291e-02 4.545175936073064804e-03 2.933175303041934967e-03 8.937054371926933527e-05 -2.826848626136779785e-02 -1.429773960262537003e-02 -2.222156897187232971e-02 4.527312703430652618e-03 -1.594886998645961285e-03 -1.730629988014698029e-02 -5.870079156011343002e-03 -9.765460272319614887e-04 -4.445020481944084167e-02 2.002482302486896515e-02 -3.358426317572593689e-02 5.868911743164062500e-02 -9.813481010496616364e-03 2.228031679987907410e-02 5.275539681315422058e-02 -2.063601091504096985e-02 1.399825979024171829e-02 4.188732430338859558e-02
-1.889735087752342224e-02 3.753830445930361748e-03 9.028924629092216492e-03 4.555629566311836243e-03 5.755371600389480591e-02 -2.583287656307220459e-02 1.845738478004932404e-02 -1.462661009281873703e-02 9.162524715065956116e-03 3.196631744503974915e-02 6.634258665144443512e-03 3.693153557833284140e-04 6.198984920047223568e-04 -6.731249392032623291e-03 -2.495483122766017914e-02 2.515995409339666367e-03 -3.110605292022228241e-02 5.075232125818729401e-03 -1.558031793683767319e-02 -2.167122997343540192e-02 -8.025031536817550659e-03 1.728622126393020153e-03 -4.091442748904228210e-02 2.449305541813373566e-02 -4.434106126427650452e-02 7.331997901201248169e-02 -2.701953798532485962e-02 3.335951641201972961e-02 6.892725825309753418e-02 -2.127293683588504791e-02 1.872373558580875397e-02 3.929594904184341431e-02
-1.494964025914669037e-02 1.316639478318393230e-03 7.985061965882778168e-03 1.446386519819498062e-02 3.482700511813163757e-02 -2.203159779310226440e-02 1.617742143571376801e-02 -1.539217866957187653e-02 1.358096860349178314e-02 2.752751857042312622e-02 9.104218333959579468e-03 -6.491835811175405979e-04 6.066388916224241257e-03 -5.782714113593101501e-03 -2.504837512969970703e-02 9.886700659990310669e-03 -3.085792623460292816e-02 5.819291807711124420e-03 -2.784387581050395966e-02 -2.209632284939289093e-02 -1.946507766842842102e-02 3.921672469004988670e-04 -3.192299231886863708e-02 1.174526195973157883e-02 -3.194905444979667664e-02 8.381499350070953369e-02 -3.530748561024665833e-02 3.296596929430961609e-02 7.140578329563140869e-02 -1.952382363379001617e-02 1.551430858671665192e-02 2.891482971608638763e-02
-1.512866374105215073e-02 1.450737658888101578e-02 4.796598106622695923e-03 2.524534612894058228e-02 2.739387098699808121e-03 -1.075465697795152664e-02 1.657551154494285583e-02 -1.203674543648958206e-02 1.625354960560798645e-02 2.469280734658241272e-02 1.490845251828432083e-02 2.291390672326087952e-03 9.861115366220474243e-03 -1.497796643525362015e-02 -3.099641017615795135e-02 2.258887141942977905e-02 -3.121844306588172913e-02 5.309821572154760361e-03 -2.770278602838516235e-02 -2.067163586616516113e-02 -2.835401520133018494e-02 -1.821039803326129913e-02 -1.838180609047412872e-02 -5.354012828320264816e-03 -8.523367345333099365e-03 7.520117610692977905e-02 -3.950574621558189392e-02 3.076966479420661926e-02 6.114882230758666992e-02 -1.333168987184762955e-02 8.060775697231292725e-03 1.639073528349399567e-02
-4.836749751120805740e-03 1.132085174322128296e-02 6.081332452595233917e-03 2.482192963361740112e-02 6.693886592984199524e-03 -1.107885036617517471e-02 3.450130671262741089e-02 5.455626174807548523e-03 -5.970401223748922348e-03 3.860299289226531982e-02 2.178192324936389923e-02 1.431048568338155746e-02 -2.975243609398603439e-03 -1.036059483885765076e-02 -5.030036345124244690e-02 3.376582870259881020e-03 -1.295739877969026566e-02 -9.868593886494636536e-03 -3.198322607204318047e-03 -1.833633892238140106e-02 -8.449046872556209564e-03 -2.470746450126171112e-02 -5.331216007471084595e-02 -2.659304998815059662e-03 1.695459522306919098e-02 2.289485000073909760e-02 -2.701190300285816193e-02 3.518463671207427979e-02 5.343502759933471680e-02 -6.012168712913990021e-03 1.616859436035156250e-02 3.220453113317489624e-02
-5.947356577962636948e-03 3.162740031257271767e-03 6.159786134958267212e-03 1.576889306306838989e-02 3.048027679324150085e-02 -2.033795230090618134e-02 2.726053819060325623e-02 -1.051719067618250847e-03 -3.711141878738999367e-03 3.177212923765182495e-02 1.621760614216327667e-02 1.648091338574886322e-02 6.824026349931955338e-03 -6.546385586261749268e-03 -4.236199334263801575e-02 1.229256298393011093e-02 -2.186540700495243073e-02 -1.640206389129161835e-02 -4.417970310896635056e-03 -2.009402588009834290e-02 -4.134487826377153397e-03 -1.812392659485340118e-02 -5.550998449325561523e-02 7.403629366308450699e-03 -1.904647098854184151e-03 3.385409712791442871e-02 -3.359107300639152527e-02 3.647832199931144714e-02 5.986529588699340820e-02 -1.426544226706027985e-02 1.629315502941608429e-02 4.106279090046882629e-02
-9.171770885586738586e-03 8.198531344532966614e-03 1.933745108544826508e-03 1.437924895435571671e-02 3.579707443714141846e-02 -3.036058694124221802e-02 2.047672308981418610e-02 -7.066978607326745987e-03 -5.216515623033046722e-03 3.614068776369094849e-02 3.279011696577072144e-03 1.500972732901573181e-02 9.060768410563468933e-03 -9.009849280118942261e-03 -3.753864392638206482e-02 2.816632762551307678e-02 -2.730013243854045868e-02 -1.448709517717361450e-02 -8.975730277597904205e-03 -2.376450039446353912e-02 -6.771376356482505798e-03 -1.302577741444110870e-02 -5.428124964237213135e-02 1.043010689318180084e-02 -2.112171053886413574e-02 5.222390592098236084e-02 -3.869828209280967712e-02 4.378886148333549500e-02 7.572735846042633057e-02 -1.399677805602550507e-02 2.124583534896373749e-02 5.040599405765533447e-02
-9.431833401322364807e-03 1.228674314916133881e-02 -2.562444133218377829e-04 1.601974666118621826e-02 1.865727268159389496e-02 -2.873285673558712006e-02 1.525871828198432922e-02 -6.094771903008222580e-03 2.873243996873497963e-03 3.140691667795181274e-02 2.828772878274321556e-03 9.130952879786491394e-03 1.817671023309230804e-02 -1.261693891137838364e-02 -2.720244601368904114e-02 3.670803457498550415e-02 -2.398534305393695831e-02 -8.306772448122501373e-03 -1.727698184549808502e-02 -1.967657171189785004e-02 -1.425058860331773758e-02 -1.698604039847850800e-02 -3.974989429116249084e-02 -5.575622897595167160e-03 -1.745050214231014252e-02 5.584698915481567383e-02 -3.952383249998092651e-02 3.632201999425888062e-02 8.293612301349639893e-02 -1.196416188031435013e-02 1.980710215866565704e-02 3.871834278106689453e-02
-1.769439689815044403e-02 2.646664716303348541e-02 -3.503905842080712318e-03 2.178252674639225006e-02 -4.379679448902606964e-03 -2.466175518929958344e-02 1.347290258854627609e-02 -6.790392566472291946e-03 9.561192244291305542e-03 3.132097423076629639e-02 7.367108482867479324e-03 2.336713252589106560e-03 1.974761299788951874e-02 -1.991099305450916290e-02 -3.228050097823143005e-02 4.062891378998756409e-02 -1.985857449471950531e-02 -4.454630892723798752e-03 -1.691662892699241638e-02 -1.468453928828239441e-02 -1.821445487439632416e-02 -3.184826672077178955e-02 -2.770809270441532135e-02 -2.746428921818733215e-02 1.884033903479576111e-03 5.827161669731140137e-02 -4.167347401380538940e-02 3.501946851611137390e-02 7.284511625766754150e-02 -5.258867982774972916e-03 1.544483844190835953e-02 2.443613111972808838e-02
3.472920972853899002e-03 -1.241924148052930832e-02 -1.570961810648441315e-02 3.555810451507568359e-02 1.032440830022096634e-02 -4.333712160587310791e-02 6.221733987331390381e-02 -5.540404096245765686e-02 -2.786976099014282227e-02 4.945182241499423981e-03 -2.444069460034370422e-02 -5.965747684240341187e-02 4.285930469632148743e-02 -5.634047836065292358e-02 5.654265359044075012e-02 -2.040943689644336700e-02 6.546634435653686523e-02 4.827795550227165222e-02 4.717514291405677795e-02 2.231141738593578339e-02 3.762226551771163940e-02 1.525160390883684158e-02 -5.034443736076354980e-02 -9.778001345694065094e-03 2.968111075460910797e-02 -2.035339362919330597e-02 2.440702728927135468e-02 -4.273980855941772461e-02 -6.199824437499046326e-02 -7.578121963888406754e-03 -1.570429652929306030e-02 6.823041290044784546e-02
3.873595967888832092e-02 3.446445614099502563e-02 -3.096212446689605713e-02 7.359218597412109375e-02 -8.948230184614658356e-03 -4.209147021174430847e-02 7.805309444665908813e-02 -5.274374037981033325e-02 1.146443281322717667e-02 2.031681872904300690e-02 -6.261210888624191284e-02 -5.712220817804336548e-02 -4.775261506438255310e-02 -1.703477650880813599e-02 4.038194566965103149e-02 -3.899966180324554443e-02 2.376507781445980072e-02 2.472084015607833862e-02 5.859438329935073853e-02 -1.261922344565391541e-02 -2.418484725058078766e-02 1.677625440061092377e-02 -1.937492750585079193e-02 -3.849341347813606262e-02 8.320590853691101074e-02 -8.470276743173599243e-02 -2.613890171051025391e-02 -2.247225120663642883e-02 -2.373945526778697968e-02 -1.162529829889535904e-02 -1.704621501266956329e-02 1.095183715224266052e-01
-1.288065966218709946e-02 5.094357579946517944e-02 -7.850033789873123169e-02 1.138644143939018250e-01 -5.382101982831954956e-02 1.087013515643775463e-03 3.052571602165699005e-02 -6.012633070349693298e-02 4.089497774839401245e-02 5.523097515106201172e-02 -8.292188495397567749e-02 -2.140809781849384308e-02 -6.623288989067077637e-02 2.040659543126821518e-03 5.342028662562370300e-02 -2.218532934784889221e-02 2.792434021830558777e-02 4.220356419682502747e-02 3.944081440567970276e-02 -8.850309997797012329e-03 -2.076045051217079163e-02 5.646991077810525894e-03 -4.806798323988914490e-02 -2.789521776139736176e-02 1.334310173988342285e-01 -1.063573807477951050e-01 -4.073137789964675903e-02 3.727688640356063843e-02 -1.281842403113842010e-02 -2.465322986245155334e-02 5.162784829735755920e-03 1.016468629240989685e-01
-5.581529811024665833e-02 1.714769192039966583e-02 -5.859594419598579407e-02 7.833091914653778076e-02 -4.963901266455650330e-02 2.677358314394950867e-02 1.773727126419544220e-02 -3.835626691579818726e-02 4.162054508924484253e-02 7.756949216127395630e-02 -8.458454161882400513e-02 2.383782761171460152e-03 -2.300520054996013641e-02 -4.012130200862884521e-03 -2.333488519070670009e-04 -5.790382251143455505e-02 5.385095998644828796e-02 -3.245748579502105713e-02 -1.842510700225830078e-02 2.083100145682692528e-03 -3.286348283290863037e-02 1.103875692933797836e-02 -3.560706973075866699e-02 3.657562192529439926e-03 1.545793563127517700e-01 -1.080339029431343079e-01 -4.186488687992095947e-02 4.120118916034698486e-02 3.318161889910697937e-02 -1.155470847152173519e-03 2.856040140613913536e-03 1.365745812654495239e-02
-8.393342047929763794e-02 -3.032146394252777100e-02 -1.146674156188964844e-02 -4.475353751331567764e-03 -4.441310092806816101e-02 3.352851793169975281e-02 -6.746550090610980988e-03 -3.602767735719680786e-02 1.632039085961878300e-03 5.768787115812301636e-02 -4.622178152203559875e-02 -1.386450976133346558e-02 2.256179787218570709e-02 7.966682314872741699e-03 -1.201547961682081223e-02 -4.060729593038558960e-02 4.721705615520477295e-02 -5.461611226201057434e-02 -1.787880621850490570e-02 -3.046384453773498535e-02 -1.431729272007942200e-02 6.905808113515377045e-03 -5.452731624245643616e-02 1.479442417621612549e-02 8.464355766773223877e-02 -5.687189102172851562e-02 2.407958090770989656e-04 7.698843255639076233e-03 1.650993339717388153e-02 -2.467612922191619873e-02 7.847218774259090424e-03 -2.847278863191604614e-02
3.417545929551124573e-02 2.369380556046962738e-02 -3.499367833137512207e-02 4.061538353562355042e-02 -6.408974528312683105e-03 3.490886650979518890e-03 4.813419282436370850e-02 -4.530905932188034058e-02 -3.421559184789657593e-02 -3.022959642112255096e-02 -2.939975075423717499e-02 -7.088019046932458878e-03 2.626120857894420624e-02 -5.458886176347732544e-02 4.899879544973373413e-02 -5.709981918334960938e-02 4.899227991700172424e-02 5.552790313959121704e-02 6.610085815191268921e-02 3.679261729121208191e-02 2.820388413965702057e-02 -9.820128791034221649e-03 -1.899326592683792114e-02 -2.366370707750320435e-02 -4.636035766452550888e-03 -1.186258066445589066e-02 -4.872198216617107391e-03 -3.121527284383773804e-02 -9.073939919471740723e-02 -2.184533141553401947e-02 -3.711584582924842834e-02 7.132269442081451416e-02
7.321635633707046509e-02 4.513163864612579346e-02 -9.189616888761520386e-02 9.178282320499420166e-02 1.340122427791357040e-02 3.140529850497841835e-03 1.651399582624435425e-02 -3.187904879450798035e-02 3.516793623566627502e-02 -2.410761639475822449e-02 -5.910793691873550415e-02 -5.309493839740753174e-02 -8.756772428750991821e-02 -2.942562103271484375e-02 2.681425586342811584e-02 -1.088138818740844727e-01 2.840073592960834503e-02 3.268586471676826477e-02 8.136451244354248047e-02 2.335355849936604500e-03 -1.707789115607738495e-02 2.081900089979171753e-02 1.787483692169189453e-02 -6.004721671342849731e-02 1.353273354470729828e-02 -8.270162343978881836e-02 -3.086134232580661774e-02 2.194002270698547363e-02 -3.715873882174491882e-02 -2.000867202877998352e-02 -4.585732519626617432e-02 9.711410105228424072e-02
2.408156730234622955e-02 5.120783671736717224e-02 -1.321438997983932495e-01 1.238472685217857361e-01 -1.326400414109230042e-02 3.512040153145790100e-02 -3.619226068258285522e-02 -4.049444943666458130e-02 8.103912323713302612e-02 3.126592561602592468e-02 -7.734271883964538574e-02 -3.201621025800704956e-02 -1.079280674457550049e-01 -7.719539571553468704e-03 2.600333467125892639e-02 -1.123645678162574768e-01 4.389323666691780090e-02 3.040906228125095367e-02 2.075544372200965881e-02 2.781234122812747955e-02 -2.240096963942050934e-02 -8.850892074406147003e-03 3.704465460032224655e-03 -4.522598907351493835e-02 6.020889803767204285e-02 -8.824472129344940186e-02 -6.779945641756057739e-02 8.727540820837020874e-02 -1.334332395344972610e-02 -1.619911752641201019e-02 -2.707379683852195740e-02 9.525910764932632446e-02
-2.702078223228454590e-02 3.123423270881175995e-02 -5.884852632880210876e-02 7.502198964357376099e-02 -3.041847795248031616e-02 2.738283574581146240e-02 -3.004081547260284424e-02 -3.097085841000080109e-02 7.667430490255355835e-02 8.576330542564392090e-02 -6.749062240123748779e-02 -1.314998883754014969e-02 -2.455907128751277924e-02 7.757100276648998260e-03 -1.631609722971916199e-02 -1.270556896924972534e-01 7.307255268096923828e-02 -3.730212152004241943e-02 -7.177302241325378418e-02 4.084813967347145081e-02 -3.487674146890640259e-02 1.159744616597890854e-02 1.350297871977090836e-02 -1.532872207462787628e-02 9.775840491056442261e-02 -7.956770807504653931e-02 -9.191551059484481812e-02 7.642225176095962524e-02 5.380292981863021851e-02 1.856353878974914551e-02 -3.369679674506187439e-02 2.627389505505561829e-02
-7.999239861965179443e-02 1.294446177780628204e-02 -5.789814051240682602e-03 -4.991136491298675537e-03 -4.455681517720222473e-02 -7.521861698478460312e-03 -1.911257207393646240e-02 -3.032255172729492188e-02 -4.710886278189718723e-04 6.107003241777420044e-02 -3.538037464022636414e-02 -1.684795878827571869e-02 6.256653368473052979e-02 1.700224913656711578e-02 -2.844502218067646027e-02 -8.830354362726211548e-02 5.457723885774612427e-02 -3.906058892607688904e-02 -7.461383938789367676e-02 -8.720776066184043884e-03 -1.547561213374137878e-02 -1.294205058366060257e-02 -4.468455910682678223e-03 -2.341113053262233734e-02 7.916367053985595703e-02 -2.985632047057151794e-02 -7.181858271360397339e-02 1.657566986978054047e-02 3.678590804338455200e-02 -1.873658038675785065e-02 -1.909545250236988068e-02 -8.961129002273082733e-03
3.509948775172233582e-02 1.404170319437980652e-02 -2.655144594609737396e-02 3.947427868843078613e-02 8.515343070030212402e-04 4.802552610635757446e-02 6.504266522824764252e-03 -1.692252792418003082e-02 -4.211650416254997253e-02 -4.256755486130714417e-02 -1.032218802720308304e-02 1.134581118822097778e-02 1.751728728413581848e-02 -3.261365741491317749e-02 5.525659769773483276e-02 -1.056864932179450989e-01 5.139547958970069885e-02 9.352334588766098022e-02 7.300213724374771118e-02 4.388723149895668030e-02 -1.351209706626832485e-03 7.287203799933195114e-03 4.020553547888994217e-03 -1.320037525147199631e-02 -5.163066089153289795e-02 8.362109772861003876e-03 -1.020610518753528595e-02 -1.955097168684005737e-02 -6.605135649442672729e-02 -1.064951065927743912e-02 -4.368880391120910645e-02 4.544214159250259399e-02
8.853676915168762207e-02 -5.877014249563217163e-03 -8.360431343317031860e-02 8.828023821115493774e-02 5.304995179176330566e-02 4.841409623622894287e-02 -4.068844392895698547e-02 -8.777444250881671906e-03 3.656882047653198242e-02 -4.594952613115310669e-02 -1.900479383766651154e-02 -5.298953875899314880e-02 -1.184163391590118408e-01 -3.073900565505027771e-02 4.160335287451744080e-02 -1.644489765167236328e-01 1.960837282240390778e-02 5.036543309688568115e-02 1.053604185581207275e-01 1.127520576119422913e-02 -5.258514359593391418e-02 3.049621172249317169e-02 6.071858480572700500e-02 -3.229215368628501892e-02 -8.623631298542022705e-02 -3.822291269898414612e-02 -2.436869218945503235e-02 2.850859612226486206e-02 -2.636495046317577362e-02 -2.494404837489128113e-02 -4.210432246327400208e-02 6.917836517095565796e-02
6.470672786235809326e-02 -2.570146322250366211e-02 -1.301650106906890869e-01 9.599851071834564209e-02 3.089153394103050232e-02 5.439786240458488464e-02 -8.025797456502914429e-02 -6.535289343446493149e-03 7.284751534461975098e-02 4.683539271354675293e-03 -2.737657912075519562e-02 -4.803647473454475403e-02 -1.339049190282821655e-01 -2.322142198681831360e-02 3.285912051796913147e-02 -1.731644421815872192e-01 6.894424557685852051e-03 2.285863459110260010e-02 1.457616314291954041e-02 4.882055521011352539e-02 -4.626627638936042786e-02 -3.959699068218469620e-03 6.609790772199630737e-02 -2.108974754810333252e-02 -7.413644343614578247e-02 -2.516201324760913849e-02 -7.872208207845687866e-02 7.407696545124053955e-02 -1.084870845079421997e-02 -9.820986539125442505e-03 -3.895380720496177673e-02 7.575061917304992676e-02
3.198254480957984924e-02 -3.796858340501785278e-02 -7.027432322502136230e-02 6.252615153789520264e-02 -3.633937565609812737e-03 1.472294982522726059e-02 -8.445617556571960449e-02 -1.628850353881716728e-03 7.632707804441452026e-02 9.857388585805892944e-02 -2.384187839925289154e-02 -1.621562987565994263e-02 -1.960740238428115845e-02 1.366711501032114029e-02 5.507117137312889099e-03 -1.501880437135696411e-01 4.276712611317634583e-02 -4.620135203003883362e-02 -9.059707820415496826e-02 5.888062715530395508e-02 -5.058673024177551270e-02 3.203279525041580200e-02 8.346724510192871094e-02 4.148966690991073847e-04 -3.140641376376152039e-02 -3.919593989849090576e-02 -8.763306587934494019e-02 5.754531547427177429e-02 6.041945889592170715e-02 4.365420714020729065e-02 -4.364532604813575745e-02 4.135376587510108948e-02
-4.629415273666381836e-02 -1.542959082871675491e-02 -7.630043663084506989e-03 -3.506131470203399658e-04 -2.786151878535747528e-02 -3.347108885645866394e-02 -5.548549443483352661e-02 -1.805795170366764069e-02 -8.077271049842238426e-04 7.311973720788955688e-02 -1.041488442569971085e-02 7.429403485730290413e-04 7.611475884914398193e-02 2.786501683294773102e-02 1.201905310153961182e-03 -8.370597660541534424e-02 3.146867454051971436e-02 -1.175891887396574020e-02 -9.684799611568450928e-02 7.255602627992630005e-03 -3.542162477970123291e-02 1.398697309195995331e-02 5.967056751251220703e-02 -2.496811561286449432e-02 -8.633925579488277435e-03 -4.225355572998523712e-03 -8.219495415687561035e-02 3.253696020692586899e-03 4.663800075650215149e-02 1.691564917564392090e-02 -3.447931259870529175e-02 9.421560913324356079e-03
-1.579440198838710785e-02 -4.630045220255851746e-02 4.551621153950691223e-02 9.409621357917785645e-03 -2.278279885649681091e-02 2.820286154747009277e-02 6.430542096495628357e-03 1.057272404432296753e-02 -4.367503523826599121e-02 -1.231184229254722595e-02 7.313018664717674255e-03 2.145732380449771881e-02 6.513279862701892853e-03 -1.475334353744983673e-02 4.437787830829620361e-02 -1.124794483184814453e-01 1.319073699414730072e-02 8.576326817274093628e-02 6.635384261608123779e-02 2.239590138196945190e-02 -1.204663515090942383e-02 9.828031063079833984e-03 1.412128657102584839e-02 1.739138737320899963e-02 -2.911659888923168182e-02 2.595315501093864441e-02 -4.592509940266609192e-03 4.157357849180698395e-03 -2.282869629561901093e-02 -1.001360453665256500e-02 -2.666189521551132202e-02 1.930215023458003998e-02
2.992237173020839691e-02 -1.140265911817550659e-01 1.524275355041027069e-02 5.816651880741119385e-02 4.689848423004150391e-02 5.622952431440353394e-02 -2.284845523536205292e-02 1.106436830013990402e-02 2.818693872541189194e-03 -3.391654044389724731e-02 1.051397994160652161e-02 -3.934843093156814575e-02 -1.126502305269241333e-01 -1.627827435731887817e-02 3.815825283527374268e-02 -1.471861302852630615e-01 -1.176182460039854050e-02 2.269850298762321472e-02 1.033440455794334412e-01 -3.382581053301692009e-03 -5.827925726771354675e-02 8.940202184021472931e-03 6.255359947681427002e-02 1.619241386651992798e-02 -8.537379652261734009e-02 3.923414740711450577e-03 -1.139538548886775970e-02 1.903101243078708649e-02 -1.851506344974040985e-02 -2.692216075956821442e-02 -1.945732161402702332e-02 3.891393914818763733e-02
3.934861719608306885e-02 -1.279444545507431030e-01 -2.749409154057502747e-02 4.287765920162200928e-02 2.781294472515583038e-02 5.537805706262588501e-02 -6.515260785818099976e-02 1.142624020576477051e-02 3.984061628580093384e-02 7.949540391564369202e-03 2.143022604286670685e-02 -2.589033171534538269e-02 -1.081579178571701050e-01 7.475049700587987900e-03 3.282520174980163574e-02 -1.569576412439346313e-01 -4.082030057907104492e-02 2.204688033089041710e-03 2.904131822288036346e-02 4.276895895600318909e-02 -4.491057991981506348e-02 -4.905107896775007248e-03 7.520589232444763184e-02 8.272350765764713287e-03 -1.298284083604812622e-01 1.645205914974212646e-02 -5.767805874347686768e-02 4.045859351754188538e-02 -6.183142773807048798e-03 -9.835870005190372467e-03 -2.497017197310924530e-02 4.145471751689910889e-02
4.614475369453430176e-02 -1.309790909290313721e-01 -3.428142145276069641e-02 3.228005766868591309e-02 -6.048208568245172501e-03 1.225032191723585129e-02 -9.951557964086532593e-02 1.048040390014648438e-02 5.096676945686340332e-02 8.600638061761856079e-02 2.889487892389297485e-02 1.483863597968593240e-04 1.018763170577585697e-03 2.986112982034683228e-02 3.685719519853591919e-02 -9.546728432178497314e-02 1.046567130833864212e-02 -5.758527293801307678e-02 -5.992353707551956177e-02 5.201322212815284729e-02 -4.310525208711624146e-02 3.051603399217128754e-02 1.053426191210746765e-01 2.833017334342002869e-02 -1.005322188138961792e-01 -2.620001882314682007e-02 -5.054189637303352356e-02 3.823573514819145203e-02 5.018826574087142944e-02 5.084244906902313232e-02 -2.280231751501560211e-02 2.559468150138854980e-02
-1.963734813034534454e-02 -7.240021228790283203e-02 2.326075220480561256e-03 3.884997277054935694e-04 -2.315914072096347809e-02 -5.700646713376045227e-02 -7.280879467725753784e-02 -1.597307622432708740e-02 -6.349235773086547852e-03 6.370852887630462646e-02 2.055094763636589050e-02 2.946891635656356812e-02 6.419797986745834351e-02 3.190983459353446960e-02 1.072558201849460602e-02 -5.012241378426551819e-02 -5.345619283616542816e-03 -1.056656613945960999e-02 -6.247535720467567444e-02 2.259898930788040161e-02 -2.513011544942855835e-02 3.114810772240161896e-02 8.312881737947463989e-02 -1.063987705856561661e-02 -4.628333821892738342e-02 -2.205093391239643097e-03 -3.727840259671211243e-02 -1.178438030183315277e-02 3.402390331029891968e-02 4.409617185592651367e-02 -2.158809266984462738e-02 9.396684472449123859e-04
-4.219701513648033142e-02 -2.104582823812961578e-02 6.867407262325286865e-02 -3.445545583963394165e-02 -5.628481879830360413e-02 -2.375619253143668175e-03 2.103278227150440216e-02 1.845880225300788879e-02 -4.204734042286872864e-02 2.492388896644115448e-02 8.691638708114624023e-03 9.569047018885612488e-03 1.860110275447368622e-02 3.189489943906664848e-03 3.123006969690322876e-02 -5.760558322072029114e-02 -2.324680238962173462e-02 3.689030930399894714e-02 4.550752043724060059e-02 4.443001933395862579e-03 1.414228463545441628e-03 1.518298522569239140e-03 5.912238731980323792e-03 1.471973862498998642e-02 4.672828316688537598e-02 2.685619518160820007e-02 -6.968692876398563385e-03 1.927905529737472534e-02 -6.618196610361337662e-03 -2.268326468765735626e-02 -2.358540706336498260e-02 -4.408308491110801697e-02
-1.581192947924137115e-02 -8.718042820692062378e-02 6.695426255464553833e-02 1.052364334464073181e-02 1.041478756815195084e-02 3.269300609827041626e-02 3.528352454304695129e-02 2.400760166347026825e-02 -3.318661823868751526e-02 -1.077496912330389023e-02 4.901840537786483765e-02 -2.873609960079193115e-02 -8.332119882106781006e-02 -1.190210599452257156e-02 3.601135313510894775e-02 -4.329590499401092529e-02 -4.626381397247314453e-02 -2.511820755898952484e-02 7.761689275503158569e-02 -4.224739503115415573e-03 -5.441719666123390198e-02 -3.362044692039489746e-03 1.155124884098768234e-02 1.480231527239084244e-02 2.882614498957991600e-03 1.832682266831398010e-02 3.485196270048618317e-03 8.917969651520252228e-03 -1.694434438832104206e-03 -2.756052464246749878e-02 -4.736767616122961044e-03 -2.565480768680572510e-02
1.872318051755428314e-02 -1.004962995648384094e-01 3.066764213144779205e-02 -1.967552304267883301e-02 2.683325204998254776e-03 4.882279038429260254e-02 -2.309044264256954193e-02 1.826214417815208435e-02 1.085149496793746948e-02 1.304688025265932083e-02 5.463732033967971802e-02 -2.446752972900867462e-03 -7.516150921583175659e-02 7.656389381736516953e-03 4.114640876650810242e-02 -4.416713491082191467e-02 -6.291546672582626343e-02 -1.007432024925947189e-02 4.821152612566947937e-02 2.407607249915599823e-02 -2.150000631809234619e-02 -1.672825589776039124e-02 3.505286527797579765e-03 1.799446903169155121e-02 -6.565229594707489014e-02 3.873328678309917450e-03 -2.453220076858997345e-02 1.861174777150154114e-02 6.503549870103597641e-03 -1.629732176661491394e-02 -6.264073774218559265e-03 -1.491435058414936066e-02
4.784715175628662109e-02 -9.058419615030288696e-02 -5.351692438125610352e-03 -1.805551582947373390e-03 -2.970824390649795532e-02 2.352098375558853149e-02 -9.755296260118484497e-02 8.194248192012310028e-03 3.322318196296691895e-02 5.122999474406242371e-02 4.733561724424362183e-02 4.288280848413705826e-03 3.028786182403564453e-02 2.196350833401083946e-03 4.270601272583007812e-02 1.630170084536075592e-02 -3.301009908318519592e-02 -3.557316958904266357e-02 -2.239983761683106422e-03 3.454540297389030457e-02 -2.413076534867286682e-02 3.280845121480524540e-04 4.497715458273887634e-02 5.330428108572959900e-02 -4.437518492341041565e-02 -4.149379953742027283e-02 -1.963156461715698242e-02 3.159738704562187195e-02 1.635988056659698486e-02 2.725278586149215698e-02 8.809916907921433449e-04 -2.212838642299175262e-02
6.255311425775289536e-03 -4.106407985091209412e-02 7.229397073388099670e-03 -1.262024976313114166e-02 -3.298642858862876892e-02 -4.969991371035575867e-02 -8.079160004854202271e-02 -2.047230862081050873e-02 -3.674356266856193542e-03 5.438252538442611694e-02 2.938107401132583618e-02 1.542495656758546829e-02 4.982555285096168518e-02 2.087856177240610123e-03 6.714134477078914642e-03 -5.838987883180379868e-03 -2.443486452102661133e-02 1.334022544324398041e-02 -1.767249777913093567e-02 3.184877708554267883e-02 3.727654227986931801e-03 2.774612233042716980e-02 2.633158862590789795e-02 1.591227203607559204e-02 -1.309668272733688354e-02 -2.295101620256900787e-02 6.478632800281047821e-03 -5.800584796816110611e-03 -2.110235393047332764e-02 3.818339481949806213e-02 -1.314746029675006866e-02 -3.050149232149124146e-02
-1.237972546368837357e-02 -6.303656846284866333e-03 1.283098571002483368e-02 -6.403455976396799088e-03 2.973486855626106262e-02 -2.202214114367961884e-02 1.511810161173343658e-02 -2.037914656102657318e-02 -2.033632248640060425e-02 5.160003434866666794e-03 2.234250865876674652e-02 1.662175520323216915e-03 2.174291759729385376e-03 6.257001310586929321e-03 2.865682914853096008e-02 -2.121132565662264824e-03 9.859433397650718689e-03 5.143853370100259781e-03 1.276256702840328217e-02 2.765785902738571167e-02 -2.821970544755458832e-02 1.417467254213988781e-03 -1.121859252452850342e-02 9.355696849524974823e-03 9.052889072336256504e-05 9.614389389753341675e-03 5.265162885189056396e-02 3.201436251401901245e-02 -5.306898429989814758e-02 2.851139195263385773e-02 -1.644954830408096313e-02 -1.246614567935466766e-02
-3.360593691468238831e-02 1.357286423444747925e-02 -6.088403053581714630e-03 1.269824057817459106e-02 5.049128085374832153e-02 -1.594411954283714294e-02 -1.056057028472423553e-02 -2.262471616268157959e-02 -2.506949007511138916e-02 7.140807807445526123e-03 8.965809829533100128e-03 1.888095587491989136e-02 -1.064036972820758820e-02 1.583707332611083984e-02 2.043870650231838226e-02 5.438413470983505249e-03 8.644910529255867004e-03 -4.078833444509655237e-04 7.118030334822833538e-04 2.277508564293384552e-02 -3.643664717674255371e-02 -7.775915786623954773e-03 6.552381440997123718e-03 -3.992348443716764450e-03 2.146018110215663910e-02 -2.838773652911186218e-02 5.433316901326179504e-02 7.427190989255905151e-02 -3.710588440299034119e-02 3.705159947276115417e-02 -1.854901388287544250e-02 -2.273652143776416779e-02
-3.560420125722885132e-02 2.705944702029228210e-02 -1.393466070294380188e-02 1.750078424811363220e-02 4.339160025119781494e-02 -1.460607629269361496e-02 -3.851936385035514832e-02 -4.213589057326316833e-02 -1.648383401334285736e-02 2.380131371319293976e-02 -1.783140562474727631e-02 1.951660402119159698e-02 -2.775660157203674316e-02 1.029525604099035263e-02 4.602043889462947845e-03 7.276147953234612942e-04 3.947719931602478027e-03 9.917838498950004578e-03 -2.118730358779430389e-02 1.242944970726966858e-02 -4.173006117343902588e-02 -1.957054622471332550e-02 3.483239933848381042e-02 -1.389550138264894485e-02 5.073650926351547241e-02 -3.717614337801933289e-02 3.360158205032348633e-02 7.899464666843414307e-02 -2.160878665745258331e-02 2.828401885926723480e-02 -9.500073269009590149e-03 -3.479601442813873291e-02
-3.137019649147987366e-02 3.491882234811782837e-02 -8.337823674082756042e-03 9.220920503139495850e-03 1.814334839582443237e-02 -2.307474054396152496e-02 -1.427624002099037170e-02 -5.187357589602470398e-02 -1.293200626969337463e-02 2.659604884684085846e-02 -3.917736932635307312e-02 -6.006051320582628250e-03 -4.033791646361351013e-02 1.143284491263329983e-03 -7.511616218835115433e-03 9.092301130294799805e-03 -1.145764719694852829e-02 2.404883969575166702e-03 -4.809443652629852295e-02 -3.058692440390586853e-03 -2.212735079228878021e-02 -1.067137718200683594e-02 3.930631652474403381e-02 -1.563137024641036987e-02 6.344418972730636597e-02 -4.019432887434959412e-02 -3.028921550139784813e-03 4.241650551557540894e-02 -2.311173081398010254e-02 2.500029467046260834e-02 8.766958490014076233e-04 -1.302856486290693283e-02
-2.610942162573337555e-02 3.494294732809066772e-02 6.683077663183212280e-03 1.539722178131341934e-02 -1.575705409049987793e-02 -2.250050008296966553e-02 2.278612554073333740e-02 -4.668321087956428528e-02 -1.663383212871849537e-03 1.306834910064935684e-02 -4.835528507828712463e-02 -3.349743410944938660e-02 -1.541873533278703690e-02 1.628391328267753124e-04 -3.127545490860939026e-02 2.367014624178409576e-02 -1.209731027483940125e-02 -1.334240101277828217e-02 -4.266858845949172974e-02 -2.400130033493041992e-02 3.525167005136609077e-03 -2.179363742470741272e-02 5.451239179819822311e-03 -4.319036379456520081e-03 5.464612320065498352e-02 -4.227817058563232422e-02 -1.128864940255880356e-02 -2.850841730833053589e-03 -1.189581677317619324e-02 2.146623842418193817e-02 -4.723982885479927063e-03 1.787082478404045105e-02
-1.577101275324821472e-02 1.402093097567558289e-02 -4.158495739102363586e-02 -1.683424809016287327e-03 4.284488409757614136e-02 -4.830348305404186249e-03 -4.102570191025733948e-02 -8.875790983438491821e-03 -2.543482929468154907e-02 -3.471356257796287537e-02 -1.305346377193927765e-02 1.030349545180797577e-02 8.002753369510173798e-03 -1.052400842308998108e-02 1.122666406445205212e-03 4.106124397367238998e-03 -1.444426178932189941e-02 -2.828231640160083771e-02 3.481749072670936584e-02 5.582452192902565002e-02 -6.938640959560871124e-03 8.937801234424114227e-03 -1.657922565937042236e-02 1.992779318243265152e-03 -2.335344813764095306e-02 1.138226315379142761e-02 6.652412563562393188e-02 9.542637318372726440e-02 -6.443012505769729614e-02 2.134987339377403259e-02 -2.395425178110599518e-02 -2.102528885006904602e-02
-2.305157110095024109e-02 4.136880859732627869e-02 -5.420857295393943787e-02 1.846918836236000061e-02 9.308300167322158813e-02 1.657918212004005909e-03 -8.119751513004302979e-02 -1.687231101095676422e-02 -2.949182502925395966e-02 -3.545168042182922363e-02 -4.335149377584457397e-02 1.187441404908895493e-02 -1.353539247065782547e-02 1.823810976929962635e-03 1.588756404817104340e-02 -8.574103005230426788e-03 -2.900834009051322937e-02 -1.866645738482475281e-02 7.756141014397144318e-03 6.104414165019989014e-02 -2.192709594964981079e-02 -1.246670261025428772e-02 1.743096113204956055e-02 -6.819420494139194489e-03 -1.639004610478878021e-02 -8.563230745494365692e-03 7.114209234714508057e-02 1.437735557556152344e-01 -5.720030888915061951e-02 2.063418738543987274e-02 -1.819715276360511780e-02 -4.675509780645370483e-02
-6.998639437370002270e-04 6.206268072128295898e-02 -5.235011130571365356e-02 2.627316676080226898e-02 8.018518984317779541e-02 3.626841120421886444e-03 -8.982858061790466309e-02 -3.405008092522621155e-02 -1.375555619597434998e-02 -8.678106591105461121e-03 -7.057004421949386597e-02 1.514024753123521805e-02 -3.653060644865036011e-02 2.874811762012541294e-04 7.045082747936248779e-03 -1.320511475205421448e-02 -3.715186938643455505e-02 -1.811356400139629841e-03 -2.008057944476604462e-02 5.028334632515907288e-02 -1.363618392497301102e-02 -2.636068686842918396e-02 4.414071887731552124e-02 -1.060310937464237213e-02 1.546488143503665924e-02 -1.337393838912248611e-02 3.184293210506439209e-02 1.379246711730957031e-01 -4.793822020292282104e-02 1.548983063548803329e-02 -1.016154512763023376e-02 -4.943044483661651611e-02
8.061248809099197388e-03 6.971786916255950928e-02 -4.018286988139152527e-02 1.081278547644615173e-02 3.129717707633972168e-02 -2.597245946526527405e-02 -5.094154551625251770e-02 -4.652792587876319885e-02 -2.114847768098115921e-03 2.000822499394416809e-02 -7.264236360788345337e-02 -1.329227071255445480e-02 -3.322039172053337097e-02 -1.953280530869960785e-03 -7.348783314228057861e-03 -6.666570901870727539e-03 -3.581530973315238953e-02 -1.058910042047500610e-02 -4.932318255305290222e-02 1.809437014162540436e-02 1.753201824612915516e-03 -2.535779960453510284e-02 2.558862604200839996e-02 -1.803720742464065552e-02 5.463061854243278503e-02 -2.697852812707424164e-02 -2.196068316698074341e-02 1.025887280702590942e-01 -3.635262697935104370e-02 1.185771916061639786e-02 -5.510571878403425217e-03 -1.290881261229515076e-02
7.071699015796184540e-03 5.814990773797035217e-02 -8.245829376392066479e-04 3.213666612282395363e-03 -2.182861231267452240e-02 -2.206877619028091431e-02 -7.890874519944190979e-03 -4.176156967878341675e-02 1.332001015543937683e-02 5.467511713504791260e-03 -5.349494516849517822e-02 -1.742664165794849396e-02 -2.928833418991416693e-04 3.946950193494558334e-03 -2.789647318422794342e-02 2.051774039864540100e-02 -2.484121918678283691e-02 -2.398770861327648163e-02 -3.904270008206367493e-02 -3.834649221971631050e-03 8.180116303265094757e-03 -2.346017211675643921e-02 -1.442631240934133530e-02 -1.250921748578548431e-02 5.962255224585533142e-02 -4.170549660921096802e-02 -3.129544854164123535e-02 4.121484234929084778e-02 -1.403140276670455933e-02 4.417948890477418900e-03 -8.572381921112537384e-03 2.131470665335655212e-02
8.549181744456291199e-03 6.410054862499237061e-02 -6.644421815872192383e-02 5.924522411078214645e-03 3.371993079781532288e-02 1.039323117583990097e-02 -6.354289501905441284e-02 1.182595081627368927e-02 -2.870856411755084991e-02 -5.185348168015480042e-02 -2.982747368514537811e-02 -1.647156663239002228e-02 -2.266988391056656837e-03 -7.919344119727611542e-03 -1.269850693643093109e-02 -9.313481859862804413e-03 -2.536038868129253387e-02 -2.937756106257438660e-02 4.647623375058174133e-02 6.144195422530174255e-02 -3.567562671378254890e-03 -1.579925068654119968e-03 9.400693699717521667e-03 1.008815970271825790e-02 -6.126704066991806030e-02 2.441333606839179993e-02 6.596830487251281738e-02 1.037634313106536865e-01 -4.670562967658042908e-02 8.391001028940081596e-04 -1.874805986881256104e-02 -2.068843878805637360e-02
-1.453480450436472893e-03 7.791716605424880981e-02 -5.836939066648483276e-02 3.304212167859077454e-02 8.463934808969497681e-02 8.406570181250572205e-03 -8.389737457036972046e-02 1.793822832405567169e-02 -2.644998766481876373e-02 -5.294808745384216309e-02 -7.588405907154083252e-02 -3.379728645086288452e-02 -1.715535484254360199e-02 6.862188689410686493e-03 2.109190449118614197e-03 -2.467707172036170959e-02 -4.758696630597114563e-02 -2.050960063934326172e-02 1.071926672011613846e-02 6.837438791990280151e-02 -6.870305631309747696e-03 -2.320328354835510254e-02 5.228742212057113647e-02 3.604154800996184349e-03 -6.759309768676757812e-02 3.622369468212127686e-02 5.358136072754859924e-02 1.447751224040985107e-01 -5.094838887453079224e-02 -8.612437522970139980e-04 -2.080325037240982056e-02 -1.531143020838499069e-02
2.508481591939926147e-02 8.189135044813156128e-02 -4.507213458418846130e-02 3.126543760299682617e-02 7.348353415727615356e-02 -1.068648882210254669e-02 -8.880189061164855957e-02 5.174624966457486153e-04 -6.482252851128578186e-03 -2.234320156276226044e-02 -1.021554172039031982e-01 -3.853221610188484192e-02 -2.351715788245201111e-02 1.472862809896469116e-02 6.169870030134916306e-03 -1.824588887393474579e-02 -4.601085558533668518e-02 -2.410949673503637314e-03 -2.624605968594551086e-02 4.866214469075202942e-02 -1.095369923859834671e-03 -3.041880577802658081e-02 4.715182259678840637e-02 9.407766163349151611e-03 -4.751630499958992004e-02 3.696893528103828430e-02 1.341917458921670914e-02 1.449773460626602173e-01 -4.752041772007942200e-02 5.480433348566293716e-03 -1.936674304306507111e-02 -1.150136440992355347e-02
3.278509899973869324e-02 6.999373435974121094e-02 -3.177332133054733276e-02 6.413412280380725861e-03 3.315646946430206299e-02 -5.173821374773979187e-02 -6.480488926172256470e-02 -1.942636072635650635e-02 1.131394132971763611e-02 2.984254620969295502e-03 -8.216556161642074585e-02 -3.586708381772041321e-02 -6.057629361748695374e-03 6.841218098998069763e-03 -9.160662069916725159e-03 5.192235694266855717e-04 -2.594171836972236633e-02 -1.364442426711320877e-02 -4.704173281788825989e-02 1.592681184411048889e-02 1.014753524214029312e-02 -2.002182044088840485e-02 2.036033943295478821e-02 3.838596167042851448e-03 -2.334382443223148584e-04 1.863065175712108612e-02 -2.136790379881858826e-02 1.181942969560623169e-01 -3.038146905601024628e-02 7.019872311502695084e-03 -1.246180571615695953e-02 4.112508147954940796e-03
4.000608995556831360e-02 5.474122986197471619e-02 3.296124981716275215e-03 -1.841817237436771393e-02 -2.336389198899269104e-02 -3.914839774370193481e-02 -2.997776493430137634e-02 -3.127290681004524231e-02 1.780150271952152252e-02 -1.696563413133844733e-04 -4.831636324524879456e-02 -1.859447546303272247e-02 3.084491938352584839e-02 2.020841836929321289e-02 -4.232075810432434082e-02 1.812149956822395325e-02 -4.803330637514591217e-03 -5.850338842719793320e-03 -3.210452944040298462e-02 1.802603801479563117e-04 1.870283111929893494e-02 -1.618668064475059509e-02 -1.592917554080486298e-02 -1.480725686997175217e-02 2.831215970218181610e-02 -4.490774590522050858e-03 -1.166721247136592865e-02 6.263372302055358887e-02 -1.308817509561777115e-02 -1.247460674494504929e-02 -2.372735366225242615e-02 2.146452665328979492e-02
1.468466501682996750e-02 5.286824330687522888e-02 -3.339782357215881348e-02 7.692126557230949402e-03 -8.952093310654163361e-03 -7.782517932355403900e-03 -5.856725201010704041e-02 1.710112020373344421e-02 -1.294407807290554047e-02 -3.697967156767845154e-02 -5.108287185430526733e-02 -2.467768266797065735e-02 6.008337251842021942e-03 1.227657869458198547e-02 2.060604747384786606e-03 -1.875644735991954803e-02 -1.021857745945453644e-02 -2.611671760678291321e-02 3.312309086322784424e-02 4.240834340453147888e-02 7.496363949030637741e-03 -4.828976001590490341e-03 3.477167338132858276e-02 2.476629987359046936e-02 -3.420227393507957458e-02 2.836617827415466309e-02 2.152141369879245758e-02 4.912221804261207581e-02 -2.871248498558998108e-02 -1.910896040499210358e-02 -1.657265052199363708e-02 3.656279528513550758e-03
1.115621649660170078e-03 5.566405877470970154e-02 -1.966178603470325470e-02 1.752137392759323120e-02 3.584486246109008789e-02 -1.635362394154071808e-02 -7.577793300151824951e-02 2.425100654363632202e-02 -3.805551095865666866e-04 -3.601875901222229004e-02 -7.805456221103668213e-02 -2.892364934086799622e-02 3.028528299182653427e-03 2.378884702920913696e-02 6.275271996855735779e-03 -2.462790347635746002e-02 -3.078376129269599915e-02 -1.763649098575115204e-02 4.884520545601844788e-03 4.199141636490821838e-02 -7.159867091104388237e-04 -2.047856338322162628e-02 6.002495065331459045e-02 1.912380196154117584e-02 -6.120694056153297424e-02 6.555996090173721313e-02 1.082630641758441925e-02 7.149442285299301147e-02 -3.570744767785072327e-02 -1.753359101712703705e-03 -1.705297827720642090e-02 1.128460094332695007e-02
1.447912119328975677e-02 3.613381460309028625e-02 -3.835585666820406914e-03 1.108901202678680420e-02 4.722957313060760498e-02 -3.835733234882354736e-02 -8.089685440063476562e-02 7.231856230646371841e-03 2.711264416575431824e-02 -7.200950291007757187e-03 -8.573537319898605347e-02 -3.389823436737060547e-02 -6.662716157734394073e-03 1.845020987093448639e-02 5.926446523517370224e-03 -1.435102079994976521e-03 -1.554831676185131073e-02 -8.122749626636505127e-03 -1.005059666931629181e-02 1.729747094213962555e-02 1.432230044156312943e-02 -2.338333986699581146e-02 4.602103307843208313e-02 2.819130383431911469e-02 -6.422670930624008179e-02 6.686469167470932007e-02 -2.220876980572938919e-03 7.076215744018554688e-02 -2.754238247871398926e-02 4.482816439121961594e-03 -8.801724761724472046e-03 2.167364023625850677e-02
3.088546730577945709e-02 2.311742119491100311e-02 -2.998909680172801018e-03 -1.252554357051849365e-03 2.617229335010051727e-02 -6.603708118200302124e-02 -5.504972115159034729e-02 -1.194209698587656021e-02 3.030288405716419220e-02 7.143789902329444885e-03 -5.957078933715820312e-02 -2.613945305347442627e-02 3.868102794513106346e-03 6.801446899771690369e-03 -1.015035994350910187e-02 9.109504520893096924e-03 -2.925793174654245377e-03 1.294288784265518188e-03 -2.078658528625965118e-02 1.506600645370781422e-03 1.786096580326557159e-02 -1.326058059930801392e-02 2.486442774534225464e-02 1.081469096243381500e-02 -3.239317610859870911e-02 4.719598591327667236e-02 -9.844131767749786377e-03 5.644422397017478943e-02 -4.724464379251003265e-03 4.787549551110714674e-04 -4.166445229202508926e-03 2.212520875036716461e-02
4.600868001580238342e-02 2.216159179806709290e-02 9.883043356239795685e-03 -1.313725207000970840e-02 -3.501807106658816338e-03 -4.109777882695198059e-02 -1.675258390605449677e-02 -2.738099545240402222e-02 3.623664751648902893e-02 -2.919511171057820320e-03 -2.433755248785018921e-02 -7.526710163801908493e-03 2.629694342613220215e-02 2.301528677344322205e-02 -2.239380776882171631e-02 3.433972224593162537e-02 1.808737963438034058e-02 1.789243891835212708e-02 -8.920167572796344757e-03 3.055676585063338280e-03 2.375340647995471954e-02 -1.483412832021713257e-02 -3.506417851895093918e-03 -8.239503018558025360e-03 5.709926132112741470e-03 3.462823480367660522e-02 1.302163861691951752e-02 1.495636999607086182e-02 8.842233568429946899e-03 -1.754592917859554291e-02 -1.588615402579307556e-02 3.088067285716533661e-02
2.031396143138408661e-02 2.688999101519584656e-02 -5.195373669266700745e-03 -5.407423013821244240e-04 -3.668652847409248352e-02 -3.455191850662231445e-02 -1.267559174448251724e-02 1.042030844837427139e-02 -1.517731696367263794e-02 -1.811695285141468048e-02 -3.294665366411209106e-02 -3.449134528636932373e-02 1.453376654535531998e-02 7.454360835254192352e-03 -2.600646391510963440e-02 -2.819818444550037384e-03 4.014004021883010864e-03 -3.134837746620178223e-02 8.255322463810443878e-03 1.451717037707567215e-02 -4.030678421258926392e-03 8.256548084318637848e-03 2.889603376388549805e-02 -3.383185714483261108e-03 -1.050059869885444641e-02 2.432798035442829132e-02 -1.239748764783143997e-02 -2.638405887410044670e-03 2.659171819686889648e-02 -1.080996915698051453e-02 -1.552288420498371124e-02 1.107692997902631760e-02
6.016096100211143494e-03 2.426766417920589447e-02 7.046537008136510849e-03 -5.220053717494010925e-03 -7.589152548462152481e-03 -4.454452544450759888e-02 -3.198321163654327393e-02 5.179635249078273773e-03 -3.682424547150731087e-03 -2.083970233798027039e-02 -2.984029427170753479e-02 -2.496420219540596008e-02 2.296605147421360016e-02 9.386208839714527130e-03 -2.266450785100460052e-02 1.370181143283843994e-02 -1.488761510699987411e-02 -2.672964893281459808e-02 -1.336341630667448044e-02 1.313143642619252205e-03 -7.942339405417442322e-03 -1.323630008846521378e-02 3.413389250636100769e-02 -8.199143339879810810e-04 -3.339505568146705627e-02 6.844208389520645142e-02 -2.051302231848239899e-02 -4.929563030600547791e-03 2.249656058847904205e-02 9.213061071932315826e-03 -8.395077660679817200e-03 2.096695825457572937e-02
1.679564826190471649e-02 6.140981568023562431e-04 3.728031588252633810e-04 -1.210229587741196156e-03 1.050135307013988495e-02 -4.026772826910018921e-02 -4.245157539844512939e-02 -1.133211795240640640e-02 1.761153154075145721e-02 -1.591082476079463959e-02 -2.382282167673110962e-02 -2.118253521621227264e-02 9.235958568751811981e-03 1.891096471808850765e-03 -1.056784018874168396e-02 3.815748542547225952e-02 3.750394564121961594e-03 -8.823245763778686523e-03 2.219677669927477837e-03 -1.102857664227485657e-02 3.022336633875966072e-03 -2.768646739423274994e-02 3.413980826735496521e-02 2.498685382306575775e-03 -4.851750284433364868e-02 7.933346927165985107e-02 -2.281249314546585083e-02 7.288613822311162949e-03 2.213579230010509491e-02 6.499387789517641068e-03 -2.313053701072931290e-03 3.487453609704971313e-02
3.272593021392822266e-02 -1.092913094907999039e-02 -2.778556197881698608e-03 4.205014556646347046e-03 1.306390389800071716e-02 -4.194441437721252441e-02 -2.729432471096515656e-02 -2.281424030661582947e-02 2.527349442243576050e-02 -1.234912872314453125e-02 6.266746670007705688e-03 -2.749096415936946869e-02 1.181208062916994095e-02 4.647856112569570541e-03 4.367353860288858414e-03 3.995728120207786560e-02 1.824750564992427826e-02 -3.048537997528910637e-03 3.274369286373257637e-03 -7.799058221280574799e-03 1.355968322604894638e-02 -2.109999954700469971e-02 3.172234445810317993e-02 -1.006515882909297943e-02 -2.371405810117721558e-02 7.322604209184646606e-02 -6.074145901948213577e-03 1.271128095686435699e-02 2.690504491329193115e-02 -9.623471414670348167e-04 -8.067823946475982666e-03 3.108359500765800476e-02
4.511516913771629333e-02 -3.294196911156177521e-03 7.938086986541748047e-03 5.632869433611631393e-03 -3.955329302698373795e-03 -1.602324657142162323e-02 -8.196780458092689514e-03 -2.106252685189247131e-02 3.625766560435295105e-02 -2.166208997368812561e-02 1.472768932580947876e-02 -2.702266909182071686e-02 1.239927113056182861e-02 2.541851997375488281e-02 1.989023201167583466e-02 5.807568132877349854e-02 3.816568851470947266e-02 -1.674623112194240093e-03 1.031211018562316895e-02 -8.238615468144416809e-03 2.134346589446067810e-02 -2.029890008270740509e-02 2.140337601304054260e-02 -1.962001249194145203e-02 1.369116362184286118e-02 6.356154382228851318e-02 2.405728213489055634e-02 -8.481995202600955963e-03 2.922660857439041138e-02 -5.411662627011537552e-03 -2.215749584138393402e-02 2.908955141901969910e-02
3.346853482071310282e-04 4.869036376476287842e-03 1.546204672195017338e-03 3.527343273162841797e-02 -2.127918181940913200e-03 -5.720400251448154449e-03 1.220825221389532089e-02 -2.293771132826805115e-02 4.939678474329411983e-04 6.115194037556648254e-02 2.697799354791641235e-03 1.917650364339351654e-02 -2.505612745881080627e-02 -2.089947462081909180e-02 5.090938508510589600e-02 -7.698942907154560089e-03 -2.389756962656974792e-02 -5.569370463490486145e-03 1.557236444205045700e-02 -1.948685012757778168e-02 -4.983479157090187073e-04 1.131149232387542725e-01 2.895171055570244789e-03 1.487804547650739551e-04 2.952484181150794029e-03 -2.642512135207653046e-02 -4.069010168313980103e-02 -4.457727074623107910e-02 2.194808796048164368e-02 -7.195972837507724762e-03 -1.728334650397300720e-02 1.086068619042634964e-02
-1.602967642247676849e-02 6.731478497385978699e-03 1.061837095767259598e-02 3.217945247888565063e-02 4.652285017073154449e-03 8.272460661828517914e-03 2.656162343919277191e-02 -1.740400120615959167e-02 1.207335968501865864e-03 5.744099244475364685e-02 3.367808880284428596e-03 1.867250911891460419e-02 -1.298484764993190765e-02 -2.906046621501445770e-02 5.319753289222717285e-02 -7.927774451673030853e-03 -2.178371883928775787e-02 8.917801082134246826e-03 1.245891023427248001e-02 -2.828211523592472076e-03 -2.047169953584671021e-02 4.583668708801269531e-02 -8.086501620709896088e-03 1.994938030838966370e-02 -2.286887727677822113e-03 -3.313749656081199646e-02 -2.872912585735321045e-02 -2.845578826963901520e-02 1.661169715225696564e-02 -6.754353176802396774e-03 -2.014179341495037079e-02 3.000861220061779022e-02
-1.869717799127101898e-02 4.662532359361648560e-03 1.207046583294868469e-02 1.971571892499923706e-02 2.021495252847671509e-02 2.916522510349750519e-02 2.057626284658908844e-02 -1.249558478593826294e-02 -1.599859679117798805e-03 4.688942804932594299e-02 9.503195062279701233e-03 1.385386753827333450e-02 -1.493311580270528793e-02 -2.896614186465740204e-02 6.341750174760818481e-02 -4.021231085062026978e-03 -2.673315815627574921e-02 2.021342329680919647e-02 7.186406292021274567e-03 1.080287713557481766e-02 -2.897196076810359955e-02 -2.201052382588386536e-02 -1.537632942199707031e-02 2.680360525846481323e-02 -1.888925768435001373e-02 -3.478732332587242126e-02 7.969966973178088665e-04 -1.159514952450990677e-02 1.828415133059024811e-02 -9.704587981104850769e-03 -2.618325687944889069e-02 4.139143973588943481e-02
-1.412135921418666840e-02 2.106445608660578728e-03 6.341005675494670868e-03 -1.461699022911489010e-03 2.685441263020038605e-02 3.217532485723495483e-02 -7.303461316041648388e-04 -6.493833847343921661e-03 -3.712603123858571053e-03 2.992724813520908356e-02 7.525243796408176422e-03 6.593549624085426331e-04 -2.083178237080574036e-02 -1.438283920288085938e-02 7.830081880092620850e-02 -2.305083675310015678e-03 -3.290025889873504639e-02 1.828990690410137177e-02 9.672452695667743683e-03 2.718494087457656860e-02 -2.066682651638984680e-02 -4.959044978022575378e-02 -1.104953512549400330e-02 4.330638796091079712e-03 -3.587545454502105713e-02 -3.860223665833473206e-02 2.758411131799221039e-02 -6.282771937549114227e-03 4.247639328241348267e-03 -8.385378867387771606e-03 -2.889050357043743134e-02 1.588670164346694946e-02
-1.404218655079603195e-02 2.637964644236490130e-05 -3.286354243755340576e-03 -1.189537625759840012e-02 2.968210168182849884e-02 2.626644447445869446e-02 -2.012252993881702423e-02 3.930586390197277069e-03 -4.344330169260501862e-03 1.347393915057182312e-02 1.919888076372444630e-03 -1.136388815939426422e-02 -3.186448290944099426e-02 7.669603801332414150e-04 8.226931840181350708e-02 -3.852723632007837296e-03 -2.423996105790138245e-02 7.420459762215614319e-03 1.405066531151533127e-02 4.753316566348075867e-02 -7.961978204548358917e-03 -5.062974244356155396e-02 -7.563264574855566025e-03 -7.157026790082454681e-03 -4.093890264630317688e-02 -3.570388630032539368e-02 2.800753712654113770e-02 2.827028045430779457e-03 -1.748058572411537170e-02 -1.106074079871177673e-02 -2.815163880586624146e-02 -1.352216303348541260e-02
-1.127080991864204407e-02 5.816355813294649124e-03 -1.715959981083869934e-02 5.140582099556922913e-02 1.331118587404489517e-02 -6.791647174395620823e-04 2.429621666669845581e-02 -1.682463847100734711e-02 -1.074912957847118378e-02 5.710969120264053345e-02 1.101175881922245026e-02 1.722422055900096893e-02 -2.959264628589153290e-02 -3.323219949379563332e-03 6.387472152709960938e-03 -1.175546785816550255e-03 -9.141272865235805511e-03 -2.209484018385410309e-02 1.590067893266677856e-02 -2.091191336512565613e-02 5.650350358337163925e-03 8.814388513565063477e-02 1.441251253709197044e-03 -3.850382287055253983e-03 -4.905418027192354202e-04 -8.749088272452354431e-03 -4.678796231746673584e-02 -2.864332497119903564e-02 1.302117016166448593e-02 -4.987319465726613998e-03 -2.325198147445917130e-03 -9.739063098095357418e-04
-2.864832617342472076e-02 1.840943470597267151e-03 -8.179117925465106964e-03 5.735517665743827820e-02 2.191726863384246826e-02 1.076669897884130478e-02 3.471384570002555847e-02 -1.191456988453865051e-02 -1.164872478693723679e-02 5.728898569941520691e-02 1.118197198957204819e-02 1.834264770150184631e-02 -1.762078329920768738e-02 -1.251174230128526688e-02 -6.175397895276546478e-03 -2.698265307117253542e-04 -2.932278672233223915e-03 -6.366759538650512695e-03 1.197942160069942474e-02 3.126428928226232529e-03 -5.127861164510250092e-03 1.805614121258258820e-02 -9.125409647822380066e-03 9.375344030559062958e-03 -5.269771441817283630e-03 -2.074705250561237335e-02 -3.569138795137405396e-02 -9.921276941895484924e-03 5.287773441523313522e-03 -4.447792191058397293e-03 -5.907940212637186050e-03 1.666495576500892639e-02
-3.010787442326545715e-02 -3.028277540579438210e-03 -7.605702150613069534e-03 5.102265998721122742e-02 3.505264222621917725e-02 3.300667926669120789e-02 2.845053933560848236e-02 -8.540388196706771851e-03 -1.510199625045061111e-02 4.774216562509536743e-02 1.581173017621040344e-02 1.603446528315544128e-02 -1.854602061212062836e-02 -2.083370834589004517e-02 3.075265558436512947e-03 5.202434957027435303e-03 -9.334984235465526581e-03 5.659815855324268341e-03 2.200255170464515686e-03 2.327075786888599396e-02 -7.900519296526908875e-03 -4.841853305697441101e-02 -1.947825029492378235e-02 1.379647944122552872e-02 -2.129324525594711304e-02 -2.967334911227226257e-02 -2.447917358949780464e-03 6.599001120775938034e-03 9.246745146811008453e-03 -6.755500100553035736e-03 -1.233228668570518494e-02 2.870517969131469727e-02
-2.219504490494728088e-02 -5.351462867110967636e-03 -1.355453953146934509e-02 3.142697364091873169e-02 3.865681961178779602e-02 3.500925749540328979e-02 5.738824140280485153e-03 -6.468561012297868729e-03 -1.824367418885231018e-02 3.251421824097633362e-02 1.124989334493875504e-02 4.535594955086708069e-03 -2.078864537179470062e-02 -1.482230238616466522e-02 3.332483023405075073e-02 5.782365333288908005e-03 -2.039073593914508820e-02 2.119031734764575958e-03 -1.659066416323184967e-03 4.121800884604454041e-02 2.927475841715931892e-03 -6.394207477569580078e-02 -1.738293841481208801e-02 -4.192883148789405823e-03 -3.996178507804870605e-02 -3.950812295079231262e-02 2.665902487933635712e-02 8.316285908222198486e-03 2.035072073340415955e-03 -5.152534693479537964e-03 -1.747039705514907837e-02 5.149217322468757629e-03
-1.916164346039295197e-02 -4.000258632004261017e-03 -1.833004876971244812e-02 1.432668324559926987e-02 3.498924896121025085e-02 3.319678828120231628e-02 -1.694944500923156738e-02 2.953843213617801666e-03 -2.239100821316242218e-02 1.646397635340690613e-02 -4.521941809798590839e-05 -4.203747957944869995e-03 -2.766392566263675690e-02 -6.107034161686897278e-03 5.781852826476097107e-02 5.518934340216219425e-04 -1.661738567054271698e-02 -1.239108946174383163e-02 -7.174660568125545979e-04 6.026557832956314087e-02 1.300673373043537140e-02 -5.017644539475440979e-02 -1.413264125585556030e-02 -9.005174040794372559e-03 -4.997381567955017090e-02 -3.705083578824996948e-02 3.016269020736217499e-02 1.097987871617078781e-02 -1.384494639933109283e-02 -6.664030253887176514e-03 -2.216629125177860260e-02 -2.258409559726715088e-02
-1.847591251134872437e-02 1.750735938549041748e-02 -2.601310424506664276e-02 5.760554596781730652e-02 1.890895888209342957e-02 -7.857772521674633026e-03 2.729306370019912720e-02 -1.447863876819610596e-02 -9.105680510401725769e-03 3.086319193243980408e-02 6.306492257863283157e-03 1.478050369769334793e-02 -2.676715515553951263e-02 1.101468596607446671e-02 -3.471852466464042664e-02 1.278144773095846176e-02 6.074144504964351654e-03 -3.463327884674072266e-02 1.643844693899154663e-02 -2.277336269617080688e-02 1.357891596853733063e-02 6.216572970151901245e-02 -6.354297511279582977e-03 -2.238919259980320930e-03 3.027103084605187178e-04 6.802730727940797806e-03 -5.197699368000030518e-02 -1.303922105580568314e-02 1.435068622231483459e-02 4.272756166756153107e-03 1.108689792454242706e-02 -1.633517071604728699e-02
-3.294979035854339600e-02 1.367398723959922791e-02 -2.013031579554080963e-02 7.127197086811065674e-02 2.416450716555118561e-02 1.938612316735088825e-03 3.842055052518844604e-02 -1.009119488298892975e-02 -1.262307632714509964e-02 3.592955693602561951e-02 8.097620680928230286e-03 1.693797856569290161e-02 -1.563652791082859039e-02 8.612710982561111450e-03 -6.442913413047790527e-02 1.459550298750400543e-02 1.463742461055517197e-02 -1.716494373977184296e-02 1.240196917206048965e-02 1.192878466099500656e-03 9.926146827638149261e-03 3.735380247235298157e-03 -2.224498055875301361e-02 4.883171059191226959e-03 -2.125226659700274467e-03 -8.502621203660964966e-03 -4.437585547566413879e-02 5.089525133371353149e-03 1.041800715029239655e-04 6.095328833907842636e-03 8.267016150057315826e-03 2.896745922043919563e-03
-3.544737398624420166e-02 5.913530010730028152e-03 -1.975946687161922455e-02 7.019469141960144043e-02 3.759618476033210754e-02 2.457277290523052216e-02 3.549955785274505615e-02 -8.355285972356796265e-03 -1.678331941366195679e-02 3.304276615381240845e-02 1.426132582128047943e-02 1.609065383672714233e-02 -1.692714542150497437e-02 -1.492437906563282013e-03 -5.807717517018318176e-02 1.829616166651248932e-02 8.586169220507144928e-03 -5.501254927366971970e-03 -1.031471649184823036e-03 2.471708506345748901e-02 1.105639804154634476e-02 -4.444991052150726318e-02 -3.974710032343864441e-02 7.293845992535352707e-03 -1.713542267680168152e-02 -2.244477532804012299e-02 -1.368519011884927750e-02 2.230268530547618866e-02 -8.594550890848040581e-04 4.566577728837728500e-03 1.510001835413277149e-03 1.538389921188354492e-02
-2.641737274825572968e-02 -1.455441000871360302e-03 -2.366316877305507660e-02 5.072452500462532043e-02 3.997889906167984009e-02 3.019213303923606873e-02 1.791160553693771362e-02 -9.682700037956237793e-03 -2.282139286398887634e-02 2.338717319071292877e-02 1.521288137882947922e-02 5.754344165325164795e-03 -1.945136860013008118e-02 -3.074456239119172096e-03 -1.635101251304149628e-02 1.423673052340745926e-02 -6.171123124659061432e-03 -1.176227349787950516e-02 -8.587488904595375061e-03 4.397416487336158752e-02 1.865224540233612061e-02 -4.669784754514694214e-02 -4.299726709723472595e-02 -5.737106781452894211e-03 -3.546874225139617920e-02 -3.299827873706817627e-02 1.554166711866855621e-02 1.908770389854907990e-02 -4.328343551605939865e-03 3.170324256643652916e-03 -7.433058228343725204e-03 -9.134396910667419434e-03
-1.990591175854206085e-02 -3.141644876450300217e-03 -1.995797269046306610e-02 2.939187921583652496e-02 3.528998419642448425e-02 3.554830327630043030e-02 -3.310108091682195663e-03 -2.513238694518804550e-03 -3.016357868909835815e-02 9.938394650816917419e-03 3.365962998941540718e-03 9.492520475760102272e-04 -2.675591967999935150e-02 -2.347187604755163193e-03 3.063810989260673523e-02 2.600954612717032433e-03 -7.085813675075769424e-03 -3.007970750331878662e-02 -9.259151294827461243e-03 6.230008974671363831e-02 2.210409007966518402e-02 -2.579661644995212555e-02 -3.731992095708847046e-02 -2.571138786152005196e-03 -4.683558270335197449e-02 -3.110119700431823730e-02 2.055269479751586914e-02 2.108256146311759949e-02 -1.404598169028759003e-02 6.439387216232717037e-04 -1.630197651684284210e-02 -3.353621065616607666e-02
-1.111152768135070801e-02 2.102250233292579651e-02 -1.759464293718338013e-02 3.483889997005462646e-02 -6.996109616011381149e-03 -1.908807456493377686e-02 1.518269907683134079e-02 -3.146956209093332291e-03 8.874011225998401642e-03 8.861978538334369659e-03 -7.526867557317018509e-03 1.797103695571422577e-02 -2.502778172492980957e-02 3.260116092860698700e-03 -5.060421302914619446e-02 6.978674326092004776e-03 1.729004830121994019e-02 -3.554014116525650024e-02 1.069227978587150574e-02 -2.119440585374832153e-02 8.069264702498912811e-03 5.708521232008934021e-02 -7.074963301420211792e-03 6.010555196553468704e-03 1.092736236751079559e-02 1.912512816488742828e-02 -4.869606345891952515e-02 -1.699785701930522919e-02 1.592207141220569611e-02 1.428168267011642456e-02 1.268655061721801758e-02 -3.333200886845588684e-02
-2.238865755498409271e-02 2.142873965203762054e-02 -1.478474028408527374e-02 4.935199022293090820e-02 -2.761216135695576668e-03 -1.140322349965572357e-02 2.807783894240856171e-02 -5.324193043634295464e-04 3.574304282665252686e-03 1.758887246251106262e-02 -6.715717259794473648e-03 1.914442516863346100e-02 -1.688331924378871918e-02 9.927354753017425537e-03 -9.047789126634597778e-02 3.427379066124558449e-03 2.852151542901992798e-02 -1.630298420786857605e-02 7.137401960790157318e-03 -1.454025274142622948e-03 8.229335770010948181e-03 1.745282299816608429e-02 -2.934087999165058136e-02 9.130000136792659760e-03 1.042599882930517197e-02 6.015592254698276520e-03 -4.276665300130844116e-02 -3.835267852991819382e-03 -4.421407356858253479e-03 1.953050866723060608e-02 1.297519542276859283e-02 -9.947962127625942230e-03
-2.407245337963104248e-02 1.405905093997716904e-02 -1.102773752063512802e-02 5.029164254665374756e-02 8.763756603002548218e-03 1.099053025245666504e-02 2.780990302562713623e-02 -7.391097024083137512e-04 2.439242380205541849e-04 2.243930660188198090e-02 -1.852191169746220112e-03 1.650785654783248901e-02 -1.934184134006500244e-02 7.812013383954763412e-03 -8.640411496162414551e-02 1.231453148648142815e-03 2.276125736534595490e-02 -7.228719070553779602e-03 -3.601283999159932137e-03 2.332255244255065918e-02 9.520342573523521423e-03 -8.228022605180740356e-03 -5.179145559668540955e-02 9.546259418129920959e-03 3.443472669459879398e-04 -9.856558404862880707e-03 -1.729407161474227905e-02 9.698510169982910156e-03 -1.003614813089370728e-02 1.855797693133354187e-02 8.962938562035560608e-03 8.794168010354042053e-03
-1.532767526805400848e-02 2.835373627021908760e-03 -1.181668043136596680e-02 3.395308554172515869e-02 1.188709679991006851e-02 1.581806316971778870e-02 1.343476120382547379e-02 -3.550247987732291222e-03 -8.507751859724521637e-03 1.689167134463787079e-02 8.060473483055830002e-04 5.643187090754508972e-03 -2.110367268323898315e-02 4.679660778492689133e-03 -3.760727122426033020e-02 -4.021821077913045883e-03 8.553755469620227814e-03 -1.482645887881517410e-02 -9.563433006405830383e-03 4.236857965588569641e-02 1.377594284713268280e-02 -3.888173028826713562e-03 -5.616126582026481628e-02 1.097854226827621460e-03 -1.187772955745458603e-02 -2.025214023888111115e-02 6.127474829554557800e-03 8.652564138174057007e-03 -1.091582048684358597e-02 1.236293464899063110e-02 3.775199293158948421e-04 -9.643031284213066101e-03
-7.798401173204183578e-03 -2.825171919539570808e-03 -1.742502558045089245e-03 1.374359615147113800e-02 1.125334762036800385e-02 2.439186535775661469e-02 -6.785460282117128372e-03 6.646021502092480659e-04 -1.893372274935245514e-02 2.908173482865095139e-03 -1.316536031663417816e-02 -6.319344975054264069e-04 -2.697129175066947937e-02 -5.620178417302668095e-04 2.455383911728858948e-02 -1.335954573005437851e-02 7.533853407949209213e-03 -3.203959763050079346e-02 -9.521357715129852295e-03 5.973358079791069031e-02 1.141223683953285217e-02 1.231819950044155121e-02 -4.891200363636016846e-02 7.866013795137405396e-03 -2.171255275607109070e-02 -1.909322291612625122e-02 7.789399009197950363e-03 1.319240033626556396e-02 -1.383516099303960800e-02 9.226880967617034912e-03 -9.654718451201915741e-03 -2.978324890136718750e-02
6.824932061135768890e-03 8.793590590357780457e-03 -5.263643339276313782e-03 -1.169689279049634933e-02 -4.532613605260848999e-02 -3.630192577838897705e-02 -1.076708082109689713e-02 -1.237476593814790249e-03 2.333136275410652161e-02 2.312648110091686249e-03 -1.900407299399375916e-02 1.199711859226226807e-02 -2.049607969820499420e-02 -1.124897506088018417e-02 -3.536727651953697205e-02 3.441165387630462646e-02 1.236682943999767303e-02 -2.429756522178649902e-02 5.882292054593563080e-03 -1.698307879269123077e-02 -1.154366414994001389e-02 6.812240928411483765e-02 4.900344181805849075e-03 2.693198155611753464e-03 1.710400916635990143e-02 3.241378068923950195e-02 -3.761748969554901123e-02 -2.270543947815895081e-02 7.960129529237747192e-03 9.078184142708778381e-03 3.401882015168666840e-03 -4.746195301413536072e-02
-7.279969868250191212e-04 9.967777878046035767e-03 -5.174856632947921753e-03 2.292819321155548096e-03 -4.763060808181762695e-02 -2.758532762527465820e-02 3.927946556359529495e-03 -1.106249052099883556e-03 1.835777238011360168e-02 1.603795029222965240e-02 -1.839253492653369904e-02 1.256042812019586563e-02 -1.583913899958133698e-02 1.590433996170759201e-03 -7.085343450307846069e-02 2.511983923614025116e-02 2.361363917589187622e-02 -3.665468422695994377e-03 3.233759663999080658e-03 -2.553076948970556259e-03 -1.217725221067667007e-02 4.619839414954185486e-02 -2.225391007959842682e-02 3.211004659533500671e-03 1.776484400033950806e-02 2.172094210982322693e-02 -2.751975879073143005e-02 -1.912574842572212219e-02 -1.340846624225378036e-02 1.559560094028711319e-02 5.262922961264848709e-03 -2.403405494987964630e-02
-1.925859949551522732e-03 3.395050996914505959e-03 -2.355982316657900810e-03 7.365483324974775314e-03 -3.855263814330101013e-02 -3.140186890959739685e-03 5.133594386279582977e-03 -1.361012691631913185e-03 1.579491607844829559e-02 2.893847972154617310e-02 -1.692084036767482758e-02 8.416594937443733215e-03 -2.081506140530109406e-02 9.145786054432392120e-03 -6.868306547403335571e-02 1.605838164687156677e-02 2.000315859913825989e-02 3.116999519988894463e-03 -1.776976394467055798e-03 1.808889955282211304e-02 -1.045614667236804962e-02 3.603194281458854675e-02 -4.737826436758041382e-02 4.032292868942022324e-03 1.485446188598871231e-02 7.485359441488981247e-03 -9.051918983459472656e-03 -1.130757667124271393e-02 -1.968343928456306458e-02 1.459123473614454269e-02 3.685689996927976608e-03 -3.814540104940533638e-03
5.407610908150672913e-03 -5.293652415275573730e-03 -1.510505797341465950e-03 -2.393386559560894966e-03 -3.288124874234199524e-02 7.686670287512242794e-04 -4.570337478071451187e-03 -2.612798474729061127e-03 6.103746592998504639e-03 2.414770051836967468e-02 -1.791938580572605133e-02 -3.041582414880394936e-03 -2.051239274442195892e-02 8.252939209342002869e-03 -2.189264073967933655e-02 7.989236153662204742e-03 7.052634842693805695e-03 -2.024915535002946854e-03 -4.270446486771106720e-03 3.687202557921409607e-02 -6.676152348518371582e-03 4.360779002308845520e-02 -5.048625543713569641e-02 -4.169608931988477707e-03 9.260354563593864441e-03 -1.283293007872998714e-03 8.814735338091850281e-03 -1.122400444000959396e-02 -1.685072481632232666e-02 7.240066304802894592e-03 -4.300951492041349411e-03 -1.353036053478717804e-02
1.031059771776199341e-02 -1.024668477475643158e-02 9.263521060347557068e-03 -1.726404204964637756e-02 -2.728737145662307739e-02 8.244147524237632751e-03 -1.998353563249111176e-02 3.759977407753467560e-04 -6.996016018092632294e-03 6.791583262383937836e-03 -3.258110955357551575e-02 -1.122620329260826111e-02 -2.054462209343910217e-02 9.001076105050742626e-04 3.827397525310516357e-02 4.908846458420157433e-04 7.067268248647451401e-03 -1.350595802068710327e-02 -2.373986644670367241e-03 5.406184494495391846e-02 -1.161659136414527893e-02 5.059903860092163086e-02 -4.175868630409240723e-02 2.114168601110577583e-03 6.028773495927453041e-04 -5.005193874239921570e-03 5.495032295584678650e-03 -4.268539138138294220e-03 -1.801449805498123169e-02 3.405071562156081200e-03 -1.451054494827985764e-02 -2.735033817589282990e-02
-5.246106535196304321e-02 4.083712026476860046e-02 -5.716202035546302795e-02 3.237926587462425232e-02 -8.066187053918838501e-02 -6.324475258588790894e-02 6.853071600198745728e-02 -7.718998938798904419e-02 1.426363456994295120e-02 -2.797348797321319580e-02 6.926086544990539551e-02 -2.037141285836696625e-02 -3.781049326062202454e-02 2.516070008277893066e-02 1.471022516489028931e-02 2.206463366746902466e-03 -3.047723136842250824e-02 -2.306181937456130981e-02 7.488749921321868896e-02 9.167504496872425079e-03 7.780194282531738281e-02 -1.935994625091552734e-02 1.025581080466508865e-02 -3.619501367211341858e-02 3.447423502802848816e-02 -2.693784795701503754e-02 -1.496575772762298584e-02 -7.145878672599792480e-02 1.017056256532669067e-01 1.277103368192911148e-02 5.330852419137954712e-02 -8.405482023954391479e-02
-5.824464373290538788e-03 2.730874717235565186e-02 -8.211213350296020508e-02 4.159225896000862122e-02 -5.374765768647193909e-02 -4.324418306350708008e-02 7.758443057537078857e-02 -6.098749861121177673e-02 1.448311377316713333e-02 4.397126380354166031e-03 4.047945886850357056e-02 -1.292327791452407837e-02 -1.067738397978246212e-03 2.057743445038795471e-02 2.844240330159664154e-02 3.768216073513031006e-02 -5.374755710363388062e-02 -2.967540733516216278e-02 -7.425721269100904465e-04 -5.423188209533691406e-02 1.080039590597152710e-01 1.868533715605735779e-02 -8.066964335739612579e-03 -4.722185432910919189e-02 7.250442355871200562e-02 1.090254075825214386e-02 3.569525852799415588e-02 -8.900662511587142944e-02 5.049990862607955933e-02 1.469073817133903503e-02 8.944917470216751099e-02 -3.576201945543289185e-02
1.860754564404487610e-02 -4.276813473552465439e-03 -8.502393215894699097e-02 4.488372057676315308e-02 4.764218814671039581e-03 -1.364058256149291992e-02 6.691183894872665405e-02 -3.518458083271980286e-02 1.821494661271572113e-02 3.423533216118812561e-02 4.275026731193065643e-03 -1.530517637729644775e-02 3.879044950008392334e-02 -3.456149622797966003e-02 2.063242346048355103e-02 8.228603750467300415e-02 1.500552427023649216e-02 1.104403100907802582e-02 -4.490510746836662292e-02 -6.061050668358802795e-02 1.274597793817520142e-01 6.651018559932708740e-02 -2.888841181993484497e-02 -6.701070815324783325e-02 6.605423986911773682e-02 2.394000440835952759e-02 3.752254322171211243e-02 -9.583920240402221680e-02 -3.126835078001022339e-02 -3.133914899080991745e-03 8.776782453060150146e-02 -1.691091991961002350e-02
-3.730050474405288696e-02 -1.583777181804180145e-02 -8.433243632316589355e-02 1.251851581037044525e-02 1.725345849990844727e-02 4.319556523114442825e-03 4.775326326489448547e-02 -3.422694280743598938e-02 1.786116138100624084e-02 2.985056675970554352e-02 3.851471841335296631e-02 -3.641832247376441956e-02 5.433849245309829712e-02 -5.739763006567955017e-02 1.268047746270895004e-02 7.367509603500366211e-02 3.120639733970165253e-02 5.639496073126792908e-02 -3.392776707187294960e-03 -3.281702846288681030e-02 1.363428086042404175e-01 8.145266771316528320e-02 -1.414865348488092422e-02 -3.979933261871337891e-02 4.078149050474166870e-02 2.357502467930316925e-02 4.363886639475822449e-02 -8.303025364875793457e-02 -5.197035521268844604e-02 2.086632326245307922e-02 4.299345239996910095e-02 -4.248090460896492004e-02
-5.316826328635215759e-02 -5.559489945881068707e-04 -5.875251442193984985e-02 -1.765043288469314575e-02 1.158581394702196121e-02 9.066104888916015625e-03 1.062120776623487473e-02 -3.802615031599998474e-02 6.992314942181110382e-03 2.484551444649696350e-02 3.656983748078346252e-02 -2.282286994159221649e-02 2.869571000337600708e-02 -2.720367722213268280e-02 -4.065277054905891418e-02 2.287115715444087982e-02 -1.533257588744163513e-02 8.410127460956573486e-02 1.064178720116615295e-02 -1.736492477357387543e-02 1.145943254232406616e-01 8.555857837200164795e-02 1.400948967784643173e-02 -2.026297710835933685e-02 3.812412172555923462e-02 -1.732204342260956764e-03 -3.876878879964351654e-03 -4.718242958188056946e-02 -3.988751396536827087e-02 8.535975590348243713e-03 8.199929259717464447e-03 -6.083145365118980408e-02
-7.431057840585708618e-02 4.509669914841651917e-02 -4.357526823878288269e-02 1.518482342362403870e-02 -4.906989261507987976e-02 -5.777286365628242493e-02 9.750217944383621216e-02 -6.322118639945983887e-02 1.502629742026329041e-02 -4.488937556743621826e-02 7.237564772367477417e-02 -2.935201488435268402e-02 -3.858920559287071228e-02 2.503130212426185608e-02 2.119871787726879120e-02 5.215897690504789352e-03 -4.410174861550331116e-02 -3.638562932610511780e-02 9.299957007169723511e-02 3.240170329809188843e-02 7.654319703578948975e-02 -3.497390449047088623e-02 -2.235767431557178497e-02 -7.595981657505035400e-02 6.654335558414459229e-02 -5.868921801447868347e-02 -2.287099882960319519e-02 -1.213083937764167786e-01 1.461845934391021729e-01 1.831507496535778046e-02 4.345953837037086487e-02 -7.577329128980636597e-02
-2.165801357477903366e-03 3.051882982254028320e-02 -9.819054603576660156e-02 6.442467682063579559e-03 7.374363951385021210e-03 -4.696689546108245850e-02 1.107960790395736694e-01 -7.205775380134582520e-02 3.430833667516708374e-02 -9.266220149584114552e-04 6.003138795495033264e-02 -4.668386653065681458e-02 -3.577997162938117981e-02 2.330170758068561554e-02 4.895478859543800354e-02 3.075162507593631744e-02 -6.795867532491683960e-02 -4.432408139109611511e-02 3.411242365837097168e-02 -3.353880345821380615e-02 7.402610033750534058e-02 -7.436296902596950531e-03 -4.659375548362731934e-02 -7.876440137624740601e-02 1.128769516944885254e-01 -1.678087562322616577e-02 2.770131081342697144e-02 -1.584050059318542480e-01 1.188527569174766541e-01 1.948949694633483887e-02 6.699296087026596069e-02 -3.328447416424751282e-02
3.409947454929351807e-02 -7.901987992227077484e-03 -1.019548252224922180e-01 -1.159293344244360924e-03 5.541759729385375977e-02 -2.787465928122401237e-03 5.248970165848731995e-02 -5.484855547547340393e-02 5.348643660545349121e-02 4.093617200851440430e-02 3.812110424041748047e-02 -4.255665093660354614e-02 1.807941868901252747e-02 -2.949651516973972321e-02 2.446648478507995605e-02 6.268992274999618530e-02 -3.170235315337777138e-03 1.178126476588658988e-04 -6.461714208126068115e-02 -3.570372611284255981e-02 6.772787123918533325e-02 4.877928271889686584e-02 -8.095182478427886963e-02 -5.877277627587318420e-02 1.012356057763099670e-01 2.164921350777149200e-02 1.853521727025508881e-02 -1.587310731410980225e-01 3.519792854785919189e-02 1.359730307012796402e-02 7.601315528154373169e-02 2.402799949049949646e-02
-4.224312491714954376e-03 -2.679593861103057861e-02 -1.180926784873008728e-01 1.036381628364324570e-02 4.876328632235527039e-02 3.052494488656520844e-02 3.315076604485511780e-02 -3.266701847314834595e-02 3.922040387988090515e-02 4.410548508167266846e-02 4.884530231356620789e-02 -5.233793333172798157e-02 4.198429360985755920e-02 -5.968654528260231018e-02 3.549566119909286499e-02 4.001947492361068726e-02 4.926332272589206696e-03 4.637973383069038391e-02 -7.879292964935302734e-02 -2.160662412643432617e-02 8.332104235887527466e-02 7.084910571575164795e-02 -4.360904917120933533e-02 -1.798198558390140533e-02 5.809371173381805420e-02 5.921598896384239197e-02 1.598224788904190063e-02 -1.142895296216011047e-01 -2.600258402526378632e-02 1.477858703583478928e-02 3.862170130014419556e-02 3.023339202627539635e-03
-3.725019097328186035e-02 -2.691058628261089325e-02 -8.937237411737442017e-02 3.074959851801395416e-02 1.918955333530902863e-02 3.677540272474288940e-02 -9.605342522263526917e-03 -2.071444876492023468e-02 2.693008445203304291e-02 3.806416317820549011e-02 3.624985739588737488e-02 -5.047966539859771729e-02 3.990108519792556763e-02 -4.966892302036285400e-02 -1.269528362900018692e-02 4.492893349379301071e-03 -2.486187778413295746e-02 7.377474755048751831e-02 -3.839489817619323730e-02 -1.664159446954727173e-02 8.975605666637420654e-02 5.517328903079032898e-02 4.114626441150903702e-03 2.338954992592334747e-02 3.732847049832344055e-02 3.087040409445762634e-02 -7.408926729112863541e-03 -7.419436424970626831e-02 -5.829593166708946228e-02 1.587343588471412659e-02 -4.423115402460098267e-03 -8.667121641337871552e-03
-3.555135428905487061e-02 1.088148634880781174e-02 8.701725164428353310e-04 2.596196904778480530e-02 -4.254209809005260468e-03 -5.963000282645225525e-02 6.472801417112350464e-02 -3.017526306211948395e-02 -1.139070000499486923e-02 -4.611700028181076050e-02 6.510978192090988159e-02 -1.665930263698101044e-02 -3.233660757541656494e-02 5.492477864027023315e-02 2.218053117394447327e-02 3.144730580970644951e-03 -2.696768566966056824e-02 -2.133842930197715759e-02 5.612679570913314819e-02 5.379222705960273743e-02 3.372965753078460693e-02 -5.841059610247612000e-03 -2.389548346400260925e-02 -8.441448956727981567e-02 2.706616651266813278e-04 -4.497120156884193420e-02 -3.029329888522624969e-02 -1.126836314797401428e-01 1.191435158252716064e-01 5.817744880914688110e-03 8.025980554521083832e-03 -3.807782009243965149e-02
-6.557095795869827271e-03 -1.549323741346597672e-02 -5.959005653858184814e-02 -1.410374068655073643e-03 5.842006579041481018e-02 -3.185227140784263611e-02 1.008991897106170654e-01 -4.258640855550765991e-02 1.720817200839519501e-02 -1.492765266448259354e-02 5.816274508833885193e-02 -3.831095993518829346e-02 -4.985171556472778320e-02 6.550949811935424805e-02 6.122687458992004395e-02 2.080443501472473145e-02 -6.186750531196594238e-02 -4.177680611610412598e-02 1.779637113213539124e-02 -3.202053951099514961e-03 1.784880831837654114e-02 2.392907068133354187e-02 -1.180510222911834717e-02 -7.504826784133911133e-02 2.362546697258949280e-02 -3.147087246179580688e-02 1.608875393867492676e-02 -1.756221801042556763e-01 1.498300284147262573e-01 1.084781344980001450e-02 2.609444037079811096e-02 -1.799425482749938965e-02
1.509882416576147079e-02 -8.257516473531723022e-02 -6.013360247015953064e-02 -3.015819750726222992e-02 1.031460687518119812e-01 2.651442773640155792e-02 5.433269962668418884e-02 -3.737573325634002686e-02 3.143859282135963440e-02 1.461635343730449677e-02 4.550966247916221619e-02 -3.354132547974586487e-02 1.866102218627929688e-03 3.168696910142898560e-02 6.470150500535964966e-02 1.275966595858335495e-02 -5.295422393828630447e-03 -1.388680376112461090e-02 -8.246669918298721313e-02 -2.179003506898880005e-02 -2.438366785645484924e-02 6.385590136051177979e-02 -2.241923473775386810e-02 -1.999783515930175781e-02 3.869066387414932251e-02 8.960297331213951111e-03 3.094876883551478386e-03 -1.662217080593109131e-01 6.763142347335815430e-02 2.578142099082469940e-02 3.830287232995033264e-02 3.246013820171356201e-02
-6.761712138541042805e-04 -7.816112786531448364e-02 -5.940043553709983826e-02 9.374047629535198212e-03 8.281724154949188232e-02 8.551426976919174194e-02 1.049370784312486649e-02 -1.280332356691360474e-02 1.942188106477260590e-02 3.756270185112953186e-02 3.881798684597015381e-02 -2.622823044657707214e-02 4.978010430932044983e-02 -1.617924124002456665e-02 6.530902534723281860e-02 2.257394976913928986e-02 1.457964256405830383e-02 4.223170503973960876e-02 -1.288597136735916138e-01 -2.146567776799201965e-02 -2.516159415245056152e-02 9.485418349504470825e-02 -5.344680976122617722e-03 2.285409718751907349e-02 -1.019725459627807140e-03 8.312971889972686768e-02 -2.601752802729606628e-02 -1.161462441086769104e-01 4.747430793941020966e-04 1.527774799615144730e-02 9.937416762113571167e-03 2.513616904616355896e-02
-2.178850024938583374e-02 -6.119611859321594238e-02 -4.530695453286170959e-02 3.510066866874694824e-02 2.555334381759166718e-02 1.109985932707786560e-01 -2.221176959574222565e-02 4.037664271891117096e-03 1.746576651930809021e-02 3.084678575396537781e-02 3.730273991823196411e-02 -6.394357234239578247e-02 2.502631209790706635e-02 -2.799428440630435944e-02 1.576053164899349213e-02 -1.665194332599639893e-02 -5.005842540413141251e-03 6.112355738878250122e-02 -6.714205443859100342e-02 -3.938295692205429077e-02 -2.748914761468768120e-03 6.861897557973861694e-02 2.972959354519844055e-02 5.425355210900306702e-02 -2.176508679986000061e-02 5.977277830243110657e-02 -2.170400880277156830e-02 -6.419551372528076172e-02 -4.964327439665794373e-02 3.065609000623226166e-02 -1.354831457138061523e-02 1.586543209850788116e-02
1.415490917861461639e-02 -3.138208016753196716e-02 5.875760316848754883e-02 3.955515846610069275e-02 3.158011008054018021e-03 -4.365110769867897034e-02 6.125050038099288940e-02 -3.120784647762775421e-03 -2.408235892653465271e-02 -3.827900812029838562e-02 2.554357610642910004e-02 -7.914639078080654144e-03 -1.292696408927440643e-02 5.541624501347541809e-02 3.669012337923049927e-02 -2.193847484886646271e-02 -1.118942536413669586e-02 -1.409791596233844757e-02 2.339806873351335526e-03 3.370096534490585327e-02 1.156375464051961899e-02 1.880174851976335049e-03 -2.203429862856864929e-02 -3.067862428724765778e-02 -2.160488069057464600e-02 -1.734761707484722137e-02 -7.138811051845550537e-03 -5.126344412565231323e-02 8.198597282171249390e-02 -2.456184290349483490e-02 -2.154275029897689819e-02 2.694885246455669403e-02
4.183978773653507233e-03 -8.877166360616683960e-02 2.687942981719970703e-02 3.293911227956414223e-03 4.424529522657394409e-02 -3.257535025477409363e-02 8.132740855216979980e-02 1.826597144827246666e-03 -1.195051521062850952e-02 -1.796511001884937286e-02 6.050581112504005432e-03 -1.554933749139308929e-02 -4.087717458605766296e-02 9.118799865245819092e-02 7.183675467967987061e-02 -2.160591632127761841e-02 -6.217385455965995789e-02 -3.878212347626686096e-02 1.952962577342987061e-02 5.338921910151839256e-04 4.955174867063760757e-03 1.081180945038795471e-02 1.743260025978088379e-02 -2.301529282703995705e-03 -3.783684596419334412e-02 -3.397842496633529663e-02 3.593764826655387878e-02 -9.730540961027145386e-02 1.346934139728546143e-01 -2.095510065555572510e-02 6.213238928467035294e-03 -5.526313092559576035e-03
9.832992218434810638e-03 -1.471933424472808838e-01 2.905608713626861572e-02 -1.618902431800961494e-03 8.025927096605300903e-02 4.936059936881065369e-03 4.162887111306190491e-02 7.197243161499500275e-03 -4.365175496786832809e-03 8.756810799241065979e-03 -1.319409813731908798e-03 -2.251576445996761322e-02 2.761564217507839203e-03 7.097318768501281738e-02 6.775784492492675781e-02 -1.752618700265884399e-02 -1.302550453692674637e-02 -3.304997831583023071e-02 -6.846702098846435547e-02 1.793253468349575996e-03 -4.085387662053108215e-02 3.794588893651962280e-02 2.293387427926063538e-02 6.037417426705360413e-02 -2.593518793582916260e-02 -2.784723415970802307e-02 2.010969817638397217e-02 -9.013374149799346924e-02 8.502621948719024658e-02 -3.376468783244490623e-03 2.439071610569953918e-02 2.708834782242774963e-02
-2.016938477754592896e-02 -1.239511743187904358e-01 5.010316520929336548e-02 1.406175177544355392e-02 4.729429259896278381e-02 4.399485141038894653e-02 3.636167384684085846e-04 5.212572868913412094e-03 -6.502616219222545624e-03 1.789859123528003693e-02 3.504155902191996574e-03 -1.490441057831048965e-02 4.967405647039413452e-02 3.287202492356300354e-02 7.283753156661987305e-02 -1.339101232588291168e-02 -4.828121047466993332e-03 1.266602240502834320e-02 -1.150951907038688660e-01 -1.870703510940074921e-02 -4.438722506165504456e-02 4.393564537167549133e-02 1.237368490546941757e-02 5.539472401142120361e-02 -5.455838982015848160e-03 4.119844734668731689e-02 -2.616897039115428925e-02 -5.727080628275871277e-02 3.103697113692760468e-02 -1.553923473693430424e-03 6.825867574661970139e-03 1.338587515056133270e-02
-1.777458749711513519e-02 -7.794173806905746460e-02 3.930739313364028931e-02 2.566535398364067078e-02 -1.378605235368013382e-02 8.740655332803726196e-02 -2.374378219246864319e-02 1.859624870121479034e-02 3.947709919884800911e-04 1.656332053244113922e-02 -5.973342922516167164e-04 -3.996353968977928162e-02 4.508282244205474854e-02 5.501508712768554688e-03 4.004755988717079163e-02 -2.034941501915454865e-02 -1.744568930007517338e-03 2.180775441229343414e-02 -7.200788706541061401e-02 -3.903790190815925598e-02 -2.953333035111427307e-02 1.720257289707660675e-02 3.319411352276802063e-02 4.157839715480804443e-02 -1.277527213096618652e-02 5.013616010546684265e-02 -3.534000739455223083e-02 -2.133826911449432373e-02 -6.155418232083320618e-03 -2.161370066460222006e-04 -6.333817262202501297e-03 1.158557459712028503e-02
7.567542046308517456e-02 -6.379336118698120117e-02 4.440105706453323364e-02 4.906527698040008545e-02 -4.020115733146667480e-02 -4.881560429930686951e-02 7.819128781557083130e-02 2.963865920901298523e-02 -2.497314475476741791e-02 -2.385963872075080872e-02 -1.483527477830648422e-02 -1.144054997712373734e-02 -1.656511984765529633e-02 1.018535159528255463e-02 5.444954335689544678e-02 -1.024078018963336945e-02 -1.682610064744949341e-02 -2.949809841811656952e-02 -5.170992575585842133e-03 2.963418327271938324e-02 -2.090509980916976929e-02 -2.721119672060012817e-03 -4.370336886495351791e-03 -2.793645672500133514e-02 4.996018484234809875e-02 -2.981902565807104111e-03 -5.771360825747251511e-03 1.642298698425292969e-02 -1.282963994890451431e-02 -9.513474069535732269e-03 -7.033322472125291824e-03 2.469141967594623566e-02
5.058328434824943542e-02 -8.638731390237808228e-02 3.454234078526496887e-02 2.842143923044204712e-02 -2.321038627997040749e-03 -5.055564641952514648e-02 6.086478009819984436e-02 2.209806442260742188e-02 2.036918594967573881e-04 -1.511321123689413071e-02 -2.382508106529712677e-02 8.212137967348098755e-03 -2.422862872481346130e-02 5.358344316482543945e-02 7.390896230936050415e-02 -2.146265842020511627e-02 -6.716290861368179321e-02 -4.358436912298202515e-02 1.531133707612752914e-02 9.359682910144329071e-03 -1.780470646917819977e-02 9.090192615985870361e-03 3.156661614775657654e-02 -7.003362290561199188e-03 -1.076831016689538956e-02 -3.830017894506454468e-02 1.600776612758636475e-02 -2.008203417062759399e-03 4.511320963501930237e-02 -1.657361723482608795e-02 1.365197915583848953e-02 -4.907455295324325562e-03
3.726115077733993530e-02 -1.340203881263732910e-01 4.109868779778480530e-02 1.406755484640598297e-02 2.140175923705101013e-02 -3.024098463356494904e-02 1.688870042562484741e-02 2.530628070235252380e-02 -1.340890210121870041e-02 6.710319779813289642e-03 -4.096982255578041077e-02 -1.872933586128056049e-03 1.329132821410894394e-02 5.090858414769172668e-02 6.070370227098464966e-02 -3.494750708341598511e-02 -3.425918892025947571e-02 -2.462336048483848572e-02 -1.205887645483016968e-03 1.868585241027176380e-03 -4.201275482773780823e-02 2.955723181366920471e-02 2.854486368596553802e-02 4.200210049748420715e-02 -2.510336600244045258e-02 -6.402117758989334106e-02 2.952280640602111816e-02 -1.034317538142204285e-02 3.437962010502815247e-02 1.572175137698650360e-02 2.801634557545185089e-02 7.734349928796291351e-03
1.374301314353942871e-02 -8.377341181039810181e-02 6.066441908478736877e-02 -8.063948713243007660e-03 -4.081778693944215775e-03 -2.782917954027652740e-02 -2.419337816536426544e-02 -1.196110504679381847e-03 -2.543421834707260132e-02 -1.209996268153190613e-02 -5.587422847747802734e-02 -6.960496772080659866e-03 4.782951995730400085e-02 1.984250172972679138e-02 6.142732501029968262e-02 -2.367417886853218079e-02 -2.303244918584823608e-02 3.133329795673489571e-03 -4.994992911815643311e-02 -3.442466491833329201e-03 -3.569680079817771912e-02 4.058526828885078430e-02 6.935461424291133881e-03 1.332176383584737778e-02 -6.897053215652704239e-03 -1.914856210350990295e-02 -1.345796231180429459e-02 -1.212714985013008118e-02 4.982073977589607239e-02 1.376631949096918106e-02 2.306069433689117432e-02 1.578530296683311462e-03
-3.033318091183900833e-03 -2.194792404770851135e-02 2.693534269928932190e-02 -2.317821606993675232e-02 -4.015425220131874084e-02 1.660540699958801270e-02 -2.575710229575634003e-02 -1.732156233629211783e-04 -1.130572427064180374e-02 -4.740576259791851044e-03 -3.432642295956611633e-02 -1.718915440142154694e-02 4.200500994920730591e-02 -9.193973615765571594e-03 3.500779718160629272e-02 -2.254059351980686188e-02 -2.164476923644542694e-02 3.341218456625938416e-02 -5.171329900622367859e-02 -4.319221246987581253e-03 -2.312807552516460419e-02 2.351254411041736603e-02 -1.191046976600773633e-04 -3.819729387760162354e-02 1.899290271103382111e-02 2.231214893981814384e-03 -3.463270887732505798e-02 7.697435095906257629e-03 1.598567701876163483e-02 2.915414981544017792e-03 1.354996766895055771e-02 3.679754212498664856e-03
2.935179509222507477e-02 -1.162513997405767441e-02 -3.209068998694419861e-02 5.459916964173316956e-02 -2.210137806832790375e-02 -3.488033637404441833e-02 7.298392802476882935e-02 -5.674529448151588440e-02 -1.861830428242683411e-02 -3.289319947361946106e-02 -5.334317684173583984e-02 -5.176257714629173279e-02 1.269176322966814041e-02 -4.016391932964324951e-02 -1.219726633280515671e-02 -2.758546173572540283e-02 6.397664546966552734e-02 5.448966473340988159e-02 3.236961737275123596e-02 2.973652817308902740e-02 4.304945841431617737e-02 -6.034321268089115620e-04 1.567242480814456940e-02 -4.675975441932678223e-02 5.891926214098930359e-02 -1.687397994101047516e-02 -2.982211299240589142e-03 -6.456928700208663940e-02 -1.662042550742626190e-02 1.699323020875453949e-02 2.138741873204708099e-02 1.113142296671867371e-01
4.980733990669250488e-02 1.736588776111602783e-02 -7.040219008922576904e-02 6.283532828092575073e-02 -5.426722392439842224e-02 -5.642543733119964600e-02 9.651657938957214355e-02 -5.650495365262031555e-02 2.452412061393260956e-02 3.693473525345325470e-03 -1.014100834727287292e-01 -5.854862183332443237e-02 -5.123542994260787964e-02 -6.985134445130825043e-03 -5.619460251182317734e-03 -3.367951512336730957e-02 3.476841002702713013e-02 2.342642052099108696e-03 2.995569072663784027e-02 -1.459824200719594955e-02 5.363305099308490753e-03 3.115868382155895233e-02 7.485142908990383148e-03 -7.869925349950790405e-02 9.682304412126541138e-02 -4.292007535696029663e-02 -1.697846129536628723e-02 -5.270992219448089600e-02 1.792365871369838715e-02 1.337263500317931175e-03 2.984216995537281036e-02 1.440287977457046509e-01
1.222366932779550552e-03 -9.508014656603336334e-03 -7.339720427989959717e-02 7.570363581180572510e-02 -3.225495666265487671e-02 2.464063232764601707e-03 4.172064363956451416e-02 -5.158571898937225342e-02 3.959102556109428406e-02 1.794543303549289703e-02 -9.710416942834854126e-02 -3.615858405828475952e-02 -2.255369722843170166e-02 1.390991499647498131e-03 8.921510539948940277e-03 -2.229661867022514343e-02 1.127807945013046265e-01 2.153272740542888641e-02 -1.020669471472501755e-02 -5.728218238800764084e-03 7.361609023064374924e-03 2.686808817088603973e-02 -4.679777845740318298e-02 -4.347305744886398315e-02 1.175718680024147034e-01 -3.087482228875160217e-02 -2.379435114562511444e-02 -6.149885244667530060e-03 -2.221497939899563789e-03 -7.181306369602680206e-03 3.010644763708114624e-02 9.643901139497756958e-02
-6.140664592385292053e-02 -3.018576093018054962e-02 -6.500789523124694824e-02 5.231734365224838257e-02 -1.714972662739455700e-03 6.030030082911252975e-03 4.332309588789939880e-03 -2.423094585537910461e-02 3.460036963224411011e-02 1.917506195604801178e-02 -7.846398651599884033e-02 -2.835793653503060341e-03 4.665353894233703613e-02 -1.336680911481380463e-02 -6.651221774518489838e-03 -3.508420288562774658e-02 9.906291216611862183e-02 -1.485201157629489899e-02 -5.377242714166641235e-02 6.457212381064891815e-03 -1.864885794930160046e-03 3.697192668914794922e-02 -2.884757332503795624e-02 -4.107957705855369568e-03 1.081973239779472351e-01 -1.992803998291492462e-02 -1.204597856849431992e-02 -1.351962983608245850e-02 1.872557448223233223e-03 2.994748204946517944e-02 6.877882871776819229e-03 2.764591947197914124e-02
-8.292758464813232422e-02 -4.195011779665946960e-02 -2.489738352596759796e-02 -4.476249683648347855e-03 -8.849439211189746857e-03 1.689294725656509399e-02 -3.302844613790512085e-02 -1.494112890213727951e-02 -7.500587031245231628e-03 -1.665307581424713135e-02 -5.249232426285743713e-02 5.935310386121273041e-03 5.147480964660644531e-02 -1.388964895159006119e-02 -2.438578009605407715e-02 -2.785857394337654114e-02 5.608454719185829163e-02 1.806270680390298367e-03 -1.364793721586465836e-02 -3.973196819424629211e-02 2.517867274582386017e-02 1.136226300150156021e-02 -2.772989310324192047e-02 2.694294787943363190e-02 5.743037164211273193e-02 1.505840045865625143e-04 1.627991162240505219e-02 -4.051588103175163269e-02 4.005160648375749588e-03 -4.636013414710760117e-03 -3.724418813362717628e-03 -4.527763277292251587e-02
6.289773434400558472e-02 3.343399241566658020e-02 -4.999083653092384338e-02 5.519775673747062683e-02 1.783026033081114292e-03 -1.646149717271327972e-02 4.567417874932289124e-02 -3.593046218156814575e-02 -2.699391171336174011e-02 -6.923457980155944824e-02 -2.499967627227306366e-02 -2.815602719783782959e-02 -7.887747138738632202e-03 -2.570070326328277588e-02 6.495627108961343765e-03 -7.438143342733383179e-02 5.979701504111289978e-02 7.003261893987655640e-02 2.559293620288372040e-02 2.974455058574676514e-02 3.076535649597644806e-02 -2.962024696171283722e-02 2.727393433451652527e-02 -4.985326528549194336e-02 2.599358744919300079e-02 -1.503077521920204163e-02 -4.917876049876213074e-02 -6.796845048666000366e-02 -3.942335397005081177e-02 1.853643357753753662e-02 -2.667523548007011414e-02 1.221602037549018860e-01
9.515084326267242432e-02 4.851164668798446655e-02 -1.189055293798446655e-01 7.068019360303878784e-02 9.004052728414535522e-03 -2.996030822396278381e-02 4.374233633279800415e-02 -3.086282499134540558e-02 3.548336774110794067e-02 -4.759625345468521118e-02 -6.729979068040847778e-02 -6.356348842382431030e-02 -1.128339841961860657e-01 -1.535171270370483398e-02 1.880820281803607941e-02 -1.124675944447517395e-01 5.377251282334327698e-02 4.890581592917442322e-03 2.809092961251735687e-02 -6.667068228125572205e-03 -8.101148530840873718e-03 1.919442415237426758e-02 2.147251181304454803e-02 -9.261526912450790405e-02 3.845346346497535706e-02 -4.565504565834999084e-02 -3.530364111065864563e-02 -5.560458824038505554e-02 3.218704462051391602e-02 1.977984094992280006e-03 -1.131540536880493164e-02 1.468442529439926147e-01
4.723886772990226746e-02 1.066996715962886810e-03 -1.220150142908096313e-01 6.442463397979736328e-02 2.525781653821468353e-02 2.435622923076152802e-02 -2.206257358193397522e-02 -2.833209931850433350e-02 6.417848914861679077e-02 1.117852050811052322e-02 -7.195187360048294067e-02 -4.075086861848831177e-02 -7.608419656753540039e-02 6.380354519933462143e-03 1.572126150131225586e-02 -1.040339693427085876e-01 1.297817528247833252e-01 1.321929041296243668e-02 -5.277046188712120056e-02 1.051708869636058807e-02 -1.560335233807563782e-02 2.525880560278892517e-02 -1.000411529093980789e-02 -6.262172013521194458e-02 6.469346582889556885e-02 -1.065651327371597290e-02 -5.280373990535736084e-02 -2.204665541648864746e-02 3.327040746808052063e-02 -4.711022600531578064e-03 -5.218783859163522720e-03 1.142412573099136353e-01
-3.609188646078109741e-02 -1.276309043169021606e-02 -8.590084314346313477e-02 4.602161422371864319e-02 3.577627614140510559e-02 2.025858964771032333e-03 -4.377442598342895508e-02 -2.167100273072719574e-02 5.186462774872779846e-02 5.254681035876274109e-02 -6.286623328924179077e-02 -6.557837477885186672e-04 3.112209588289260864e-02 9.434777311980724335e-03 -4.807361401617527008e-03 -9.932165592908859253e-02 1.227399185299873352e-01 -2.520648017525672913e-02 -1.152685582637786865e-01 1.698136888444423676e-02 -2.658859454095363617e-02 4.651728644967079163e-02 1.434292644262313843e-02 -3.559596464037895203e-02 7.451290637254714966e-02 1.667293137870728970e-03 -4.636475071310997009e-02 -1.052500214427709579e-02 3.780961781740188599e-02 3.936367481946945190e-02 -3.265395760536193848e-02 5.086350440979003906e-02
-7.847230881452560425e-02 -1.097453292459249496e-02 -2.873637713491916656e-02 -7.025682833045721054e-03 -1.892868243157863617e-02 -1.333054807037115097e-02 -4.408294335007667542e-02 -1.440685149282217026e-02 -2.004038309678435326e-03 2.063297433778643608e-03 -4.810022562742233276e-02 9.294821880757808685e-03 6.654032319784164429e-02 1.773955859243869781e-02 -1.765281148254871368e-02 -6.342612206935882568e-02 5.862112715840339661e-02 1.478515751659870148e-02 -6.650082021951675415e-02 -2.844114601612091064e-02 -3.243328537791967392e-03 1.218601409345865250e-02 2.024199068546295166e-02 -6.914054043591022491e-03 5.018656700849533081e-02 2.637827768921852112e-02 -3.098546899855136871e-02 -4.724026098847389221e-02 1.882843114435672760e-02 1.342491013929247856e-03 -2.758751809597015381e-02 -1.929893717169761658e-02
5.666635558009147644e-02 2.386106178164482117e-03 -3.240759298205375671e-02 3.920905664563179016e-02 3.541232272982597351e-02 8.089635521173477173e-03 2.892609685659408569e-02 -4.806680604815483093e-03 -4.676105454564094543e-02 -7.863350957632064819e-02 2.161079645156860352e-02 5.063317716121673584e-03 -8.856578730046749115e-03 -2.217132970690727234e-02 2.360992133617401123e-02 -1.159454882144927979e-01 5.436560884118080139e-02 7.972659915685653687e-02 2.303495630621910095e-02 1.088115759193897247e-02 -4.560542758554220200e-03 -2.194411680102348328e-02 4.492968320846557617e-02 -3.856018930673599243e-02 -3.845395147800445557e-02 1.070237252861261368e-03 -4.317856207489967346e-02 -5.533784255385398865e-02 -2.781996876001358032e-02 2.022651210427284241e-02 -4.863634705543518066e-02 1.219937503337860107e-01
8.256023377180099487e-02 -2.720318362116813660e-02 -1.029774397611618042e-01 6.594184041023254395e-02 8.496752381324768066e-02 2.022994123399257660e-02 3.506688866764307022e-03 -2.718835370615124702e-03 1.869937591254711151e-02 -7.564841955900192261e-02 -1.109234988689422607e-03 -4.860790446400642395e-02 -1.352972090244293213e-01 -1.398918684571981430e-02 3.580917790532112122e-02 -1.568949222564697266e-01 3.252010419964790344e-02 -4.569855518639087677e-03 2.832077071070671082e-02 -1.716539077460765839e-02 -4.862866178154945374e-02 2.781541086733341217e-02 5.455929040908813477e-02 -6.611189991235733032e-02 -6.497931480407714844e-02 -2.317667752504348755e-02 -2.715681865811347961e-02 -6.153574958443641663e-02 3.455359488725662231e-02 2.777942223474383354e-03 -3.528296947479248047e-02 1.311442852020263672e-01
6.790408492088317871e-02 -7.310327887535095215e-02 -1.183650717139244080e-01 4.484237730503082275e-02 9.096758812665939331e-02 7.316218316555023193e-02 -6.181717291474342346e-02 1.252720225602388382e-02 4.803213477134704590e-02 8.839199319481849670e-03 -7.009552326053380966e-03 -1.884324103593826294e-02 -1.127081066370010376e-01 1.441860478371381760e-02 3.035439178347587585e-02 -1.574709415435791016e-01 1.002157852053642273e-01 -8.766265586018562317e-03 -7.722472399473190308e-02 2.388616790995001793e-03 -4.318416491150856018e-02 1.787637732923030853e-02 4.974984750151634216e-02 -3.703619912266731262e-02 -5.077860876917839050e-02 5.520232953131198883e-03 -5.054317787289619446e-02 -4.403628036379814148e-02 6.115036085247993469e-02 1.666989922523498535e-02 -3.274845704436302185e-02 9.640289098024368286e-02
-8.990351110696792603e-03 -7.960824668407440186e-02 -7.912102341651916504e-02 4.090726003050804138e-02 8.675277233123779297e-02 3.036917746067047119e-02 -8.255481719970703125e-02 5.345447454601526260e-03 3.520147874951362610e-02 7.947827130556106567e-02 -9.513876400887966156e-03 1.958450488746166229e-02 2.859528176486492157e-02 2.772578410804271698e-02 2.291802689433097839e-02 -1.385755836963653564e-01 1.101046800613403320e-01 -3.963173925876617432e-02 -1.379183977842330933e-01 1.999204605817794800e-02 -5.116619169712066650e-02 5.790200829505920410e-02 7.760949432849884033e-02 -1.462471298873424530e-02 -3.277789428830146790e-02 9.500770829617977142e-03 -4.707708582282066345e-02 -3.194881230592727661e-02 5.025770515203475952e-02 6.913211196660995483e-02 -5.703579261898994446e-02 5.097500234842300415e-02
-5.610296130180358887e-02 -3.968128934502601624e-02 -3.053188882768154144e-02 -1.248160493560135365e-03 -1.230993511853739619e-04 -9.213622543029487133e-04 -4.628101363778114319e-02 -1.051883865147829056e-02 -1.658733375370502472e-02 3.725799545645713806e-02 -1.607616804540157318e-02 2.684749476611614227e-02 7.427980005741119385e-02 4.998433217406272888e-02 9.088830091059207916e-03 -7.871717214584350586e-02 5.752486363053321838e-02 1.851466484367847443e-02 -8.433010429143905640e-02 -1.784557849168777466e-02 -4.127426818013191223e-02 3.660415112972259521e-02 7.474307715892791748e-02 -1.631952123716473579e-03 -6.274305749684572220e-03 5.947319790720939636e-02 -4.190901294350624084e-02 -5.728131532669067383e-02 2.753633819520473480e-02 3.962754458189010620e-02 -4.538357630372047424e-02 3.693852107971906662e-03
1.345313806086778641e-02 -5.135408788919448853e-02 4.295350611209869385e-02 5.304209422320127487e-03 2.032039500772953033e-02 1.841415092349052429e-02 3.323137015104293823e-02 1.772545464336872101e-02 -4.971380531787872314e-02 -4.944967478513717651e-02 5.314953252673149109e-02 9.567105211317539215e-03 -3.554651280865073204e-03 -7.078559137880802155e-03 3.220180049538612366e-02 -1.018121466040611267e-01 1.731524057686328888e-02 4.665773361921310425e-02 1.707028411328792572e-02 -3.413992235437035561e-03 -1.400074362754821777e-02 -1.543800998479127884e-02 4.546954482793807983e-02 3.887519415002316236e-04 -2.149817906320095062e-02 1.204987335950136185e-02 -1.092527434229850769e-02 -1.117231324315071106e-02 -2.180004678666591644e-02 8.956160396337509155e-03 -4.617753624916076660e-02 7.791341096162796021e-02
7.530464325100183487e-03 -1.161596029996871948e-01 -1.092469505965709686e-02 3.072025999426841736e-02 9.743519127368927002e-02 4.621263965964317322e-02 5.141654401086270809e-04 1.895121298730373383e-02 -8.343284949660301208e-03 -6.129602342844009399e-02 6.875179708003997803e-02 -3.878679499030113220e-02 -1.140752881765365601e-01 7.809008937329053879e-03 2.698214910924434662e-02 -1.308531463146209717e-01 -1.654572598636150360e-02 -4.220061004161834717e-02 2.598942816257476807e-02 -1.762639358639717102e-02 -5.623320490121841431e-02 2.920612879097461700e-02 4.714204743504524231e-02 -1.233491022139787674e-02 -7.159861922264099121e-02 -5.776216275990009308e-03 -4.959360696375370026e-03 -2.825458534061908722e-02 1.201799884438514709e-02 -1.112319435924291611e-02 -3.176786750555038452e-02 7.302019000053405762e-02
3.325847908854484558e-02 -1.471843719482421875e-01 -4.890047013759613037e-02 5.726845934987068176e-03 9.315863996744155884e-02 8.367472887039184570e-02 -7.441408187150955200e-02 4.158595576882362366e-02 2.273000404238700867e-02 1.818507350981235504e-02 4.019927978515625000e-02 4.472062457352876663e-03 -9.510494768619537354e-02 3.985509648919105530e-02 1.938442885875701904e-02 -1.236522942781448364e-01 4.175312444567680359e-02 -3.999646008014678955e-02 -6.968686729669570923e-02 1.177035665023140609e-04 -3.701621294021606445e-02 1.201548799872398376e-02 5.020052194595336914e-02 1.119219232350587845e-02 -1.081271916627883911e-01 4.715264309197664261e-03 -3.589454293251037598e-02 -3.975127264857292175e-02 6.016901507973670959e-02 9.252036921679973602e-03 -3.751045465469360352e-02 4.685074463486671448e-02
-5.600161384791135788e-03 -1.469796299934387207e-01 -2.338164485991001129e-02 1.569560915231704712e-02 7.477877289056777954e-02 3.853633999824523926e-02 -9.043772518634796143e-02 3.479036688804626465e-02 3.049864992499351501e-02 8.825974911451339722e-02 2.857033163309097290e-02 2.385014668107032776e-02 4.279990494251251221e-02 3.596267849206924438e-02 1.869266852736473083e-02 -1.041251048445701599e-01 6.495700776576995850e-02 -4.563205689191818237e-02 -1.038642078638076782e-01 2.642579935491085052e-02 -4.412915930151939392e-02 5.474458262324333191e-02 7.935414463281631470e-02 2.646536938846111298e-02 -8.121762424707412720e-02 -1.660465262830257416e-02 -3.794172778725624084e-02 -2.720195986330509186e-02 3.026653639972209930e-02 6.281118839979171753e-02 -4.868075251579284668e-02 1.871281675994396210e-02
-3.995980322360992432e-02 -7.334892451763153076e-02 -1.981732435524463654e-03 -1.864170655608177185e-02 -9.002661332488059998e-03 -8.955284021794795990e-03 -5.296631157398223877e-02 -1.001958549022674561e-02 -8.301394991576671600e-03 4.960911348462104797e-02 5.938492715358734131e-03 3.400431573390960693e-02 7.169012725353240967e-02 6.085486337542533875e-02 1.397092640399932861e-02 -5.255172029137611389e-02 2.933765016496181488e-02 3.693532198667526245e-03 -5.561437085270881653e-02 4.825102165341377258e-03 -3.352017328143119812e-02 4.770614206790924072e-02 8.116189390420913696e-02 8.179824799299240112e-03 -3.204673528671264648e-02 3.782682120800018311e-02 -2.690328843891620636e-02 -5.610498785972595215e-02 1.051289378665387630e-03 6.250838190317153931e-02 -3.756994009017944336e-02 -1.070952857844531536e-03
-1.676088012754917145e-02 -3.775305300951004028e-02 6.723278015851974487e-02 -4.269316419959068298e-02 -1.302851177752017975e-02 9.449865669012069702e-03 6.149516627192497253e-02 2.292278222739696503e-02 -3.892965614795684814e-02 -1.627510040998458862e-02 7.663237303495407104e-02 -1.804669620469212532e-03 1.180426217615604401e-02 1.520394347608089447e-03 9.740645065903663635e-03 -6.683887541294097900e-02 -1.133672799915075302e-02 1.746096275746822357e-02 3.075575456023216248e-03 -8.865110576152801514e-03 -5.387440789490938187e-03 1.324807573109865189e-02 1.846427284181118011e-02 2.189476042985916138e-02 3.980479389429092407e-02 9.658592753112316132e-03 -6.733739748597145081e-03 5.830258876085281372e-02 -1.078467909246683121e-02 -1.192434690892696381e-03 -3.258116915822029114e-02 -1.302904449403285980e-02
-3.979064151644706726e-02 -9.164240211248397827e-02 2.759332582354545593e-02 -3.169684857130050659e-02 6.914863735437393188e-02 3.163790702819824219e-02 3.670604899525642395e-02 2.735405974090099335e-02 -3.244851157069206238e-02 -2.978765591979026794e-02 1.118425503373146057e-01 -3.100561536848545074e-02 -7.859694957733154297e-02 2.218205109238624573e-02 1.117537077516317368e-02 -6.847444921731948853e-02 -4.690827429294586182e-02 -6.294082850217819214e-02 2.343100681900978088e-02 -1.106880418956279755e-02 -4.738728329539299011e-02 2.277630195021629333e-02 -6.295641884207725525e-03 2.627114020287990570e-02 -1.402606349438428879e-02 -1.040839124470949173e-02 -2.488291589543223381e-03 2.041738107800483704e-02 9.069816442206501961e-04 -1.477689575403928757e-02 -1.982454955577850342e-02 7.671943167224526405e-04
4.225857555866241455e-03 -9.973092377185821533e-02 -1.036771200597286224e-02 -4.350230842828750610e-02 5.630138143897056580e-02 7.242085784673690796e-02 -4.877407476305961609e-02 4.205662012100219727e-02 7.624226622283458710e-03 2.952580526471138000e-02 6.063687056303024292e-02 2.511906437575817108e-02 -5.467040464282035828e-02 4.308930411934852600e-02 4.165567923337221146e-03 -5.386989191174507141e-02 1.186805777251720428e-02 -4.654017090797424316e-02 -3.414022922515869141e-02 -1.783935818821191788e-03 -1.655762642621994019e-02 3.094853600487112999e-03 -1.175493467599153519e-02 4.365347698330879211e-02 -6.126439943909645081e-02 -1.330553367733955383e-02 -3.486309573054313660e-02 -4.633630625903606415e-03 3.135564550757408142e-02 1.840085140429437160e-03 -2.568481490015983582e-02 2.891464391723275185e-03
-1.308719348162412643e-02 -9.327703714370727539e-02 1.361934002488851547e-02 -1.155173219740390778e-02 3.090617991983890533e-02 4.226795583963394165e-02 -6.185611709952354431e-02 3.756844624876976013e-02 1.268748380243778229e-02 8.153871446847915649e-02 4.034607484936714172e-02 1.796304062008857727e-02 6.922888755798339844e-02 2.783555537462234497e-02 1.179444044828414917e-02 -3.634497895836830139e-02 3.037828579545021057e-02 -2.738252468407154083e-02 -5.334553867578506470e-02 2.606209181249141693e-02 -2.003039978444576263e-02 2.280548401176929474e-02 2.348607592284679413e-02 6.753497570753097534e-02 -2.674259617924690247e-02 -5.591235682368278503e-02 -3.862309828400611877e-02 2.795978216454386711e-04 -8.932550437748432159e-03 4.888558015227317810e-02 -3.076664358377456665e-02 -1.105423923581838608e-02
-3.830106183886528015e-02 -3.010497055947780609e-02 1.790247857570648193e-02 -3.368687629699707031e-02 -2.415759488940238953e-02 -1.597561873495578766e-02 -3.523045033216476440e-02 -8.721915073692798615e-03 -3.320295596495270729e-03 5.167302861809730530e-02 1.680255308747291565e-02 1.885432191193103790e-02 6.022584810853004456e-02 4.409277439117431641e-02 1.438501570373773575e-02 -1.156928297132253647e-02 1.430713851004838943e-02 1.319643855094909668e-02 -1.611221581697463989e-02 2.653536200523376465e-02 2.241313690319657326e-03 5.590614303946495056e-02 2.291042171418666840e-02 3.183066472411155701e-02 4.651825875043869019e-03 -2.427443861961364746e-03 -9.732312522828578949e-03 -4.079835116863250732e-02 -3.033022582530975342e-02 5.867247283458709717e-02 -2.833509072661399841e-02 -2.203695708885788918e-03
3.741166368126869202e-02 -6.953085539862513542e-04 -4.453070089221000671e-02 -4.453619569540023804e-02 -6.099645048379898071e-02 -2.373908460140228271e-02 2.683680690824985504e-02 -1.883473480120301247e-03 -2.557631954550743103e-02 4.418086633086204529e-02 -9.837500983849167824e-04 1.159007661044597626e-02 8.917966857552528381e-03 -1.233005337417125702e-02 4.498244728893041611e-03 -1.081668864935636520e-02 2.805536985397338867e-02 1.675267517566680908e-02 3.534593805670738220e-02 -1.072023808956146240e-01 9.262594976462423801e-04 -3.863368183374404907e-02 -1.546342112123966217e-02 -5.735013261437416077e-02 -1.074365526437759399e-02 3.017131052911281586e-02 -1.469316333532333374e-02 -4.212959110736846924e-02 -6.272767670452594757e-03 3.313229978084564209e-02 -6.124342232942581177e-02 4.920206591486930847e-02
6.351400632411241531e-03 -9.746900759637355804e-03 -1.256147213280200958e-02 -4.482560232281684875e-02 -4.077766090631484985e-02 9.172385558485984802e-03 3.043966740369796753e-02 1.663336902856826782e-02 -9.013039059937000275e-03 5.562905594706535339e-02 -9.237786754965782166e-03 1.329672802239656448e-02 2.177794650197029114e-02 -2.502220869064331055e-02 1.294765807688236237e-02 1.756490580737590790e-02 3.611824661493301392e-02 1.909033022820949554e-02 1.773516833782196045e-02 -9.456355869770050049e-02 -3.964183107018470764e-02 -9.116429090499877930e-02 -7.766535039991140366e-03 -1.678239740431308746e-02 -2.320626005530357361e-02 1.975123304873704910e-04 -1.752581261098384857e-02 -1.597063988447189331e-02 -2.556689828634262085e-02 -2.384274732321500778e-03 -6.692706048488616943e-02 2.991255000233650208e-02
-1.281457487493753433e-02 -8.301284164190292358e-03 2.073292620480060577e-02 -3.106882795691490173e-02 -1.137266517616808414e-03 4.152319952845573425e-02 2.036775276064872742e-02 2.544721774756908417e-02 -1.847269013524055481e-02 6.770756840705871582e-02 -9.787037037312984467e-03 3.552108630537986755e-02 7.789211347699165344e-03 -2.893731370568275452e-02 1.634613797068595886e-02 3.525632247328758240e-02 4.847820848226547241e-02 9.977130219340324402e-03 -7.119857473298907280e-04 -6.765580922365188599e-02 -6.738224625587463379e-02 -1.020642220973968506e-01 3.513528208713978529e-04 2.052384056150913239e-02 -2.656568400561809540e-02 -1.548191253095865250e-02 7.152115460485219955e-03 -1.777067407965660095e-02 -3.067629039287567139e-02 -3.858589380979537964e-02 -8.706957846879959106e-02 2.878872305154800415e-02
-1.156010851263999939e-02 -1.100238878279924393e-02 1.966553926467895508e-02 -2.568787150084972382e-02 6.844257586635649204e-04 2.986545115709304810e-02 1.825865171849727631e-02 6.306673865765333176e-03 -1.569161377847194672e-02 9.378963708877563477e-02 2.627251669764518738e-03 2.410613186657428741e-02 -7.208910305052995682e-03 2.539972541853785515e-03 2.778346417471766472e-03 1.862802542746067047e-02 3.824729099869728088e-02 -7.474078796803951263e-03 -2.293722145259380341e-02 -4.760074242949485779e-02 -6.182437390089035034e-02 -7.345028966665267944e-02 -1.037637982517480850e-02 1.614606566727161407e-02 -1.337001379579305649e-02 -2.572477422654628754e-02 3.656275570392608643e-02 -1.861881464719772339e-02 -4.604894295334815979e-02 -4.948161914944648743e-02 -8.929375559091567993e-02 3.577898442745208740e-02
-9.641170501708984375e-03 -2.835115417838096619e-02 1.989179477095603943e-02 -1.024235878139734268e-02 -2.444767020642757416e-02 -1.279411371797323227e-03 -1.895906776189804077e-02 -1.533692848170176148e-04 -2.250532992184162140e-02 7.317285984754562378e-02 -2.261934429407119751e-02 4.143188521265983582e-02 -8.601962588727474213e-03 2.263396419584751129e-02 -6.392263341695070267e-03 -4.824086092412471771e-03 2.244483493268489838e-02 -3.547766432166099548e-02 -5.958873033523559570e-02 -2.911051176488399506e-02 -3.194700554013252258e-02 -6.798797100782394409e-02 -4.288509860634803772e-02 8.379817008972167969e-03 -5.611087661236524582e-03 -1.313374843448400497e-02 3.819691017270088196e-02 -3.166880458593368530e-02 -5.328315868973731995e-02 -5.786978080868721008e-02 -7.380349189043045044e-02 3.527932241559028625e-02
7.108344230800867081e-03 3.466165065765380859e-02 -4.937339574098587036e-02 -3.764250874519348145e-02 -1.971896737813949585e-02 -1.123542245477437973e-02 1.055084075778722763e-02 1.923709176480770111e-02 -5.191514641046524048e-02 -4.717030096799135208e-03 6.664824672043323517e-03 3.059590607881546021e-02 3.359347349032759666e-03 -1.468565594404935837e-02 1.624606898985803127e-03 -1.248802337795495987e-02 -6.319636013358831406e-03 -4.630620777606964111e-02 6.642189621925354004e-02 -8.648177236318588257e-02 3.148064762353897095e-02 2.059292607009410858e-02 1.125152688473463058e-02 -2.887615375220775604e-02 -9.058021940290927887e-03 -1.827613636851310730e-02 -2.286387793719768524e-02 -1.593542844057083130e-02 -1.525988045614212751e-04 8.143521845340728760e-02 -2.358265593647956848e-02 2.014270983636379242e-02
-2.497413009405136108e-02 3.059625998139381409e-02 -2.238607034087181091e-02 -4.419666528701782227e-02 7.688914774917066097e-04 2.395809814333915710e-02 8.664810098707675934e-03 4.829676449298858643e-02 -2.335920557379722595e-02 5.195892881602048874e-04 2.565424423664808273e-03 2.585172653198242188e-02 2.313659526407718658e-02 -3.099941089749336243e-02 2.452846057713031769e-02 1.660045236349105835e-02 6.893994752317667007e-03 -3.470474109053611755e-02 4.100906476378440857e-02 -7.301541417837142944e-02 -5.795871373265981674e-03 -3.999902680516242981e-02 2.594168111681938171e-02 1.443600561469793320e-02 -2.731872349977493286e-02 -3.880329802632331848e-02 -1.204738952219486237e-02 -1.920833019539713860e-03 4.512564337346702814e-04 3.022427484393119812e-02 -2.617192268371582031e-02 -6.860554218292236328e-03
-3.235571831464767456e-02 2.605048753321170807e-02 -1.237882301211357117e-03 -1.503471843898296356e-02 2.743408270180225372e-02 6.688053905963897705e-02 1.269021444022655487e-02 6.005837023258209229e-02 -2.160475403070449829e-02 7.688253186643123627e-03 -1.093280408531427383e-02 3.652035444974899292e-02 2.100249566137790680e-02 -4.793537035584449768e-02 3.282345086336135864e-02 4.095946624875068665e-02 1.144638750702142715e-02 -2.789685316383838654e-02 5.792020354419946671e-03 -5.528056994080543518e-02 -3.343198075890541077e-02 -7.731836289167404175e-02 4.186528176069259644e-02 3.351780399680137634e-02 -3.479078039526939392e-02 -3.119245357811450958e-02 7.332243956625461578e-03 9.060654556378722191e-04 3.239535493776202202e-03 -1.489436347037553787e-02 -3.492128849029541016e-02 -1.039753109216690063e-02
-1.285369507968425751e-02 1.847947947680950165e-02 -1.213890872895717621e-02 -4.630551207810640335e-03 8.644693531095981598e-03 4.920127615332603455e-02 2.322627045214176178e-02 3.609419614076614380e-02 -6.480855867266654968e-03 3.512420505285263062e-02 7.648639148101210594e-04 2.328951284289360046e-02 5.363944917917251587e-03 -2.790326811373233795e-02 2.236120216548442841e-02 2.148578502237796783e-02 -1.381806097924709320e-03 -3.840742260217666626e-02 -1.736167445778846741e-02 -2.979210019111633301e-02 -3.441554307937622070e-02 -5.445782095193862915e-02 3.769155964255332947e-02 9.856224060058593750e-03 -3.353346511721611023e-02 -3.375317901372909546e-02 2.506229653954505920e-02 2.028843155130743980e-04 -7.093281019479036331e-03 -3.371895104646682739e-02 -3.864758089184761047e-02 8.212233078666031361e-04
1.634969376027584076e-03 -3.510836511850357056e-03 -1.181174814701080322e-02 -7.134477607905864716e-03 -1.645470783114433289e-02 -6.819509435445070267e-04 -9.402659721672534943e-03 2.842830680310726166e-02 -1.365653425455093384e-02 2.873048186302185059e-02 -1.293721795082092285e-02 3.616137057542800903e-02 -1.151666324585676193e-02 1.117797917686402798e-03 7.701200898736715317e-03 -4.649327136576175690e-03 -1.850424148142337799e-02 -5.574333667755126953e-02 -4.807176813483238220e-02 -8.448927663266658783e-03 -2.770093083381652832e-02 -4.754194244742393494e-02 7.625177968293428421e-04 -1.053604390472173691e-02 -3.028949350118637085e-02 -2.151992358267307281e-02 1.262960489839315414e-02 -1.300006359815597534e-02 -1.642641611397266388e-02 -5.867741256952285767e-02 -3.106871619820594788e-02 1.175088342279195786e-02
1.845229603350162506e-02 4.311070591211318970e-02 -4.969764873385429382e-02 -3.328506648540496826e-02 5.346231162548065186e-02 -1.507300324738025665e-02 9.553148411214351654e-03 4.956516623497009277e-02 -5.861395597457885742e-02 -3.586334362626075745e-02 1.447882875800132751e-02 1.509290561079978943e-02 -2.728836378082633018e-03 2.638258738443255424e-03 1.784862577915191650e-02 -2.394153550267219543e-02 -8.981543593108654022e-03 -7.186340540647506714e-02 8.048437535762786865e-02 -5.411043390631675720e-02 4.696924239397048950e-02 6.767533719539642334e-02 2.338001877069473267e-02 -3.127814456820487976e-02 -5.019136238843202591e-03 -3.418395295739173889e-02 -2.179372590035200119e-03 -1.135047059506177902e-02 2.137173339724540710e-02 7.078874856233596802e-02 3.542114794254302979e-02 5.700570996850728989e-03
-3.325816011056303978e-03 3.733484819531440735e-02 -2.612200193107128143e-02 -2.686489187180995941e-02 5.781837180256843567e-02 2.777839452028274536e-02 2.001606673002243042e-02 8.494393527507781982e-02 -3.585512563586235046e-02 -3.851731121540069580e-02 1.394772808998823166e-02 -4.145429003983736038e-03 2.414946630597114563e-02 -1.285197446122765541e-03 3.765710443258285522e-02 1.391986617818474770e-03 9.296246804296970367e-03 -3.603826463222503662e-02 4.083487018942832947e-02 -3.191680833697319031e-02 2.477623336017131805e-02 1.589072984643280506e-03 2.162942662835121155e-02 -9.714755229651927948e-03 -1.381663139909505844e-02 -5.298032611608505249e-02 1.553845708258450031e-03 -8.564034476876258850e-03 1.913154684007167816e-02 2.010703273117542267e-02 3.104584291577339172e-02 -1.682998239994049072e-02
-1.783543266355991364e-02 3.378506749868392944e-02 -1.011861115694046021e-02 -2.216124441474676132e-03 6.574958562850952148e-02 7.533719390630722046e-02 2.720689959824085236e-02 1.055712550878524780e-01 -2.334609627723693848e-02 -3.583293035626411438e-02 -4.463721066713333130e-03 2.718874253332614899e-03 2.225227653980255127e-02 -2.042069658637046814e-02 4.628853872418403625e-02 3.049573674798011780e-02 8.572061546146869659e-03 -1.579160429537296295e-02 -6.311129545792937279e-04 -2.553705312311649323e-02 1.093711121939122677e-03 -3.643489629030227661e-02 2.353674359619617462e-02 8.051807992160320282e-03 -1.438391581177711487e-02 -4.901393502950668335e-02 3.120679641142487526e-03 -5.793321412056684494e-03 2.020305581390857697e-02 -8.961495943367481232e-03 2.569719403982162476e-02 -2.192320860922336578e-02
-1.134709222242236137e-03 3.022271022200584412e-02 -4.488563537597656250e-02 -3.057708381675183773e-04 4.031689465045928955e-02 6.694061309099197388e-02 4.104376211762428284e-02 7.730873674154281616e-02 -2.499649126548320055e-04 -2.301758714020252228e-02 8.519368246197700500e-03 -8.545655757188796997e-03 5.184521898627281189e-03 -2.619300410151481628e-02 2.645583078265190125e-02 1.355593651533126831e-02 -9.437848813831806183e-03 -1.597594469785690308e-02 -2.081540785729885101e-02 -1.606387272477149963e-02 -9.036649949848651886e-03 -9.830673225224018097e-03 1.789058931171894073e-02 -4.053411976201459765e-05 -1.654317975044250488e-02 -5.007652565836906433e-02 1.229546777904033661e-02 -9.380114264786243439e-03 3.903136122971773148e-03 -2.604190446436405182e-02 1.252013910561800003e-02 -3.126012906432151794e-02
1.037277933210134506e-02 1.110797282308340073e-02 -5.490464344620704651e-02 -3.823946230113506317e-03 2.166025340557098389e-02 1.399106811732053757e-02 1.764176785945892334e-02 6.657472997903823853e-02 -4.119726363569498062e-03 -2.435965463519096375e-02 -7.289218716323375702e-03 1.245293207466602325e-02 -2.201616205275058746e-02 -9.991971775889396667e-03 1.440662052482366562e-02 -1.481380406767129898e-02 -3.491429984569549561e-02 -4.459003359079360962e-02 -3.647714480757713318e-02 -9.014431270770728588e-04 -2.231710590422153473e-02 9.598293108865618706e-04 -1.422868389636278152e-02 -1.760999299585819244e-02 -1.498321350663900375e-02 -2.808177657425403595e-02 7.469038479030132294e-03 -1.240324415266513824e-02 -1.239361520856618881e-02 -5.746954306960105896e-02 7.068778853863477707e-03 -2.349858731031417847e-02
2.981903403997421265e-02 3.778285160660743713e-02 -5.586182232946157455e-03 -1.164964679628610611e-02 7.275736331939697266e-02 -3.475708514451980591e-02 -3.096667304635047913e-02 1.927684247493743896e-02 -5.059948563575744629e-02 -3.593255206942558289e-02 1.331491628661751747e-03 1.372577622532844543e-02 -2.135145105421543121e-02 2.479255944490432739e-02 1.872735284268856049e-02 -3.656061366200447083e-02 -2.138735540211200714e-02 -7.354972511529922485e-02 7.193471491336822510e-02 -4.343672469258308411e-02 6.579551845788955688e-02 7.122522592544555664e-02 3.490415634587407112e-03 -9.324979968369007111e-03 1.014226116240024567e-02 -2.939820662140846252e-02 -4.878298845142126083e-03 -1.165817375294864178e-03 1.639339886605739594e-02 2.620886452496051788e-02 6.467752158641815186e-02 8.671121671795845032e-03
1.311945356428623199e-02 2.509333565831184387e-02 2.576768957078456879e-02 2.976496936753392220e-03 5.562248453497886658e-02 2.364357700571417809e-03 -1.457415334880352020e-02 3.858426585793495178e-02 -4.097171872854232788e-02 -5.031618103384971619e-02 1.947939977981150150e-03 -1.458798628300428391e-02 5.524975713342428207e-03 4.141346737742424011e-02 3.415444120764732361e-02 -1.400535460561513901e-02 4.665841406676918268e-04 -2.421467378735542297e-02 2.204956300556659698e-02 -2.106310985982418060e-02 6.544709205627441406e-02 2.180174365639686584e-02 -1.140118390321731567e-02 -1.704946160316467285e-02 1.837784238159656525e-02 -2.976836077868938446e-02 -1.928700320422649384e-02 -1.221241429448127747e-02 1.857088878750801086e-02 -7.075204630382359028e-04 5.528592318296432495e-02 7.990202866494655609e-04
-1.115027163177728653e-02 2.522319741547107697e-02 4.192124679684638977e-02 2.302284538745880127e-02 3.953511640429496765e-02 3.422485291957855225e-02 -2.687202533707022667e-03 5.513848736882209778e-02 -2.364549972116947174e-02 -5.542408674955368042e-02 -1.166693773120641708e-02 -4.443043377250432968e-03 4.719941411167383194e-03 2.607211656868457794e-02 4.020708799362182617e-02 1.289487630128860474e-02 6.724508013576269150e-03 3.816579468548297882e-03 -1.693790778517723083e-02 -1.726961694657802582e-02 4.485761374235153198e-02 -6.477607879787683487e-03 -1.908610016107559204e-02 -1.403546147048473358e-02 1.680646836757659912e-02 -4.028994217514991760e-02 -2.531366609036922455e-02 -1.918627065606415272e-03 2.598226070404052734e-02 -3.177426056936383247e-03 4.562804475426673889e-02 -4.129659850150346756e-03
-1.210939139127731323e-02 2.870889939367771149e-02 3.959950059652328491e-03 6.927836686372756958e-03 7.577878423035144806e-03 3.397527709603309631e-02 2.029827982187271118e-02 3.566286712884902954e-02 -7.013896014541387558e-03 -4.443612322211265564e-02 -1.289730891585350037e-03 -1.077449414879083633e-02 -7.350429426878690720e-03 1.074796728789806366e-02 2.887696772813796997e-02 5.806422326713800430e-03 -7.639626041054725647e-03 5.681381560862064362e-03 -2.885292656719684601e-02 -1.619753241539001465e-02 2.867906168103218079e-02 1.477652974426746368e-02 -2.318697422742843628e-02 -2.008352987468242645e-02 6.534419488161802292e-03 -4.934501275420188904e-02 1.669190707616508007e-03 -2.079112920910120010e-03 1.001117564737796783e-02 -5.487281829118728638e-03 2.079221792519092560e-02 -2.464759163558483124e-02
-6.537016015499830246e-03 6.613868288695812225e-03 -1.682912558317184448e-02 -1.456393674015998840e-02 7.406911463476717472e-04 -1.429005153477191925e-02 1.176772918552160263e-02 3.594958409667015076e-02 6.700391881167888641e-03 -4.353406652808189392e-02 -1.716091483831405640e-02 6.292970851063728333e-03 -4.292203113436698914e-02 2.869590651243925095e-03 1.606328599154949188e-02 -1.305018365383148193e-02 -3.943474218249320984e-02 -2.915707416832447052e-02 -2.989945746958255768e-02 -1.041298825293779373e-02 -1.737042097374796867e-03 1.002289634197950363e-02 -4.318879544734954834e-02 -1.279465481638908386e-02 -5.183332599699497223e-03 -3.436889499425888062e-02 4.356128629297018051e-03 1.814109459519386292e-02 -1.288162823766469955e-02 -1.607742160558700562e-02 1.305451523512601852e-02 -2.880925498902797699e-02
2.631785161793231964e-02 3.804634138941764832e-02 7.345741149038076401e-03 -9.863640181720256805e-03 1.979201659560203552e-02 -6.962219625711441040e-02 -1.717370562255382538e-02 1.747929118573665619e-02 -3.574547171592712402e-02 -9.280649013817310333e-03 1.921373885124921799e-03 2.317320741713047028e-02 -1.236855704337358475e-02 1.035785395652055740e-02 -2.253134921193122864e-02 -8.792341686785221100e-03 -2.276857197284698486e-02 -6.492713838815689087e-02 6.392022967338562012e-02 -4.665164649486541748e-02 4.138378053903579712e-02 8.729627728462219238e-02 -1.839310489594936371e-02 -9.363428689539432526e-03 2.604066953063011169e-02 1.800072193145751953e-02 -6.137497723102569580e-03 -4.231221508234739304e-03 -4.666742868721485138e-03 -5.853403825312852859e-03 8.436958491802215576e-02 1.884676516056060791e-02
1.116369944065809250e-02 1.553336810320615768e-02 4.368169233202934265e-02 -2.847997238859534264e-04 -1.442044856958091259e-03 -4.093965515494346619e-02 -9.867227636277675629e-03 8.463350124657154083e-03 -4.279239475727081299e-02 -2.380404807627201080e-02 1.515349373221397400e-02 3.429392119869589806e-03 8.332495577633380890e-03 4.774606227874755859e-02 -1.468884013593196869e-02 5.455051083117723465e-03 -7.945413701236248016e-03 -8.015792816877365112e-03 1.496974844485521317e-02 -3.113810345530509949e-02 5.419673025608062744e-02 5.668269470334053040e-02 -4.871504008769989014e-02 -3.328404575586318970e-02 3.662111610174179077e-02 2.390546165406703949e-02 -3.121684677898883820e-02 -4.340834449976682663e-03 -1.510429941117763519e-02 -2.508761733770370483e-02 7.864688336849212646e-02 1.778407208621501923e-02
-1.720758341252803802e-02 9.091333486139774323e-03 6.349649280309677124e-02 1.760020107030868530e-02 -2.632758766412734985e-02 -1.254475302994251251e-02 5.293196998536586761e-03 1.581755839288234711e-02 -3.520992770791053772e-02 -2.357298135757446289e-02 9.065578691661357880e-03 7.910361513495445251e-03 3.088487312197685242e-03 4.450176656246185303e-02 -9.964659810066223145e-03 2.198516577482223511e-02 -5.756473168730735779e-03 1.335181389003992081e-02 -1.719249226152896881e-02 -2.168318443000316620e-02 4.526370018720626831e-02 4.412152618169784546e-02 -5.638903751969337463e-02 -3.683779761195182800e-02 3.551841154694557190e-02 3.819642355665564537e-03 -5.176547169685363770e-02 1.458148472011089325e-02 -1.142989005893468857e-02 -1.575781032443046570e-02 6.195291876792907715e-02 1.649036817252635956e-02
-2.040042541921138763e-02 -1.057498739100992680e-03 3.490470349788665771e-02 -8.012774400413036346e-03 -5.483571067452430725e-02 -7.210013456642627716e-03 2.430181391537189484e-02 1.647452823817729950e-02 -3.226042911410331726e-02 -2.321385964751243591e-02 1.857683435082435608e-02 -3.922503907233476639e-03 -7.663198281079530716e-03 3.410103172063827515e-02 -1.088467705994844437e-02 2.333762310445308685e-02 -1.895697601139545441e-02 1.588102616369724274e-02 -2.062823809683322906e-02 -1.085601095110177994e-02 4.011446610093116760e-02 5.328717827796936035e-02 -4.714205861091613770e-02 -3.966987878084182739e-02 2.546271122992038727e-02 -5.906100850552320480e-03 -2.136107906699180603e-02 1.788693293929100037e-02 -1.031022705137729645e-02 -8.952471427619457245e-03 3.410343825817108154e-02 -1.183010404929518700e-03
-1.827471517026424408e-02 -2.118078805506229401e-02 9.829414077103137970e-03 -3.848962858319282532e-02 -4.616908729076385498e-02 -3.374026343226432800e-02 2.378469891846179962e-02 2.881437912583351135e-02 -2.502759918570518494e-02 -2.732584625482559204e-02 -2.895223209634423256e-03 6.035107187926769257e-03 -3.867783024907112122e-02 2.492844872176647186e-02 -1.561299245804548264e-02 8.838103152811527252e-03 -4.434444010257720947e-02 -1.772175170481204987e-02 -1.168668176978826523e-02 -8.811707608401775360e-03 1.568749360740184784e-02 3.216043487191200256e-02 -5.718848109245300293e-02 -2.749629132449626923e-02 5.348779726773500443e-03 9.711863640404772013e-06 -9.246702305972576141e-03 4.877004027366638184e-02 -1.927559264004230499e-02 -1.233277097344398499e-02 1.705494895577430725e-02 -1.056273095309734344e-02
1.961175166070461273e-02 2.259177714586257935e-02 -2.263251692056655884e-02 5.960472859442234039e-03 -2.214258722960948944e-02 -1.609954982995986938e-02 -3.986769355833530426e-03 7.517467718571424484e-03 -2.004165202379226685e-02 -3.159883990883827209e-02 -4.798776470124721527e-03 2.557135559618473053e-02 2.143029123544692993e-02 -9.770679287612438202e-03 -3.284772485494613647e-02 2.481545088812708855e-03 8.939780294895172119e-03 4.413256794214248657e-02 1.988818868994712830e-02 -3.732243925333023071e-02 -3.570403158664703369e-02 8.187746256589889526e-02 2.437658794224262238e-02 3.282100707292556763e-02 -2.537599392235279083e-02 5.833428725600242615e-02 2.656937949359416962e-02 1.209919061511754990e-02 -2.509844861924648285e-02 -3.227753937244415283e-02 3.012820892035961151e-02 -2.298755198717117310e-02
1.557612046599388123e-02 1.110529247671365738e-02 -3.121735155582427979e-02 -1.381396222859621048e-02 -7.296093273907899857e-03 4.482999909669160843e-03 -1.983862556517124176e-02 -3.044172888621687889e-03 -3.150840988382697105e-03 -1.170000061392784119e-02 -4.893152508884668350e-03 3.572682291269302368e-02 1.649369671940803528e-02 7.455203216522932053e-03 -3.103656135499477386e-02 -6.003952585160732269e-03 1.537972502410411835e-02 1.988231204450130463e-02 8.272309787571430206e-03 -1.947928220033645630e-02 -6.155943498015403748e-02 3.228677436709403992e-02 7.953366264700889587e-03 4.927731677889823914e-02 -9.294994175434112549e-03 4.403714090585708618e-02 2.019488997757434845e-02 1.794946752488613129e-02 -3.394087404012680054e-02 -1.849139854311943054e-02 4.771252721548080444e-02 -1.917449943721294403e-02
-1.962598413228988647e-03 3.421982983127236366e-03 -3.507238999009132385e-02 -6.924327928572893143e-03 1.261971425265073776e-02 1.218020357191562653e-02 -2.371574565768241882e-02 -1.132392976433038712e-02 -7.917800918221473694e-03 6.113085895776748657e-03 -2.113336464390158653e-03 3.055671975016593933e-02 1.242029364220798016e-03 1.277619320899248123e-02 -2.657727710902690887e-02 -9.244307875633239746e-03 6.644953042268753052e-03 1.208984386175870895e-02 5.690034478902816772e-03 -2.316962368786334991e-02 -6.002220511436462402e-02 -1.595893502235412598e-02 -1.391646545380353928e-02 7.117167860269546509e-02 9.510071948170661926e-03 2.294695563614368439e-02 3.694847458973526955e-03 1.798355765640735626e-02 -2.367404475808143616e-02 5.769448471255600452e-04 6.809498369693756104e-02 -6.198320537805557251e-03
-7.005098275840282440e-03 -3.058692906051874161e-03 -3.597391024231910706e-02 -1.197055261582136154e-02 8.782487362623214722e-03 1.324848178774118423e-02 -2.365259081125259399e-02 -6.410605739802122116e-03 -6.265542935580015182e-03 9.978726506233215332e-03 -8.652284741401672363e-04 1.507788337767124176e-02 -4.757439251989126205e-03 -3.946762299165129662e-04 -3.620389848947525024e-02 -1.681527495384216309e-02 5.167722236365079880e-03 -5.584680940955877304e-03 -1.538399979472160339e-02 -2.240655571222305298e-02 -3.429832309484481812e-02 -2.192183211445808411e-02 -2.383298426866531372e-02 3.469508513808250427e-02 2.042409777641296387e-02 1.208204124122858047e-02 2.252273727208375931e-03 -1.091868896037340164e-02 -6.584682501852512360e-03 2.007079869508743286e-02 5.887694284319877625e-02 -9.507743641734123230e-03
-1.443969924002885818e-02 -1.268439181149005890e-02 -1.840886659920215607e-02 -3.325780108571052551e-02 -4.254309926182031631e-03 -8.144141174852848053e-03 -3.772099316120147705e-02 -1.470185723155736923e-02 5.138430860824882984e-04 1.097782142460346222e-02 -1.419892907142639160e-02 7.432637736201286316e-03 -9.654443711042404175e-03 -1.225208770483732224e-02 -3.292925283312797546e-02 -1.882666908204555511e-02 1.022702082991600037e-02 -1.303194183856248856e-02 -1.584052480757236481e-02 -3.134880959987640381e-02 6.222441326826810837e-03 -2.724606171250343323e-02 -4.067463427782058716e-02 -6.568985525518655777e-03 1.157038472592830658e-02 9.498651139438152313e-03 -3.678160952404141426e-03 -2.825436368584632874e-02 9.070073254406452179e-03 1.861585862934589386e-02 4.817743599414825439e-02 2.156694652512669563e-03
2.109201438724994659e-02 2.100760303437709808e-02 7.250112015753984451e-03 -4.272603895515203476e-03 -1.863237842917442322e-02 -2.432875102385878563e-03 4.421739373356103897e-03 1.827924512326717377e-02 -2.938667684793472290e-02 -4.359999299049377441e-02 -8.025863207876682281e-03 5.252529680728912354e-02 1.516974531114101410e-02 -9.728004224598407745e-03 -2.102015726268291473e-02 -2.114228531718254089e-02 1.131729502230882645e-02 5.930463597178459167e-02 1.938301511108875275e-02 3.781720297411084175e-03 -4.158239811658859253e-02 7.575213164091110229e-02 4.950323607772588730e-03 2.134514413774013519e-02 -2.155101858079433441e-02 3.321586921811103821e-02 3.739709034562110901e-02 3.090364113450050354e-02 -3.544795140624046326e-02 -5.370547622442245483e-02 5.744517315179109573e-03 -1.830941438674926758e-02
1.283915992826223373e-02 -4.795081447809934616e-03 -2.297630533576011658e-03 -1.841452531516551971e-02 -9.096317808143794537e-05 1.949785836040973663e-02 -8.905640803277492523e-03 1.053886953741312027e-02 -7.748469244688749313e-03 -3.109877929091453552e-02 -1.024362258613109589e-02 6.285474449396133423e-02 6.498477887362241745e-03 4.693426191806793213e-03 -2.329186536371707916e-02 -3.496581315994262695e-02 1.030851528048515320e-02 3.016154654324054718e-02 1.298123039305210114e-02 3.076606616377830505e-02 -5.258930847048759460e-02 4.105791077017784119e-02 -1.981645124033093452e-03 3.391071781516075134e-02 -2.777147572487592697e-03 1.683943718671798706e-02 2.692121453583240509e-02 3.587644174695014954e-02 -3.700428083539009094e-02 -2.187917381525039673e-02 2.181846648454666138e-02 -2.289060875773429871e-02
-3.897575370501726866e-04 -3.978283144533634186e-03 -1.288422569632530212e-02 -2.509241364896297455e-02 6.172116380184888840e-03 2.998613938689231873e-02 -4.795531276613473892e-03 -2.232107653981074691e-04 -4.782998468726873398e-03 -1.254299934953451157e-02 -5.905081517994403839e-03 5.776520818471908569e-02 -1.072322018444538116e-02 5.486243404448032379e-03 -2.784782461822032928e-02 -3.157180920243263245e-02 2.542252652347087860e-03 1.226071454584598541e-02 -2.823463408276438713e-03 3.155910596251487732e-02 -5.228317156434059143e-02 -5.186143331229686737e-03 -1.552193891257047653e-02 4.500960186123847961e-02 1.328105013817548752e-02 -1.064755674451589584e-02 -1.249979599379003048e-03 3.273934870958328247e-02 -1.184459589421749115e-02 1.319479756057262421e-02 4.306377097964286804e-02 -2.554354816675186157e-02
2.502449497114866972e-04 -1.224752143025398254e-02 -1.169967930763959885e-02 -2.868214063346385956e-02 -5.835446994751691818e-03 2.722326852381229401e-02 -1.984335103770717978e-04 7.399272173643112183e-03 -7.770916912704706192e-03 1.242953352630138397e-02 -7.245471701025962830e-03 2.628665789961814880e-02 -1.606637425720691681e-02 -6.801188457757234573e-03 -3.633221238851547241e-02 -2.602031081914901733e-02 1.087889075279235840e-02 -5.918394308537244797e-03 -2.792515233159065247e-02 2.701385505497455597e-02 -4.037161171436309814e-02 -1.991016790270805359e-02 -1.648442447185516357e-02 1.432379428297281265e-02 2.745049819350242615e-02 -2.517691627144813538e-02 -7.444882299751043320e-03 4.468764644116163254e-03 6.977435201406478882e-03 4.409873858094215393e-02 4.094213619828224182e-02 -1.817680522799491882e-02
-4.729848355054855347e-03 -1.083197351545095444e-02 5.217878613620996475e-03 -3.494040295481681824e-02 -1.333580911159515381e-02 1.919831847772002220e-03 -9.341096738353371620e-04 -6.940155872143805027e-04 -1.133244601078331470e-03 2.017182484269142151e-02 -2.238822355866432190e-02 2.951726084575057030e-03 -2.300238981842994690e-02 -9.763427078723907471e-03 -4.366457462310791016e-02 -1.912459917366504669e-02 1.685946062207221985e-02 -1.640102639794349670e-02 -3.935415297746658325e-02 2.979427576065063477e-03 -7.862607017159461975e-03 -3.822867572307586670e-02 -3.887268528342247009e-02 -1.942675560712814331e-02 2.054524794220924377e-02 -1.521382108330726624e-02 -1.628633029758930206e-02 -1.777675747871398926e-02 2.598395012319087982e-02 4.898922517895698547e-02 3.758451342582702637e-02 1.832548761740326881e-03
1.891562342643737793e-02 1.897573284804821014e-02 2.814383432269096375e-02 -4.439608193933963776e-03 5.098430905491113663e-03 2.753228507936000824e-02 5.795753095299005508e-03 1.908733323216438293e-02 -1.535125635564327240e-02 -3.686998412013053894e-02 4.834226798266172409e-03 3.209733963012695312e-02 5.590510088950395584e-03 -1.411140430718660355e-02 -1.765633746981620789e-02 -2.539429813623428345e-02 8.171913214027881622e-03 6.983593106269836426e-02 4.100223258137702942e-02 4.099489375948905945e-02 -3.366062045097351074e-02 7.558071613311767578e-02 -3.033096157014369965e-02 -1.602767035365104675e-03 -3.051009401679039001e-02 1.671835407614707947e-02 4.447603598237037659e-02 4.565830901265144348e-02 -1.266562845557928085e-02 -4.362356662750244141e-02 -1.369252894073724747e-02 4.177334718406200409e-03
1.826323568820953369e-02 -1.099152956157922745e-02 2.152534388005733490e-02 -1.439645979553461075e-02 2.110797166824340820e-02 4.229881614446640015e-02 -4.035866819322109222e-03 1.708739809691905975e-02 -1.336908782832324505e-03 -3.566953167319297791e-02 4.314458463340997696e-03 4.949159547686576843e-02 -1.375939114950597286e-03 1.463708485971437767e-05 -2.180260233581066132e-02 -2.411579899489879608e-02 3.757239086553454399e-03 2.829368598759174347e-02 3.880015760660171509e-02 6.526064127683639526e-02 -3.683289885520935059e-02 3.722180426120758057e-02 -2.651840634644031525e-02 1.834535226225852966e-02 -1.681556180119514465e-02 1.429209299385547638e-02 4.010058194398880005e-02 5.568084865808486938e-02 -8.682253770530223846e-03 -2.309113740921020508e-02 -8.323478512465953827e-03 -9.679826907813549042e-04
1.034587528556585312e-02 -9.459983557462692261e-03 1.381162460893392563e-02 -1.699037104845046997e-02 2.318475954234600067e-02 5.524320155382156372e-02 3.760597435757517815e-03 1.200159918516874313e-02 -8.212470449507236481e-03 -2.159511111676692963e-02 6.612717173993587494e-03 4.242736473679542542e-02 -1.187337934970855713e-02 2.725542755797505379e-03 -1.760325953364372253e-02 -9.441668167710304260e-03 -2.984262537211179733e-03 9.639993309974670410e-03 4.486514255404472351e-03 8.084426075220108032e-02 -3.577636182308197021e-02 -1.418792642652988434e-02 -2.868994325399398804e-02 2.139158919453620911e-02 -7.815749384462833405e-03 -4.807509947568178177e-03 1.250400766730308533e-02 4.936925321817398071e-02 1.174531690776348114e-02 5.790330469608306885e-03 7.465733680874109268e-03 -9.348257444798946381e-03
1.037078071385622025e-02 -1.847174577414989471e-02 1.009028684347867966e-02 -8.636672049760818481e-03 4.338727798312902451e-03 5.836603417992591858e-02 1.060229446738958359e-02 1.987287029623985291e-02 -1.253619603812694550e-02 4.261905327439308167e-03 -1.649830723181366920e-03 1.628728024661540985e-02 -1.068724598735570908e-02 -1.877481117844581604e-03 -1.803969033062458038e-02 5.954953376203775406e-03 6.679676007479429245e-03 -8.347952738404273987e-03 -2.515281178057193756e-02 6.692797690629959106e-02 -3.239784017205238342e-02 -3.201312199234962463e-02 -1.012672670185565948e-02 -3.457942279055714607e-03 3.033975663129240274e-04 -1.921341568231582642e-02 1.133911591023206711e-02 7.107804529368877411e-03 1.980846747756004333e-02 3.541127964854240417e-02 4.706658888608217239e-03 2.110403962433338165e-03
3.806130029261112213e-03 -1.118649914860725403e-02 2.728685736656188965e-02 -1.705524884164333344e-02 -9.532851981930434704e-04 3.059687651693820953e-02 1.174958795309066772e-02 7.071873173117637634e-03 -1.073953323066234589e-02 1.917127333581447601e-02 -1.366615574806928635e-02 -2.018962055444717407e-03 -1.565244793891906738e-02 4.326497670263051987e-03 -2.697212062776088715e-02 2.515263855457305908e-02 1.938862726092338562e-02 -1.668269373476505280e-02 -4.209958016872406006e-02 2.656884118914604187e-02 -9.604582563042640686e-03 -4.812123626470565796e-02 -2.330916188657283783e-02 -2.148073352873325348e-02 -1.275227637961506844e-03 -1.058581657707691193e-02 -1.296980027109384537e-02 -1.598417386412620544e-02 2.516786381602287292e-02 4.116106405854225159e-02 5.880815442651510239e-03 2.566377446055412292e-02
5.072266794741153717e-03 2.405770681798458099e-02 1.425169990397989750e-03 -1.231243461370468140e-02 8.866832591593265533e-03 3.777852281928062439e-02 -7.899957709014415741e-03 1.667550182901322842e-03 -5.958937574177980423e-03 -1.975876279175281525e-02 2.310650236904621124e-02 -9.953733533620834351e-03 2.011869102716445923e-03 -3.310846164822578430e-02 1.203214656561613083e-02 -4.429725185036659241e-02 3.098092740401625633e-03 5.880881473422050476e-02 4.775830358266830444e-02 2.949712797999382019e-02 2.124131657183170319e-03 6.780397891998291016e-02 -3.491275012493133545e-02 -2.194289118051528931e-02 -9.817943908274173737e-03 2.206974430009722710e-03 4.626831412315368652e-02 9.348565712571144104e-03 4.730776418000459671e-03 -2.022114209830760956e-02 -2.514147013425827026e-02 2.486758492887020111e-02
1.879723370075225830e-02 2.086778171360492706e-03 1.369053497910499573e-02 -2.268386073410511017e-02 1.387130469083786011e-02 4.925255849957466125e-02 -1.052699424326419830e-02 9.321153163909912109e-03 5.911753047257661819e-03 -2.289667353034019470e-02 1.048864889889955521e-02 8.428902365267276764e-03 1.742612104862928391e-03 -3.041566722095012665e-02 1.549634896218776703e-02 -2.762883901596069336e-02 -2.434104972053319216e-04 2.111591398715972900e-02 5.416755378246307373e-02 6.062357127666473389e-02 -6.469443440437316895e-03 2.761452831327915192e-02 -2.251674607396125793e-02 -1.220534788444638252e-03 -6.786346901208162308e-03 4.309510346502065659e-03 4.163303971290588379e-02 1.837314851582050323e-02 8.271568454802036285e-03 -1.618177630007266998e-02 -2.737723663449287415e-02 2.083596959710121155e-02
2.160098776221275330e-02 4.964185878634452820e-03 1.427867915481328964e-02 -2.649036236107349396e-02 1.155707426369190216e-02 5.585521087050437927e-02 1.009729877114295959e-02 1.203887443989515305e-02 7.351515814661979675e-03 -1.127143669873476028e-02 1.043381076306104660e-02 9.672361426055431366e-03 3.881753887981176376e-03 -1.555673498660326004e-02 1.164457760751247406e-02 -1.545361243188381195e-03 -1.457355171442031860e-02 1.712497696280479431e-02 1.183558348566293716e-02 8.793655782938003540e-02 -8.259459398686885834e-03 -1.146015711128711700e-02 -1.295358315110206604e-02 -9.999971836805343628e-03 -6.149808876216411591e-03 -8.542232681065797806e-04 1.015919540077447891e-02 1.909637823700904846e-02 3.188943862915039062e-02 -4.978028591722249985e-03 -1.803980208933353424e-02 6.392926443368196487e-03
2.693038992583751678e-02 -3.704017493873834610e-03 6.018045824021100998e-03 -1.932816021144390106e-02 -7.063081488013267517e-03 5.285875499248504639e-02 4.400821402668952942e-03 1.738383248448371887e-02 1.253154012374579906e-03 1.466377172619104385e-02 4.032255616039037704e-03 -6.937193684279918671e-03 1.538809295743703842e-02 -8.611612021923065186e-03 4.209827631711959839e-03 1.881453394889831543e-02 -7.797481957823038101e-03 1.006550993770360947e-02 -2.234951406717300415e-02 7.294034212827682495e-02 -1.117561291903257370e-02 -2.775062806904315948e-02 1.137041579931974411e-02 -2.851093374192714691e-02 -2.824924653396010399e-03 -1.832808181643486023e-02 1.500555314123630524e-02 -1.262961607426404953e-02 2.848975919187068939e-02 1.711660996079444885e-02 -2.573909237980842590e-02 1.705415733158588409e-02
1.257419865578413010e-02 -1.747027854435145855e-03 2.168089523911476135e-02 -3.446217253804206848e-02 -7.168721873313188553e-03 2.754343487322330475e-02 6.215196568518877029e-03 -3.681401431094855070e-04 -3.910896368324756622e-03 3.211070597171783447e-02 9.328309097327291965e-04 -8.912391029298305511e-03 2.034110948443412781e-02 6.600324064493179321e-03 -1.371907815337181091e-02 3.879246488213539124e-02 1.523217768408358097e-03 -3.351885970914736390e-05 -4.596204310655593872e-02 3.887184709310531616e-02 9.681115858256816864e-03 -4.442208632826805115e-02 -4.038924816995859146e-03 -4.037616029381752014e-02 5.027027800679206848e-04 -1.093564368784427643e-02 -8.511584252119064331e-03 -1.911863125860691071e-02 1.833049021661281586e-02 1.067412458360195160e-02 -1.689569279551506042e-02 4.041742160916328430e-02
-7.653685286641120911e-03 2.924151718616485596e-02 -2.534188516438007355e-02 -2.609719708561897278e-02 -6.251552142202854156e-03 2.276192978024482727e-02 -1.052961032837629318e-02 -5.689354613423347473e-03 -1.530367415398359299e-02 -8.408877998590469360e-03 2.588281780481338501e-02 -3.572253510355949402e-02 1.733862608671188354e-02 -4.315201565623283386e-02 1.425593718886375427e-02 -4.228118807077407837e-02 5.886159371584653854e-03 1.563453301787376404e-02 3.887840360403060913e-02 1.195625402033329010e-03 2.283504977822303772e-02 5.048814415931701660e-02 -2.926188334822654724e-02 -2.729206904768943787e-02 1.259087491780519485e-02 -1.097491476684808731e-02 2.667400240898132324e-02 -2.299908548593521118e-02 -1.911089872010052204e-03 1.083959639072418213e-02 -2.188156731426715851e-02 2.803432382643222809e-02
1.221987418830394745e-02 1.301135774701833725e-02 -7.472192868590354919e-03 -3.158899769186973572e-02 -7.298703305423259735e-03 1.410600543022155762e-02 -4.386192653328180313e-03 1.237695477902889252e-02 2.131616929545998573e-03 -8.673951961100101471e-03 4.558401182293891907e-03 -2.926587499678134918e-02 1.802342198789119720e-02 -4.846422374248504639e-02 1.968876086175441742e-02 -1.873035542666912079e-02 2.961234655231237411e-03 -1.744540221989154816e-02 4.571211338043212891e-02 2.759692631661891937e-02 1.037857402116060257e-02 2.071400359272956848e-02 -1.781746745109558105e-02 -1.460074353963136673e-02 -2.205853350460529327e-03 -9.190870448946952820e-03 2.959352359175682068e-02 -1.691964082419872284e-02 -8.889572345651686192e-04 4.220890812575817108e-03 -2.822325006127357483e-02 1.848236285150051117e-02
2.236749045550823212e-02 1.936279609799385071e-02 -3.865754697471857071e-03 -3.251981735229492188e-02 -6.968384695937857032e-06 1.643878966569900513e-02 1.654128357768058777e-02 2.193072065711021423e-02 1.199045777320861816e-02 -4.202365409582853317e-03 4.816361237317323685e-03 -2.811317704617977142e-02 1.904022693634033203e-02 -3.394325450062751770e-02 1.210141181945800781e-02 1.054233126342296600e-02 -5.128757562488317490e-03 -6.453187204897403717e-03 7.058749906718730927e-03 5.494328588247299194e-02 4.891031887382268906e-03 -2.750789513811469078e-03 -4.178783390671014786e-03 -3.340971469879150391e-02 -5.997512023895978928e-03 -1.429533236660063267e-03 -1.603431417606770992e-03 -5.978723056614398956e-03 1.796289719641208649e-02 -1.507681445218622684e-03 -2.375530265271663666e-02 1.035443414002656937e-02
2.836329862475395203e-02 5.359543953090906143e-03 -4.141187295317649841e-03 -2.265932597219944000e-02 -1.311664469540119171e-02 1.732697337865829468e-02 1.008577272295951843e-02 1.836698502302169800e-02 1.218441128730773926e-02 9.481796994805335999e-03 8.329311967827379704e-04 -2.919901162385940552e-02 3.264718130230903625e-02 -2.349866181612014771e-02 2.507272409275174141e-03 2.640339359641075134e-02 -1.916141714900732040e-03 -4.775852430611848831e-03 -1.969623193144798279e-02 4.849965497851371765e-02 4.178960807621479034e-03 -2.600997686386108398e-02 8.759186603128910065e-03 -4.872854799032211304e-02 -1.805883599445223808e-03 -1.514790020883083344e-02 1.967325806617736816e-03 -1.454934943467378616e-02 5.039796233177185059e-03 9.150289930403232574e-03 -2.661980874836444855e-02 1.972725056111812592e-02
6.450833752751350403e-03 -9.566986118443310261e-04 9.136056527495384216e-03 -3.568536043167114258e-02 -1.338087115436792374e-02 -4.261661786586046219e-03 1.726165413856506348e-02 -1.246185507625341415e-02 1.816955511458218098e-03 2.941863611340522766e-02 -9.039632859639823437e-04 -1.286248676478862762e-02 4.324914142489433289e-02 8.613737009000033140e-05 -1.013359427452087402e-02 3.904175758361816406e-02 -2.215032931417226791e-03 -8.715922944247722626e-03 -4.155576601624488831e-02 3.285624459385871887e-02 1.922425068914890289e-02 -4.532695561647415161e-02 -8.244454860687255859e-03 -5.963993817567825317e-02 4.712919238954782486e-03 -1.577822677791118622e-02 -1.214783731848001480e-02 -9.737579151988029480e-03 -1.346020027995109558e-02 -2.806383417919278145e-03 -1.783111691474914551e-02 4.760443791747093201e-02
-1.692042313516139984e-02 1.173904980532824993e-03 2.140574855729937553e-03 8.782764524221420288e-02 -7.008523494005203247e-02 -5.944027379155158997e-02 4.816689714789390564e-02 2.326353266835212708e-02 1.355532743036746979e-02 -1.994772255420684814e-02 -3.187792375683784485e-02 -7.011750340461730957e-02 -6.565752625465393066e-02 -1.970612257719039917e-02 5.489724501967430115e-02 -1.171685010194778442e-02 -5.139548331499099731e-02 4.402767121791839600e-02 2.551867254078388214e-02 4.879613406956195831e-03 6.971941143274307251e-02 1.694903522729873657e-02 3.435379639267921448e-02 -3.677859157323837280e-02 -6.136800628155469894e-03 -4.900127276778221130e-02 1.241827756166458130e-02 -2.580273337662220001e-02 1.073013842105865479e-01 -1.640379428863525391e-01 -4.204938188195228577e-02 -9.801478683948516846e-02
1.092325663194060326e-03 -3.387086838483810425e-02 -2.994592860341072083e-02 7.949243485927581787e-02 -7.144843786954879761e-02 -3.643278777599334717e-02 1.062971875071525574e-01 -1.952365599572658539e-02 3.061917424201965332e-02 -3.102401457726955414e-02 -4.387092962861061096e-02 -1.380840316414833069e-02 -7.436169683933258057e-02 -9.772161394357681274e-02 4.279686883091926575e-02 3.843437135219573975e-02 9.167375974357128143e-03 5.967983603477478027e-02 3.661524504423141479e-02 2.049624221399426460e-03 3.714137151837348938e-02 7.432656735181808472e-02 -2.094547962769865990e-04 -9.457913110964000225e-04 5.150735378265380859e-02 -3.644738718867301941e-02 9.201525896787643433e-02 -6.821031123399734497e-02 6.825768947601318359e-02 -1.476003974676132202e-01 -2.007024735212326050e-02 -2.204079739749431610e-02
2.432213723659515381e-02 5.753035470843315125e-02 -1.831199973821640015e-02 3.596199676394462585e-02 -3.824478015303611755e-02 -2.374994941055774689e-02 6.752935051918029785e-02 -3.707678243517875671e-02 4.048542305827140808e-02 3.792088106274604797e-02 -1.161149740219116211e-01 1.383560802787542343e-02 -1.015558168292045593e-01 -1.631331630051136017e-02 2.937527839094400406e-03 7.219540327787399292e-02 -6.372526288032531738e-03 5.250981822609901428e-02 5.605762824416160583e-03 -2.507773227989673615e-02 -4.500114824622869492e-03 -4.080397484358400106e-04 -4.712581261992454529e-02 2.686888538300991058e-02 1.192401573061943054e-01 2.179294126108288765e-03 1.076392754912376404e-01 -4.630485177040100098e-02 -2.495392225682735443e-02 -1.599984019994735718e-01 -2.243068767711520195e-03 -3.183254227042198181e-02
4.738875199109315872e-03 8.626810461282730103e-02 -3.499662503600120544e-02 -9.148750454187393188e-03 -2.570741251111030579e-02 1.086124032735824585e-02 1.222259085625410080e-02 -5.605522543191909790e-02 3.896952420473098755e-02 2.777745015919208527e-02 -8.398079872131347656e-02 -7.570531219244003296e-03 3.314223606139421463e-03 4.182073846459388733e-02 -1.077599450945854187e-02 5.191839113831520081e-02 -1.103676855564117432e-03 -2.664556168019771576e-02 -4.104105755686759949e-02 6.460068281739950180e-03 1.082279440015554428e-02 -3.944864496588706970e-03 -9.072687476873397827e-02 4.605015739798545837e-02 1.698598116636276245e-01 -5.044426769018173218e-03 9.178876131772994995e-02 -5.389058217406272888e-02 -6.135268136858940125e-02 -1.044784262776374817e-01 2.788785472512245178e-02 -6.076217070221900940e-02
-4.955495893955230713e-02 1.686174236238002777e-02 3.458854183554649353e-02 -5.352334119379520416e-03 -9.864206425845623016e-03 3.751511219888925552e-03 -2.222537808120250702e-02 -4.109469056129455566e-02 2.934762090444564819e-02 8.192141540348529816e-03 -5.224043503403663635e-02 -5.178309045732021332e-03 4.188233241438865662e-02 8.909992873668670654e-02 -4.854317381978034973e-02 1.271056383848190308e-02 -1.013913750648498535e-02 -8.782462775707244873e-02 2.100986894220113754e-03 1.475954707711935043e-02 2.224272489547729492e-02 2.337394468486309052e-02 -5.686631426215171814e-02 5.059537664055824280e-02 1.039610728621482849e-01 -6.162102147936820984e-02 7.020731270313262939e-02 -5.226265639066696167e-02 -1.026170421391725540e-02 -1.338363885879516602e-01 1.703539676964282990e-02 -8.229571580886840820e-02
1.646988466382026672e-02 4.828434810042381287e-02 1.229602564126253128e-02 5.417326837778091431e-02 -7.014583796262741089e-02 -2.127397060394287109e-02 2.042420022189617157e-02 7.061509042978286743e-02 1.183911599218845367e-02 -4.043647646903991699e-02 -1.399673614650964737e-02 -2.874142490327358246e-02 -7.770121842622756958e-02 -4.634486511349678040e-02 2.560896985232830048e-02 -2.618131460621953011e-03 -5.020742863416671753e-02 1.917298696935176849e-02 6.424961239099502563e-02 2.553821727633476257e-02 1.151905395090579987e-02 -3.213385120034217834e-02 8.514846675097942352e-03 -5.128469690680503845e-02 5.958016030490398407e-03 -1.049793288111686707e-01 -4.041042178869247437e-02 -2.561295777559280396e-02 6.690870970487594604e-02 -1.811191588640213013e-01 -2.593620494008064270e-02 -5.202105268836021423e-02
3.006772883236408234e-02 -1.316402573138475418e-02 -2.378917858004570007e-02 6.708470731973648071e-02 -7.257844507694244385e-02 1.792992698028683662e-03 5.692857876420021057e-02 1.078140269964933395e-02 9.024523943662643433e-02 -7.889342308044433594e-02 5.727422889322042465e-03 1.836892217397689819e-02 -1.087438613176345825e-01 -1.277681142091751099e-01 -1.229878515005111694e-02 8.169034123420715332e-02 -1.536718476563692093e-02 1.131622213870286942e-02 3.043796308338642120e-02 1.851376332342624664e-02 3.197771264240145683e-03 9.963551536202430725e-03 -4.409529641270637512e-02 -3.423251211643218994e-02 6.445401161909103394e-02 -6.595283746719360352e-02 6.712508946657180786e-02 -3.135133907198905945e-02 4.841648414731025696e-02 -1.346463412046432495e-01 -2.546313218772411346e-02 3.306360915303230286e-02
1.413690950721502304e-02 5.103360116481781006e-02 -2.314969152212142944e-02 9.842708706855773926e-03 -4.057260975241661072e-02 -1.380578964017331600e-03 4.171724617481231689e-02 7.434653118252754211e-03 1.233577728271484375e-01 -1.781410165131092072e-02 -4.448869824409484863e-02 4.653286561369895935e-02 -1.381789296865463257e-01 -8.067084103822708130e-02 -6.284849345684051514e-02 9.059069305658340454e-02 -1.272201444953680038e-02 3.145860508084297180e-02 -2.429376542568206787e-02 2.237065136432647705e-02 -4.145772010087966919e-02 -3.512987121939659119e-02 -7.483649253845214844e-02 -1.446251571178436279e-02 8.648727834224700928e-02 -5.022601783275604248e-02 9.911373257637023926e-02 -1.340404059737920761e-02 2.789767272770404816e-02 -1.539232879877090454e-01 7.184827234596014023e-03 1.030502188950777054e-02
-8.535997942090034485e-03 7.851307839155197144e-02 -2.667194791138172150e-02 -2.992665208876132965e-02 -4.009577631950378418e-02 2.988783828914165497e-02 -2.475915709510445595e-03 -2.312421239912509918e-02 7.312855869531631470e-02 2.085047215223312378e-02 -1.045372482622042298e-04 2.861409261822700500e-02 -8.782296441495418549e-03 -1.515184622257947922e-02 -6.381621211767196655e-02 7.323201745748519897e-02 -1.516998093575239182e-02 -2.893634326756000519e-02 -9.237988293170928955e-02 9.208372235298156738e-02 -4.572473093867301941e-02 -3.013813123106956482e-02 -4.833728075027465820e-02 8.711867965757846832e-03 1.063993647694587708e-01 1.745596877299249172e-03 7.588193565607070923e-02 -3.043637424707412720e-02 -1.219578832387924194e-02 -1.242217049002647400e-01 2.266718819737434387e-02 -9.886850602924823761e-03
-2.574879676103591919e-02 7.436946034431457520e-02 4.383052513003349304e-02 -2.157021500170230865e-02 3.126749070361256599e-04 1.257061841897666454e-03 -2.612219192087650299e-02 -1.096200197935104370e-02 1.328003685921430588e-02 1.954860053956508636e-02 -5.144071765244007111e-03 2.748169749975204468e-02 3.661717101931571960e-02 5.194628611207008362e-02 -5.599880218505859375e-02 3.877064585685729980e-02 -1.718168891966342926e-02 -7.441988587379455566e-02 -4.748051613569259644e-02 7.851243019104003906e-02 -2.095259726047515869e-02 1.208093296736478806e-02 2.371627837419509888e-02 2.994214184582233429e-02 6.024187058210372925e-02 -1.365059427917003632e-02 1.276850327849388123e-02 -4.834006726741790771e-02 1.534198597073554993e-02 -1.917004585266113281e-01 3.030011896044015884e-03 -2.903742715716362000e-02
8.448291569948196411e-02 1.132810022681951523e-02 3.603833261877298355e-03 8.518168330192565918e-02 -8.528837934136390686e-04 1.208566594868898392e-02 3.060590848326683044e-02 8.658161014318466187e-02 -7.385137025266885757e-03 -5.533923953771591187e-02 1.347227301448583603e-02 -5.264703556895256042e-02 -7.215408980846405029e-02 -1.685473602265119553e-03 -1.207342091947793961e-02 -1.316135190427303314e-02 -4.761660471558570862e-02 5.102574452757835388e-02 5.585619807243347168e-02 1.245702710002660751e-02 2.541755884885787964e-02 -4.745232313871383667e-02 1.995147392153739929e-02 -5.973092466592788696e-02 4.891994874924421310e-03 -1.050887405872344971e-01 -5.934596061706542969e-02 -1.477788109332323074e-02 3.721123561263084412e-02 -1.257206499576568604e-01 -2.147829160094261169e-02 -1.446703728288412094e-02
7.955010980367660522e-02 -7.559371739625930786e-02 -3.643792122602462769e-02 6.197180971503257751e-02 -1.906222850084304810e-02 1.786325126886367798e-02 1.557764969766139984e-02 5.663518980145454407e-02 1.124316826462745667e-01 -1.054588779807090759e-01 5.519189313054084778e-02 -7.374769076704978943e-03 -1.388141959905624390e-01 -1.092016696929931641e-01 -4.353161528706550598e-02 5.642938613891601562e-02 -4.183514788746833801e-02 4.116420168429613113e-03 3.718197718262672424e-02 -3.528521955013275146e-02 -5.130015313625335693e-03 -2.411635406315326691e-02 -4.802968725562095642e-02 -1.524509396404027939e-03 1.547465100884437561e-02 -1.024864986538887024e-01 4.627284407615661621e-02 -9.352031163871288300e-03 4.983674362301826477e-02 -5.325602367520332336e-02 -3.058504685759544373e-02 6.539559364318847656e-02
2.742966078221797943e-02 -6.666906923055648804e-02 -2.953949198126792908e-02 6.715264637023210526e-03 9.720198810100555420e-03 2.905706875026226044e-02 1.890198327600955963e-02 6.806654483079910278e-02 1.600278168916702271e-01 -4.937293380498886108e-02 2.450377307832241058e-02 3.769446536898612976e-02 -1.728867888450622559e-01 -1.173721849918365479e-01 -1.076373308897018433e-01 3.764354065060615540e-02 -2.148550190031528473e-02 2.066166326403617859e-02 -2.282913401722908020e-02 1.901268959045410156e-02 -4.171690344810485840e-02 -4.307307675480842590e-02 -6.320930272340774536e-02 -1.580288074910640717e-02 -2.491614408791065216e-02 -7.839443534612655640e-02 6.333108246326446533e-02 6.654242984950542450e-03 7.642707228660583496e-02 -8.815053105354309082e-02 5.671164486557245255e-03 1.450582873076200485e-02
-2.463828027248382568e-02 -3.403604030609130859e-02 -3.659780696034431458e-02 -2.269007638096809387e-02 -1.051486190408468246e-02 7.825064659118652344e-02 -1.642285101115703583e-02 4.207612574100494385e-02 9.122806042432785034e-02 1.180529408156871796e-02 3.558109328150749207e-02 2.372626215219497681e-02 -5.766874551773071289e-02 -8.060430735349655151e-02 -6.243790313601493835e-02 5.731195211410522461e-02 -7.480559404939413071e-03 -2.510958351194858551e-02 -1.024729833006858826e-01 9.146207571029663086e-02 -5.717910453677177429e-02 -1.077227853238582611e-02 2.903010882437229156e-02 8.001841604709625244e-03 -2.608027867972850800e-02 -1.863684132695198059e-02 4.004429653286933899e-02 -3.003226965665817261e-02 1.779849454760551453e-02 -7.895522564649581909e-02 2.443338744342327118e-02 1.177669409662485123e-02
-1.037632022053003311e-02 3.105744346976280212e-02 4.638464376330375671e-02 -1.109588053077459335e-02 1.979857310652732849e-02 1.168339699506759644e-02 -2.472449652850627899e-02 2.120165713131427765e-02 -1.045051310211420059e-02 2.871178276836872101e-02 7.884366437792778015e-03 2.903280407190322876e-02 2.006729692220687866e-02 -1.327063702046871185e-02 -1.139054261147975922e-02 5.036352947354316711e-02 5.585159640759229660e-03 -7.855681329965591431e-02 -6.311189383268356323e-02 8.149315416812896729e-02 -3.202544525265693665e-02 2.895422838628292084e-02 1.050228551030158997e-01 2.653248608112335205e-03 -3.350068256258964539e-02 4.232953861355781555e-02 -8.512786589562892914e-03 -3.626691550016403198e-02 9.148787707090377808e-03 -1.705540120601654053e-01 8.558789268136024475e-03 9.154235012829303741e-03
6.042319163680076599e-02 -5.419187620282173157e-02 1.569033972918987274e-02 3.564028069376945496e-02 2.341102575883269310e-03 3.250546054914593697e-03 1.961566507816314697e-02 3.178299590945243835e-02 -5.748630687594413757e-02 -4.774895682930946350e-02 3.567512333393096924e-02 -2.463920600712299347e-02 -5.731363594532012939e-02 8.406955003738403320e-02 -2.717387862503528595e-02 -1.314978301525115967e-02 -3.856257721781730652e-02 8.574285358190536499e-02 2.341405674815177917e-02 -3.910999372601509094e-02 7.367563247680664062e-02 6.812592037022113800e-03 -1.127260271459817886e-02 -7.989841513335704803e-03 2.908016927540302277e-02 -5.653302744030952454e-02 -5.454788357019424438e-02 -1.071198657155036926e-02 -2.045028842985630035e-02 -7.313735038042068481e-02 -3.626053687185049057e-03 3.870594128966331482e-02
7.353513687849044800e-02 -1.744622439146041870e-01 1.851226948201656342e-02 -5.168725270777940750e-03 -7.059288676828145981e-03 2.107574604451656342e-02 -6.742374505847692490e-03 4.356875643134117126e-02 3.406538069248199463e-02 -1.109121069312095642e-01 7.797721773386001587e-02 3.252113703638315201e-03 -1.132491827011108398e-01 -2.091127261519432068e-02 -3.715541213750839233e-02 3.667347505688667297e-02 -2.563477680087089539e-02 1.850124634802341461e-02 6.875427067279815674e-02 -7.408827543258666992e-02 1.920725777745246887e-02 -7.329727523028850555e-03 -3.886716440320014954e-02 5.217284336686134338e-02 -2.359938574954867363e-03 -9.367417544126510620e-02 3.895737603306770325e-02 4.503962118178606033e-03 1.673040539026260376e-02 -1.084271632134914398e-02 -2.845523320138454437e-02 1.070038303732872009e-01
1.926678791642189026e-02 -1.661341041326522827e-01 2.814534492790699005e-02 -2.878924831748008728e-02 2.157521899789571762e-03 3.761046007275581360e-02 -2.761724172160029411e-03 7.137212157249450684e-02 9.289104491472244263e-02 -6.790554523468017578e-02 8.352202177047729492e-02 1.502824481576681137e-02 -1.380089223384857178e-01 -4.762643203139305115e-02 -9.479422122240066528e-02 2.189207077026367188e-02 -1.395338494330644608e-02 1.735295541584491730e-02 2.867452800273895264e-02 -3.446218324825167656e-03 -3.814484924077987671e-02 -9.894600138068199158e-03 -4.596346244215965271e-02 1.588019728660583496e-02 -6.492491066455841064e-02 -8.731582760810852051e-02 4.847906157374382019e-02 -5.532395094633102417e-03 8.605598658323287964e-02 -4.791610315442085266e-02 -1.728237234055995941e-02 4.422318935394287109e-02
-5.064025521278381348e-02 -1.421618163585662842e-01 -1.321008056402206421e-02 -5.794217810034751892e-02 -2.875379472970962524e-02 5.899965390563011169e-02 -5.396010354161262512e-02 6.983288377523422241e-02 8.422306925058364868e-02 -1.997046545147895813e-02 2.374411374330520630e-02 -2.827909542247653008e-03 -4.174748435616493225e-02 -6.916947662830352783e-02 -3.208928927779197693e-02 2.983160689473152161e-02 7.313906680792570114e-03 -1.866572350263595581e-02 -4.427614808082580566e-02 3.311662375926971436e-02 -5.310267210006713867e-02 -9.159960784018039703e-03 5.551286414265632629e-02 3.485015779733657837e-02 -7.812999188899993896e-02 -5.164890363812446594e-02 5.304109305143356323e-02 -3.309868648648262024e-02 6.467048078775405884e-02 -2.599113807082176208e-02 1.420176005922257900e-03 1.558487117290496826e-02
-3.438488021492958069e-02 -5.045047029852867126e-02 2.887118421494960785e-02 -4.100365564227104187e-02 7.796401623636484146e-03 -2.374429069459438324e-02 -4.373451322317123413e-02 2.053697407245635986e-02 -9.242489002645015717e-03 1.516207680106163025e-02 9.970246814191341400e-03 -2.036918140947818756e-02 1.538760773837566376e-02 -3.259687125682830811e-02 4.898117482662200928e-02 2.622617036104202271e-02 1.531309261918067932e-02 -6.152808666229248047e-02 -2.416502870619297028e-02 5.979381129145622253e-02 -3.545661643147468567e-02 2.246365137398242950e-02 7.278737425804138184e-02 3.381771966814994812e-02 -7.904548197984695435e-02 4.302803426980972290e-02 2.144267968833446503e-02 -1.248993165791034698e-02 1.684497296810150146e-02 -8.470553159713745117e-02 2.656689612194895744e-03 9.066233411431312561e-03
2.402884140610694885e-02 -3.549871221184730530e-02 -6.579361390322446823e-03 -4.943940322846174240e-03 -8.278395980596542358e-03 1.129792886786162853e-03 6.413453072309494019e-02 -7.025750819593667984e-03 -8.219964057207107544e-02 -5.957681685686111450e-02 5.129707604646682739e-02 1.437350921332836151e-02 -1.663727872073650360e-02 1.539365053176879883e-01 -5.403980240225791931e-02 2.568224258720874786e-02 -2.443235740065574646e-02 9.545432776212692261e-02 -1.470755413174629211e-02 -7.531547546386718750e-02 1.070079058408737183e-01 4.087632149457931519e-02 -4.374501109123229980e-02 -1.990782655775547028e-02 8.031339943408966064e-02 -1.931583537952974439e-04 -3.538417816162109375e-02 5.705853924155235291e-02 -1.436111181974411011e-01 -4.272768273949623108e-02 -2.110212296247482300e-02 -3.330277104396373034e-04
6.870096921920776367e-02 -1.525670140981674194e-01 -4.162423429079353809e-04 -3.719222545623779297e-02 -2.594533748924732208e-02 2.696476690471172333e-02 8.040491491556167603e-03 2.923627011477947235e-02 -2.799523435533046722e-02 -8.581233769655227661e-02 7.633475959300994873e-02 2.022126922383904457e-03 -8.172782510519027710e-02 4.855832085013389587e-02 -4.504382982850074768e-02 5.807238817214965820e-02 -2.215724624693393707e-02 6.438429001718759537e-03 9.633641690015792847e-02 -1.018360182642936707e-01 6.371701508760452271e-02 4.356104135513305664e-02 -3.973577916622161865e-02 3.825828433036804199e-02 5.921186506748199463e-02 -5.768651142716407776e-02 5.366733297705650330e-03 4.664180800318717957e-02 -7.127901911735534668e-02 -2.583430521190166473e-02 -6.891698390245437622e-02 3.624168038368225098e-02
4.601624235510826111e-02 -1.312886476516723633e-01 -1.333272550255060196e-03 -6.685212254524230957e-02 -4.625079780817031860e-02 2.272923476994037628e-02 1.553084980696439743e-02 5.147792398929595947e-02 2.762847393751144409e-02 -3.359378129243850708e-02 7.724373787641525269e-02 -1.038179174065589905e-02 -9.939200431108474731e-02 7.503462489694356918e-03 -7.970374077558517456e-02 2.709228172898292542e-02 -1.534784398972988129e-02 5.871328525245189667e-03 9.478960186243057251e-02 -2.363103628158569336e-02 6.122394930571317673e-03 3.101530112326145172e-02 -6.175946444272994995e-02 -5.789531860500574112e-03 2.957052551209926605e-02 -7.198198139667510986e-02 7.185156457126140594e-03 1.246379502117633820e-02 2.067670971155166626e-02 -2.072952501475811005e-02 -5.111360922455787659e-02 2.207244932651519775e-02
-2.062179334461688995e-02 -1.017593964934349060e-01 -5.583918094635009766e-02 -9.658724069595336914e-02 -4.910500720143318176e-02 4.510794207453727722e-02 -5.078257620334625244e-02 5.960149690508842468e-02 6.708450615406036377e-02 -2.713481150567531586e-02 -4.399516619741916656e-03 -2.930712327361106873e-02 5.418451502919197083e-03 -2.592649869620800018e-02 -1.564075611531734467e-02 1.693131774663925171e-02 6.035552825778722763e-03 6.845274008810520172e-03 4.545177146792411804e-02 -1.019739173352718353e-02 -1.971961371600627899e-02 -1.302721071988344193e-02 1.362835988402366638e-03 -9.708761237561702728e-03 -4.258113913238048553e-03 -6.570756435394287109e-02 2.305318601429462433e-02 1.918303966522216797e-02 3.444118192419409752e-03 6.896780338138341904e-03 -1.968304812908172607e-02 -1.911021023988723755e-02
-6.515962630510330200e-02 -3.670927137136459351e-02 -8.170031942427158356e-03 -8.142138272523880005e-02 -2.321164868772029877e-02 -4.194628074765205383e-02 -4.000806435942649841e-02 -2.080741804093122482e-03 2.316176705062389374e-02 -9.385679848492145538e-03 -1.186162792146205902e-02 -9.125901758670806885e-02 4.654720053076744080e-02 -1.799252629280090332e-02 6.826899200677871704e-02 6.723308004438877106e-03 5.616360343992710114e-03 -5.302618071436882019e-02 2.706376649439334869e-02 4.885362461209297180e-02 -2.314248122274875641e-02 -3.176024183630943298e-02 -2.036527730524539948e-02 -3.343969583511352539e-02 -4.691967274993658066e-03 3.884903714060783386e-02 6.343104178085923195e-04 2.964210137724876404e-02 -3.026487305760383606e-02 -7.502118591219186783e-03 -1.990507915616035461e-02 -1.116766035556793213e-02
-8.303638547658920288e-03 1.710655540227890015e-02 3.213809058070182800e-02 -4.225055128335952759e-02 -2.999120205640792847e-02 -2.826738916337490082e-02 -2.364151924848556519e-02 -1.073513180017471313e-02 -5.264923442155122757e-03 2.487157005816698074e-03 -5.684624891728162766e-03 3.914966946467757225e-04 9.583570063114166260e-03 -2.307626977562904358e-02 4.874438419938087463e-02 -3.284108638763427734e-02 5.368195474147796631e-03 8.001967333257198334e-03 2.342080138623714447e-02 -9.711787849664688110e-02 -5.402083043009042740e-03 9.355600178241729736e-02 -2.490033581852912903e-02 -1.913669519126415253e-02 -3.923688083887100220e-03 1.440665591508150101e-02 2.380418963730335236e-02 -4.444488137960433960e-02 1.890763407573103905e-03 1.854106038808822632e-02 -1.159093994647264481e-02 -4.802670329809188843e-03
-4.261495545506477356e-02 2.477725781500339508e-02 5.388574302196502686e-02 -3.310119733214378357e-02 -2.369729988276958466e-02 1.612994447350502014e-02 -2.009954070672392845e-03 8.287697099149227142e-03 3.671968588605523109e-03 1.529583428055047989e-02 2.479190006852149963e-03 -2.455301117151975632e-03 1.314547099173069000e-02 -4.180944338440895081e-02 2.866717427968978882e-02 -2.472537755966186523e-02 8.718687109649181366e-03 -1.039821375161409378e-02 6.285039708018302917e-03 -8.093126118183135986e-02 -4.267939180135726929e-02 1.553835347294807434e-02 -2.819386497139930725e-02 1.305730175226926804e-02 1.397267100401222706e-03 1.981463574338704348e-04 1.600721105933189392e-02 -3.197826817631721497e-02 1.574521651491522789e-03 4.931672476232051849e-03 -1.530974451452493668e-02 1.288677286356687546e-02
-5.894728377461433411e-02 2.097988128662109375e-02 6.607497483491897583e-02 -1.836805045604705811e-02 -1.059551257640123367e-02 6.220548972487449646e-02 9.772365912795066833e-03 2.174119278788566589e-02 7.923064753413200378e-03 3.829315304756164551e-02 1.352958846837282181e-02 -6.239173002541065216e-03 1.214687246829271317e-03 -4.207003861665725708e-02 6.857129745185375214e-03 -1.684777438640594482e-02 7.225124863907694817e-04 -2.110010012984275818e-02 -3.841617703437805176e-02 -6.196931749582290649e-02 -5.899201706051826477e-02 -4.865505546331405640e-02 -2.474389597773551941e-02 2.733169309794902802e-02 -5.510969553142786026e-03 1.078460086137056351e-02 2.334511466324329376e-02 -1.641485467553138733e-02 5.500196013599634171e-03 -5.110441241413354874e-03 -1.615424826741218567e-02 2.263461425900459290e-02
-4.174977168440818787e-02 2.595887053757905960e-03 5.527723208069801331e-02 -2.359007298946380615e-02 2.085648942738771439e-03 5.584253743290901184e-02 2.343924529850482941e-02 1.633434440009295940e-03 8.001158013939857483e-03 6.773085147142410278e-02 1.839636079967021942e-02 -3.076584264636039734e-02 -6.063926499336957932e-03 -2.729080431163311005e-02 5.071033257991075516e-03 -9.594071656465530396e-03 -1.153166685253381729e-02 -2.090964093804359436e-02 -5.325471609830856323e-02 -3.201270103454589844e-02 -5.098209530115127563e-02 -6.116360798478126526e-02 -2.572218328714370728e-02 1.314813387580215931e-03 -1.759519055485725403e-02 1.009807176887989044e-02 3.545895963907241821e-02 -1.257719285786151886e-02 -2.441097237169742584e-02 -1.224657334387302399e-02 -1.355437841266393661e-02 -1.376224827254191041e-04
-1.992689631879329681e-02 -1.623247377574443817e-02 4.505867511034011841e-02 -3.445590659976005554e-02 1.162408012896776199e-02 -3.249619912821799517e-04 8.834067732095718384e-03 -1.571737602353096008e-02 3.900662995874881744e-03 7.585252076387405396e-02 3.412679070606827736e-03 -4.466540738940238953e-02 -8.515869267284870148e-03 -1.602668501436710358e-02 1.476787403225898743e-02 1.184631325304508209e-02 9.679013746790587902e-04 -8.906435221433639526e-03 -5.548478290438652039e-02 4.970445297658443451e-03 -3.102676384150981903e-02 -4.190152138471603394e-02 -4.906905442476272583e-02 -1.271998230367898941e-02 -2.790001779794692993e-02 1.319989934563636780e-02 2.287337929010391235e-02 -3.362871333956718445e-02 -6.477750092744827271e-02 -1.363943703472614288e-02 -6.103363353759050369e-03 2.398209617240354419e-04
-3.648407012224197388e-02 -5.090458318591117859e-03 1.786263287067413330e-02 -1.921842433512210846e-02 4.297588951885700226e-03 -2.068158611655235291e-02 -1.070040557533502579e-02 5.516821518540382385e-03 -6.584064103662967682e-03 -3.948804363608360291e-02 2.389346063137054443e-02 1.018726546317338943e-02 1.664835587143898010e-02 -9.746193885803222656e-03 6.296085193753242493e-04 -1.560312975198030472e-02 1.100292429327964783e-02 -1.038117613643407822e-02 3.044316731393337250e-02 -6.448990106582641602e-02 -5.972974002361297607e-03 1.047172322869300842e-01 -1.678217016160488129e-02 -1.421803701668977737e-02 -1.491854200139641762e-03 4.908729344606399536e-03 6.518407724797725677e-03 -3.307970985770225525e-02 2.535788528621196747e-02 2.799619361758232117e-02 -1.127933850511908531e-03 -2.031378261744976044e-02
-6.090386584401130676e-02 -4.931169562041759491e-03 3.244258090853691101e-02 4.876915365457534790e-03 1.727498695254325867e-02 3.369864448904991150e-02 2.076829085126519203e-03 2.866319380700588226e-02 1.997945830225944519e-03 -3.245793282985687256e-02 2.560463547706604004e-02 1.468257606029510498e-02 2.233673818409442902e-02 -2.564846910536289215e-02 -2.152991294860839844e-02 -1.743641123175621033e-02 1.219790242612361908e-02 -2.197663672268390656e-02 9.819934144616127014e-03 -4.341578856110572815e-02 -2.657025307416915894e-02 2.154464460909366608e-02 -1.505373511463403702e-02 6.245916243642568588e-03 2.143479418009519577e-03 -1.287578139454126358e-02 5.432408768683671951e-03 -1.321588829159736633e-02 2.289574220776557922e-02 1.034102030098438263e-02 -3.034954657778143883e-03 -1.147583685815334320e-02
-6.338647007942199707e-02 2.372170099988579750e-03 4.061080887913703918e-02 2.674973197281360626e-02 2.147077955305576324e-02 8.763743191957473755e-02 1.405071560293436050e-02 3.673154115676879883e-02 1.244572456926107407e-02 -1.233246084302663803e-02 3.287713974714279175e-02 1.759574189782142639e-02 1.366892643272876740e-02 -2.931625582277774811e-02 -3.672521933913230896e-02 -1.312791369855403900e-02 -5.543041974306106567e-03 -2.927654981613159180e-02 -4.402717947959899902e-02 -2.426085062325000763e-02 -3.446121886372566223e-02 -6.234339252114295959e-02 -1.264547929167747498e-02 1.108736079186201096e-02 -9.951487882062792778e-04 -7.046993356198072433e-03 1.179443765431642532e-02 3.355556866154074669e-03 2.196310833096504211e-02 -2.409946639090776443e-03 3.193506738170981407e-03 -1.049581798724830151e-03
-3.858403861522674561e-02 -2.993345260620117188e-03 2.405353076756000519e-02 1.781551912426948547e-02 1.889869570732116699e-02 7.830131798982620239e-02 3.407951444387435913e-02 1.035871449857950211e-02 1.245755329728126526e-02 2.337013743817806244e-02 3.666634857654571533e-02 -4.773106891661882401e-03 9.112972766160964966e-03 -2.022939547896385193e-02 -3.193070366978645325e-02 -1.538939494639635086e-02 -2.064322680234909058e-02 -2.645969204604625702e-02 -6.601893156766891479e-02 4.847002215683460236e-03 -2.818592265248298645e-02 -8.070638775825500488e-02 -1.425311062484979630e-02 -1.230163872241973877e-02 -1.104468666017055511e-02 -1.406294573098421097e-02 1.950819604098796844e-02 5.400006659328937531e-03 -9.009428322315216064e-03 -1.657729782164096832e-02 9.824846871197223663e-03 -1.821776293218135834e-02
-1.267843879759311676e-02 -6.537978071719408035e-03 1.951803453266620636e-02 -1.529480610042810440e-02 1.304111722856760025e-02 1.712542772293090820e-02 2.596268244087696075e-02 -1.182488352060317993e-02 -2.693084825295954943e-04 4.488296061754226685e-02 2.062061615288257599e-02 -2.330670692026615143e-02 3.279189812019467354e-03 -1.611373759806156158e-02 -9.845358319580554962e-03 -1.424264628440141678e-03 -1.133882161229848862e-02 -1.717893965542316437e-02 -6.697551161050796509e-02 3.891215473413467407e-02 -1.750792562961578369e-02 -5.655425786972045898e-02 -4.003493115305900574e-02 -1.504687778651714325e-02 -2.225547656416893005e-02 -1.524980831891298294e-02 1.296488288789987564e-02 -1.938741654157638550e-02 -4.796748608350753784e-02 -2.301222458481788635e-02 1.499889697879552841e-02 -8.409079164266586304e-03
-2.785908989608287811e-02 -1.424112007953226566e-03 -5.019314121454954147e-04 9.649307467043399811e-03 3.093316033482551575e-02 -3.965706005692481995e-02 -2.035231702029705048e-02 1.745429448783397675e-02 -5.748124327510595322e-03 -9.239921718835830688e-02 2.908457629382610321e-02 1.048944517970085144e-02 2.874191477894783020e-02 1.253903564065694809e-02 -2.448866702616214752e-02 6.677684839814901352e-03 1.159857772290706635e-02 -3.169614076614379883e-02 4.844269528985023499e-02 -3.561254218220710754e-02 4.652275238186120987e-03 9.148719906806945801e-02 -1.989962905645370483e-02 -2.127211727201938629e-02 -1.682359958067536354e-03 1.208763569593429565e-02 3.764573484659194946e-03 -2.830011397600173950e-02 5.816527456045150757e-02 2.722435258328914642e-02 1.171302422881126404e-02 -1.993511803448200226e-02
-4.374452680349349976e-02 -5.596445407718420029e-03 1.265708357095718384e-02 4.533100873231887817e-02 4.268542304635047913e-02 2.039873972535133362e-02 -1.686847768723964691e-02 3.680942952632904053e-02 -3.519952762871980667e-03 -9.068950265645980835e-02 2.542806789278984070e-02 1.621742546558380127e-02 3.911187872290611267e-02 8.201607502996921539e-03 -4.739749059081077576e-02 -8.327359682880342007e-04 1.332748867571353912e-02 -3.429535403847694397e-02 2.414034493267536163e-02 -1.262486353516578674e-02 -1.309128594584763050e-03 1.853266730904579163e-02 -2.468971349298954010e-02 -2.089650370180606842e-02 3.498875070363283157e-03 -1.014010328799486160e-02 1.107904827222228050e-03 -2.042482839897274971e-03 4.751985147595405579e-02 9.637903422117233276e-03 1.295139826834201813e-02 -1.174388267099857330e-02
-4.477791488170623779e-02 2.612674375995993614e-03 1.790961064398288727e-02 6.858929246664047241e-02 4.033849760890007019e-02 8.130730688571929932e-02 -1.884703873656690121e-03 3.871201723814010620e-02 8.062760345637798309e-03 -7.005712389945983887e-02 3.021646291017532349e-02 2.312435768544673920e-02 3.331108391284942627e-02 6.963026709854602814e-03 -5.706599354743957520e-02 -5.264361971057951450e-04 -7.414468564093112946e-03 -3.677192702889442444e-02 -3.440772742033004761e-02 9.189425967633724213e-03 -2.301444998010993004e-03 -5.459014698863029480e-02 -2.808224782347679138e-02 -2.364927157759666443e-02 5.885250720893964171e-05 -1.577498577535152435e-02 2.680500037968158722e-03 2.211090363562107086e-02 4.104325547814369202e-02 2.112632384523749352e-03 2.026839181780815125e-02 -7.676162756979465485e-03
-1.981826312839984894e-02 -2.728965599089860916e-03 -1.965105766430497169e-04 5.139850080013275146e-02 2.867857366800308228e-02 7.601442933082580566e-02 2.556929364800453186e-02 9.148743003606796265e-03 7.863490842282772064e-03 -2.414956316351890564e-02 4.077749326825141907e-02 9.840326383709907532e-04 2.760191261768341064e-02 1.024932041764259338e-02 -4.379250854253768921e-02 -1.291762478649616241e-02 -2.671387977898120880e-02 -2.875496819615364075e-02 -6.706347316503524780e-02 3.268188983201980591e-02 -3.723803441971540451e-03 -6.888329237699508667e-02 -3.164326772093772888e-02 -3.686828538775444031e-02 -9.495577774941921234e-03 -3.424640744924545288e-02 7.684417534619569778e-03 1.961221359670162201e-02 1.093805581331253052e-02 -1.293664705008268356e-02 1.931218989193439484e-02 -2.916278690099716187e-02
4.201730713248252869e-03 -3.480788320302963257e-03 7.894912851043045521e-04 1.617720117792487144e-03 1.783277094364166260e-02 1.972310431301593781e-02 3.539108484983444214e-02 -1.265697740018367767e-02 -8.543647825717926025e-03 1.109738461673259735e-02 3.077591396868228912e-02 -1.791215687990188599e-02 1.596994511783123016e-02 1.065355539321899414e-02 -1.095937937498092651e-02 -9.989044629037380219e-03 -1.593969389796257019e-02 -2.104826271533966064e-02 -6.811421364545822144e-02 5.794703960418701172e-02 -8.435369236394762993e-04 -5.159418657422065735e-02 -5.104591697454452515e-02 -2.324706502258777618e-02 -1.795177534222602844e-02 -3.226978331804275513e-02 9.007021784782409668e-03 -3.042336786165833473e-03 -3.037718497216701508e-02 -1.977399177849292755e-02 1.782504841685295105e-02 -2.562233805656433105e-02
-5.958630237728357315e-03 1.710226386785507202e-02 7.037301082164049149e-03 1.973608136177062988e-02 1.505122054368257523e-02 -6.915351003408432007e-02 -2.953277528285980225e-02 1.151491072960197926e-03 1.540217921137809753e-02 -9.868958592414855957e-02 1.863498240709304810e-02 2.290295250713825226e-02 2.376972325146198273e-02 1.690134778618812561e-02 -2.629008330404758453e-02 1.835163868963718414e-02 -1.461467426270246506e-02 -3.826333582401275635e-02 5.404481291770935059e-02 -2.709457464516162872e-02 2.202157489955425262e-02 6.448008865118026733e-02 -1.003612298518419266e-02 -1.760647073388099670e-02 1.308690104633569717e-02 3.475001826882362366e-02 -1.936210691928863525e-02 -4.779311642050743103e-02 6.460278481245040894e-02 1.047902647405862808e-02 1.593661867082118988e-02 -1.702608913183212280e-02
-1.917289569973945618e-02 9.810452349483966827e-03 2.260558493435382843e-02 5.346468091011047363e-02 2.509483136236667633e-02 -1.999137736856937408e-02 -3.110001049935817719e-02 5.084180273115634918e-03 2.642285777255892754e-03 -1.062828674912452698e-01 1.959228888154029846e-03 2.885868027806282043e-02 3.294070437550544739e-02 2.273821830749511719e-02 -4.888974875211715698e-02 4.379796329885721207e-03 -9.481807239353656769e-03 -3.422953933477401733e-02 2.860106714069843292e-02 -3.821932245045900345e-03 2.000684104859828949e-02 1.130000967532396317e-02 -2.716287411749362946e-02 -2.597931027412414551e-02 1.517500635236501694e-02 1.480989344418048859e-02 -2.604680322110652924e-02 -2.169748581945896149e-02 4.270873218774795532e-02 -1.448725117370486259e-03 1.888495497405529022e-02 -4.208122845739126205e-03
-1.678326353430747986e-02 1.486976817250251770e-02 2.787915430963039398e-02 7.262568920850753784e-02 1.925875432789325714e-02 3.788916021585464478e-02 -1.786113530397415161e-02 -2.737301867455244064e-03 6.671234499663114548e-03 -9.092613309621810913e-02 -1.266477978788316250e-03 3.245753049850463867e-02 2.531697042286396027e-02 3.231533244252204895e-02 -5.266157910227775574e-02 -2.707344247028231621e-03 -2.883795276284217834e-02 -2.952763065695762634e-02 -2.673045359551906586e-02 1.662011258304119110e-02 1.736437901854515076e-02 -4.032094776630401611e-02 -3.835364803671836853e-02 -3.633370995521545410e-02 1.365517172962427139e-02 3.090722253546118736e-03 -3.209886327385902405e-02 2.830658107995986938e-03 3.807406499981880188e-02 -1.858229283243417740e-03 2.381149493157863617e-02 2.330432878807187080e-03
8.411701768636703491e-03 4.195303190499544144e-03 8.227982558310031891e-03 4.972311854362487793e-02 8.217737078666687012e-03 3.616939485073089600e-02 7.462809327989816666e-03 -2.765682525932788849e-02 -1.571080763824284077e-03 -4.566130787134170532e-02 1.071153674274682999e-02 1.064413785934448242e-02 1.886530406773090363e-02 3.799431771039962769e-02 -3.583732247352600098e-02 -1.530042476952075958e-02 -4.208927601575851440e-02 -1.957858167588710785e-02 -6.477528065443038940e-02 3.330202028155326843e-02 1.112423464655876160e-02 -4.862640053033828735e-02 -4.341259598731994629e-02 -4.440464079380035400e-02 6.319585256278514862e-03 -1.966782845556735992e-02 -2.932726778090000153e-02 6.741765420883893967e-03 1.525161880999803543e-02 -9.118587709963321686e-03 1.991752535104751587e-02 -2.011988312005996704e-02
2.680481038987636566e-02 -1.557659241370856762e-03 8.738937787711620331e-03 -7.501733023673295975e-03 4.408312495797872543e-03 -7.018160540610551834e-03 2.487520687282085419e-02 -3.959405794739723206e-02 -1.374319568276405334e-02 -7.182231638580560684e-03 4.863380454480648041e-03 -1.748160086572170258e-02 2.628207439556717873e-03 3.637112304568290710e-02 3.943625837564468384e-03 -1.300378702580928802e-02 -2.497872710227966309e-02 -1.826002635061740875e-02 -6.031469628214836121e-02 5.148670822381973267e-02 7.636924274265766144e-03 -4.322031140327453613e-02 -5.374110490083694458e-02 -1.868728734552860260e-02 -3.364963456988334656e-03 -1.702432520687580109e-02 -2.302815765142440796e-02 -6.251747719943523407e-03 -2.293227426707744598e-02 -1.373786851763725281e-02 1.589667797088623047e-02 -2.548483572900295258e-02
2.653456106781959534e-02 1.458093896508216858e-02 4.475514870136976242e-03 1.009013783186674118e-02 -6.071286275982856750e-03 -9.839022904634475708e-02 -3.202668577432632446e-02 -1.111851818859577179e-02 3.307142853736877441e-02 -7.089389860630035400e-02 1.418366795405745506e-03 2.208773978054523468e-02 1.440813206136226654e-02 5.092969164252281189e-03 -1.764871925115585327e-02 3.772149235010147095e-02 -2.597461640834808350e-02 -4.307725280523300171e-02 4.289674013853073120e-02 -3.452928736805915833e-02 3.291295841336250305e-02 4.917038977146148682e-02 1.215695496648550034e-02 -9.407746605575084686e-03 3.184628486633300781e-02 8.085554093122482300e-02 -3.886080533266067505e-02 -4.529704898595809937e-02 4.603296518325805664e-02 -3.961499780416488647e-03 2.249376662075519562e-02 -1.830146461725234985e-02
1.468275114893913269e-02 4.723690915852785110e-03 3.218066319823265076e-02 4.555158689618110657e-02 -2.735423389822244644e-03 -5.743658542633056641e-02 -3.544113785028457642e-02 -1.688162423670291901e-02 1.262220554053783417e-02 -8.237890899181365967e-02 -1.570753008127212524e-02 2.722704783082008362e-02 2.238683775067329407e-02 1.874061115086078644e-02 -2.795031853020191193e-02 1.840422302484512329e-02 -2.020474709570407867e-02 -3.308415412902832031e-02 2.734277956187725067e-02 -1.829410716891288757e-02 3.369511663913726807e-02 1.553147472441196442e-02 -1.297712139785289764e-02 -2.212180383503437042e-02 3.287965804338455200e-02 6.944347918033599854e-02 -3.953786939382553101e-02 -3.001303412020206451e-02 1.946767605841159821e-02 -1.158112846314907074e-02 2.335855364799499512e-02 -4.111895337700843811e-03
1.761742495000362396e-02 5.868563428521156311e-03 4.690400138497352600e-02 6.666199117898941040e-02 -1.133141480386257172e-02 -4.040637519210577011e-03 -2.940681762993335724e-02 -2.621072903275489807e-02 8.278798311948776245e-03 -6.756371259689331055e-02 -2.844017744064331055e-02 2.573921903967857361e-02 1.337011717259883881e-02 4.040505364537239075e-02 -3.092655353248119354e-02 6.596808787435293198e-03 -3.518462926149368286e-02 -2.437166869640350342e-02 -1.537065114825963974e-02 -5.644847173243761063e-03 2.700427360832691193e-02 -1.593551971018314362e-02 -2.932754717767238617e-02 -3.985819220542907715e-02 3.184566274285316467e-02 5.927743762731552124e-02 -5.275456979870796204e-02 -1.034720428287982941e-02 2.291023731231689453e-02 -9.565477259457111359e-03 2.740487083792686462e-02 -2.338401973247528076e-03
3.817572072148323059e-02 -8.090839721262454987e-03 3.395858779549598694e-02 4.327447339892387390e-02 -1.408777851611375809e-02 1.336900517344474792e-03 -8.734615519642829895e-03 -4.484569281339645386e-02 -9.916423819959163666e-03 -3.150834888219833374e-02 -1.602821238338947296e-02 4.973652772605419159e-03 3.073714906349778175e-03 5.086047947406768799e-02 -1.663774065673351288e-02 -3.078763373196125031e-03 -4.539229720830917358e-02 -1.622338220477104187e-02 -5.047458410263061523e-02 8.170188404619693756e-03 1.451699621975421906e-02 -1.606962084770202637e-02 -3.501680120825767517e-02 -4.926767200231552124e-02 2.714456431567668915e-02 3.816464170813560486e-02 -5.879965052008628845e-02 -8.198463357985019684e-03 1.276928000152111053e-02 -1.240986119955778122e-02 2.136741019785404205e-02 -2.145101502537727356e-02
5.065692961215972900e-02 -1.567831262946128845e-02 3.001886978745460510e-02 -1.556275784969329834e-02 -1.025707181543111801e-02 -3.017081320285797119e-02 1.267658732831478119e-02 -5.347751453518867493e-02 -2.288244105875492096e-02 -2.189979568356648088e-04 -2.092117816209793091e-02 -2.303433232009410858e-02 -9.692529216408729553e-03 5.185330286622047424e-02 1.805995777249336243e-02 2.313070464879274368e-03 -2.867362648248672485e-02 -1.888150721788406372e-02 -4.419460892677307129e-02 2.329521998763084412e-02 8.355073630809783936e-03 -1.784200407564640045e-02 -4.280969873070716858e-02 -2.456769533455371857e-02 1.572894491255283356e-02 3.275765106081962585e-02 -5.548803135752677917e-02 -1.685471273958683014e-02 -1.455027889460325241e-02 -2.003874629735946655e-02 1.329767238348722458e-02 -2.607203461229801178e-02
-1.097542326897382736e-02 2.909927815198898315e-02 1.880739815533161163e-02 4.308289289474487305e-02 -3.071076795458793640e-02 -2.393321506679058075e-02 4.898772016167640686e-02 -1.319709047675132751e-02 -1.325565762817859650e-02 -3.082067519426345825e-02 6.203961372375488281e-02 6.519936770200729370e-02 -1.442850567400455475e-02 9.119610302150249481e-03 1.086455024778842926e-02 -2.427754178643226624e-02 -2.273308299481868744e-02 3.119750879704952240e-03 6.644386798143386841e-03 -3.062415309250354767e-02 -2.640526369214057922e-02 8.022753894329071045e-02 4.084269516170024872e-03 -2.886876650154590607e-02 2.212517708539962769e-02 4.105509724467992783e-03 3.550034388899803162e-02 1.371919363737106323e-02 2.439486421644687653e-02 -4.123453423380851746e-02 -3.124880231916904449e-02 -3.094707243144512177e-02
3.469636663794517517e-02 2.825123444199562073e-02 4.924189299345016479e-03 2.006212063133716583e-02 -2.366271428763866425e-02 -1.157220732420682907e-02 4.136295244097709656e-02 -1.969560794532299042e-02 1.270653214305639267e-02 8.291197009384632111e-04 6.647514551877975464e-02 6.005330756306648254e-02 8.723650127649307251e-03 -1.176232937723398209e-03 1.764335669577121735e-02 6.275786552578210831e-03 -7.712117861956357956e-03 -3.142092144116759300e-03 1.576321944594383240e-02 -3.372569009661674500e-02 -4.611362516880035400e-02 4.080887883901596069e-02 -9.407104924321174622e-03 -1.638160273432731628e-02 3.662658482789993286e-02 6.136966403573751450e-03 1.690801233053207397e-02 -3.127498924732208252e-02 -1.431496255099773407e-02 -1.833585649728775024e-02 -1.573091931641101837e-02 -1.142852846533060074e-02
6.450214236974716187e-02 5.477193370461463928e-02 -2.338045835494995117e-02 -6.559902802109718323e-03 4.343435866758227348e-04 1.834612525999546051e-02 1.678353734314441681e-02 -2.352200821042060852e-02 2.526519587263464928e-03 3.744078427553176880e-02 5.790531262755393982e-02 4.177582263946533203e-02 2.504778094589710236e-02 1.570189930498600006e-02 2.458642702549695969e-03 4.234185069799423218e-02 8.966662921011447906e-03 1.759808510541915894e-02 -2.096311002969741821e-02 -3.355501592159271240e-02 -3.994904831051826477e-02 -8.455011062324047089e-03 -2.434632740914821625e-02 -4.354552831500768661e-03 5.486378073692321777e-02 1.353566255420446396e-02 2.000757306814193726e-02 -4.250913485884666443e-02 -4.561104625463485718e-02 5.857855547219514847e-03 -1.824687235057353973e-02 1.305625028908252716e-02
2.068263478577136993e-02 3.867157176136970520e-02 -3.476081416010856628e-02 -1.305129751563072205e-02 2.742731571197509766e-02 3.688006848096847534e-02 6.383521948009729385e-03 -1.650607399642467499e-02 -1.337613817304372787e-02 5.690943077206611633e-02 6.639295816421508789e-02 -2.670281974133104086e-04 5.068302154541015625e-02 2.090672403573989868e-02 -2.930941060185432434e-02 4.423375055193901062e-02 2.646917104721069336e-02 9.181937202811241150e-03 -3.998127579689025879e-02 -6.341913249343633652e-03 -1.621947251260280609e-02 -5.881202220916748047e-02 -1.459396537393331528e-02 -2.215675823390483856e-02 6.839766353368759155e-02 -5.443256348371505737e-03 1.964475587010383606e-02 -5.527020245790481567e-02 -4.596023634076118469e-02 2.331554703414440155e-02 -2.496729604899883270e-02 5.508208181709051132e-03
-4.933807998895645142e-02 -1.814712421037256718e-03 -2.792758867144584656e-02 -9.657904505729675293e-03 2.866776846349239349e-02 1.589155942201614380e-02 -5.753338336944580078e-03 -2.278886176645755768e-02 -3.772869333624839783e-02 5.417784303426742554e-02 5.343607813119888306e-02 -3.796680644154548645e-02 5.504006519913673401e-02 1.509895641356706619e-02 -5.176231637597084045e-02 1.302408333867788315e-02 2.296079695224761963e-02 1.394683588296175003e-02 -3.641004487872123718e-02 -2.132989233359694481e-03 6.744117476046085358e-03 -1.000727787613868713e-01 7.237365469336509705e-03 -2.509931847453117371e-02 5.083388835191726685e-02 -2.509224601089954376e-02 2.114913053810596466e-02 -6.614758819341659546e-02 -3.016904368996620178e-02 3.317275643348693848e-02 -1.210101787000894547e-02 1.325765624642372131e-02
-4.577803611755371094e-02 2.590129896998405457e-02 3.102080337703227997e-02 4.505702480673789978e-02 -3.192444890737533569e-02 -5.939831584692001343e-02 5.382535606622695923e-02 4.406761378049850464e-03 8.195539936423301697e-03 -4.837410524487495422e-02 8.338511735200881958e-02 4.787828028202056885e-02 -1.737748086452484131e-02 -6.822309922426939011e-03 -1.767939701676368713e-02 3.191032260656356812e-02 -3.399837389588356018e-02 -3.531415760517120361e-02 4.552283883094787598e-02 -1.394715346395969391e-02 -4.744603484869003296e-02 3.581913188099861145e-02 -2.903202362358570099e-02 -8.626353926956653595e-03 1.136217545717954636e-02 -4.247903451323509216e-02 5.151878297328948975e-02 -3.194279596209526062e-02 2.798071317374706268e-02 -2.688195742666721344e-02 -5.277568101882934570e-02 -3.248902410268783569e-02
7.900851778686046600e-05 3.687995253130793571e-03 1.700945571064949036e-02 8.694374002516269684e-03 -1.875843480229377747e-02 -2.978021465241909027e-02 5.547089502215385437e-02 -4.878835752606391907e-03 1.597425155341625214e-02 -4.104503244161605835e-02 9.438471496105194092e-02 4.878333210945129395e-02 -3.014821792021393776e-03 -2.138084173202514648e-02 -1.639351993799209595e-02 4.998650401830673218e-02 -3.057064488530158997e-02 -2.822092548012733459e-02 4.194197803735733032e-02 -1.136207021772861481e-02 -5.606972798705101013e-02 1.225751917809247971e-02 -3.399947285652160645e-02 -6.575338193215429783e-05 2.489419281482696533e-02 -3.054894320666790009e-02 3.986250236630439758e-02 -8.353108167648315430e-02 1.811421127058565617e-03 -1.601551473140716553e-02 -2.945050597190856934e-02 -3.055341914296150208e-02
5.535019189119338989e-02 1.396306417882442474e-02 -1.622835174202919006e-02 -2.084950171411037445e-02 1.614327915012836456e-02 2.467112056910991669e-02 2.248270064592361450e-02 -1.899521984159946442e-02 1.370815653353929520e-02 -1.292600948363542557e-02 9.351262450218200684e-02 5.281610041856765747e-02 7.712730672210454941e-03 -1.318574976176023483e-02 -1.063508167862892151e-02 8.160366117954254150e-02 -1.861958205699920654e-02 -2.874091034755110741e-03 -1.877080649137496948e-02 1.367602362734032795e-05 -5.352600663900375366e-02 -6.263260263949632645e-03 -2.809075266122817993e-02 1.305061858147382736e-02 2.724546380341053009e-02 -1.758030243217945099e-02 3.243976831436157227e-02 -9.111283719539642334e-02 -3.058982081711292267e-02 -1.115035545080900192e-02 -2.541543543338775635e-02 -1.450970210134983063e-02
6.000997871160507202e-02 1.182307861745357513e-02 -3.989049047231674194e-02 -2.699745260179042816e-02 3.722956776618957520e-02 6.417950242757797241e-02 9.963563643395900726e-03 -2.049828507006168365e-02 -4.112916067242622375e-03 1.904005184769630432e-02 1.158851385116577148e-01 3.445757180452346802e-02 4.106850177049636841e-02 -8.162222802639007568e-04 -3.859296068549156189e-02 7.428761571645736694e-02 -1.203670725226402283e-02 1.937598455697298050e-03 -4.973673075437545776e-02 1.636620052158832550e-02 -5.293207615613937378e-02 -4.059048742055892944e-02 8.628748357295989990e-03 -1.536570955067873001e-02 3.691066429018974304e-02 -2.419348433613777161e-02 1.461667567491531372e-02 -7.277105003595352173e-02 -4.973313212394714355e-02 -7.621648255735635757e-03 -3.110291622579097748e-02 6.663261447101831436e-03
2.935163676738739014e-02 8.596177212893962860e-03 -4.282170161604881287e-02 -2.025336958467960358e-02 1.761504262685775757e-02 5.353687703609466553e-02 -2.841775491833686829e-02 -2.568672411143779755e-02 -2.647755667567253113e-02 4.977758973836898804e-02 9.408666193485260010e-02 2.708585932850837708e-03 4.712154716253280640e-02 5.728095769882202148e-03 -6.401938945055007935e-02 3.432540595531463623e-02 -1.308386866003274918e-02 -9.645860642194747925e-03 -4.341535642743110657e-02 -1.477274345234036446e-03 -2.907525375485420227e-02 -6.138590350747108459e-02 3.268307447433471680e-02 -2.326813153922557831e-02 3.221815824508666992e-02 -4.917167499661445618e-02 7.381374016404151917e-03 -5.389604717493057251e-02 -5.341255664825439453e-02 -8.639562875032424927e-03 -2.766657806932926178e-02 1.923216134309768677e-02
-3.046240285038948059e-02 2.362437732517719269e-02 2.372672036290168762e-02 2.816024608910083771e-02 -7.882138714194297791e-03 -5.205480009317398071e-02 4.941556230187416077e-02 2.366398461163043976e-02 2.817131020128726959e-02 -6.219286471605300903e-02 9.809120744466781616e-02 -2.336628921329975128e-02 -3.005391918122768402e-02 -3.641665534814819694e-05 -4.463563114404678345e-02 2.580020762979984283e-02 -1.492995396256446838e-02 -3.015447594225406647e-02 5.684300884604454041e-02 -1.184751279652118683e-02 -5.043053254485130310e-02 2.350373007357120514e-02 -1.402185671031475067e-02 -2.936231612693518400e-04 -1.926601491868495941e-02 -5.158654227852821350e-02 6.879124045372009277e-02 -3.805826604366302490e-02 2.359905466437339783e-02 1.519713737070560455e-02 -4.841849952936172485e-02 6.896916311234235764e-03
-1.219833269715309143e-02 -1.502368319779634476e-02 2.884676121175289154e-02 -1.029333658516407013e-02 8.600694127380847931e-03 -1.962076686322689056e-02 7.089739292860031128e-02 1.510341744869947433e-02 4.947080090641975403e-02 -6.813426315784454346e-02 1.051996946334838867e-01 -9.878044016659259796e-03 -2.244427427649497986e-02 -1.371075585484504700e-02 -4.466465488076210022e-02 3.719881549477577209e-02 -1.690468937158584595e-02 -3.033229149878025055e-02 5.202413722872734070e-02 -2.216187567682936788e-04 -5.490513890981674194e-02 2.519733458757400513e-02 -1.644723117351531982e-02 1.759728789329528809e-02 -1.515636034309864044e-02 -4.579883813858032227e-02 5.702190101146697998e-02 -9.483501315116882324e-02 4.155612085014581680e-03 9.453624486923217773e-03 -4.544854909181594849e-02 2.220818772912025452e-02
2.396958135068416595e-02 -3.181099891662597656e-02 1.573061197996139526e-02 -3.925692662596702576e-02 3.941498696804046631e-02 3.217135742306709290e-02 5.353612080216407776e-02 1.195479650050401688e-02 4.009703919291496277e-02 -5.582460761070251465e-02 1.055550426244735718e-01 1.523483823984861374e-02 -1.456431299448013306e-02 -2.093825303018093109e-02 -2.755738794803619385e-02 6.611958891153335571e-02 -1.197145041078329086e-02 -2.202431438490748405e-03 -2.589018456637859344e-02 1.677555777132511139e-02 -5.455387383699417114e-02 1.302193570882081985e-02 -1.870973780751228333e-02 4.239781200885772705e-02 -2.171207591891288757e-02 -3.601888567209243774e-02 3.542780876159667969e-02 -9.968196600675582886e-02 -2.351018786430358887e-02 -5.344971083104610443e-03 -2.567646279931068420e-02 2.414408884942531586e-02
4.266129434108734131e-02 -2.760963700711727142e-02 -1.454013679176568985e-02 -2.863225527107715607e-02 3.622315451502799988e-02 7.391111552715301514e-02 2.345174178481101990e-02 -7.022445555776357651e-03 2.274584770202636719e-02 -2.494162321090698242e-02 1.175457611680030823e-01 1.464181393384933472e-02 1.483031455427408218e-02 -7.962765172123908997e-03 -3.647714108228683472e-02 5.789682269096374512e-02 -1.737822219729423523e-02 -1.171382982283830643e-02 -6.734465807676315308e-02 3.530830517411231995e-02 -6.324907392263412476e-02 -3.661801747512072325e-04 1.513581350445747375e-02 1.018248684704303741e-02 -4.121990408748388290e-03 -2.250809967517852783e-02 1.709641888737678528e-02 -7.863979041576385498e-02 -5.866559594869613647e-02 -2.106189727783203125e-02 -3.493955731391906738e-02 3.403796255588531494e-02
5.992206558585166931e-02 -2.358225174248218536e-02 -2.196631580591201782e-02 -2.741303667426109314e-02 4.547868855297565460e-03 7.725876569747924805e-02 -1.042605843394994736e-02 -2.437345311045646667e-02 -2.324793720617890358e-03 1.975980773568153381e-02 1.086079478263854980e-01 1.240180712193250656e-02 2.895038388669490814e-02 5.668138619512319565e-03 -4.791120067238807678e-02 3.584824129939079285e-02 -4.328805021941661835e-03 -2.214644290506839752e-02 -7.932002842426300049e-02 1.795593462884426117e-02 -4.573180526494979858e-02 -1.540738344192504883e-02 5.123946070671081543e-02 -1.265696063637733459e-02 -7.499182829633355141e-04 -2.988679520785808563e-02 -1.589840091764926910e-02 -3.893975913524627686e-02 -6.448459625244140625e-02 -4.677979275584220886e-02 -3.389641642570495605e-02 5.915617570281028748e-02
-4.952820483595132828e-03 7.270205765962600708e-03 2.812626026570796967e-02 1.087929587811231613e-03 2.181800780817866325e-03 -5.454234406352043152e-02 1.932700723409652710e-02 2.286188863217830658e-02 2.218286693096160889e-02 -4.019302502274513245e-02 8.380746096372604370e-02 -8.025588095188140869e-02 1.543715223670005798e-02 3.691472345963120461e-03 -3.541038557887077332e-02 6.649210117757320404e-03 1.260032877326011658e-02 -1.018335390836000443e-02 4.613560810685157776e-02 -6.077606696635484695e-03 -3.591882809996604919e-02 3.338445723056793213e-02 2.762760780751705170e-02 2.680449560284614563e-02 5.015612114220857620e-03 -4.680193960666656494e-02 5.514711514115333557e-02 -1.527536567300558090e-02 1.043712999671697617e-02 2.492838725447654724e-02 -3.633308410644531250e-02 3.271009400486946106e-02
-1.452320441603660583e-02 -4.653897508978843689e-02 4.218391329050064087e-02 -2.598227187991142273e-02 1.532666012644767761e-02 -4.605481401085853577e-02 5.623614415526390076e-02 2.615394257009029388e-02 4.085839912295341492e-02 -6.993487477302551270e-02 7.093365490436553955e-02 -7.498237490653991699e-02 2.078634686768054962e-02 -1.907823723740875721e-03 -2.861407771706581116e-02 -2.123349113389849663e-03 8.169500157237052917e-03 -1.790874637663364410e-02 5.215163156390190125e-02 -9.836417622864246368e-03 -5.908495560288429260e-02 3.940998390316963196e-02 3.195751458406448364e-02 5.318596586585044861e-02 -1.285073440521955490e-02 -4.866211861371994019e-02 5.770011618733406067e-02 -5.804510414600372314e-02 3.568770363926887512e-03 1.953959092497825623e-02 -3.706746175885200500e-02 5.636340752243995667e-02
-1.244816929101943970e-02 -7.293979823589324951e-02 4.960494488477706909e-02 -3.834482282400131226e-02 2.696964703500270844e-02 -1.229022908955812454e-02 5.269685015082359314e-02 3.835906833410263062e-02 5.759869888424873352e-02 -6.551162153482437134e-02 4.115965962409973145e-02 -4.074085131287574768e-02 1.548624038696289062e-02 1.833239803090691566e-03 -1.627314463257789612e-02 4.254123196005821228e-03 -3.486470668576657772e-04 -9.611294604837894440e-03 -7.977094501256942749e-03 -1.695546437986195087e-03 -6.342954188585281372e-02 2.431574091315269470e-02 2.438057772815227509e-02 7.445622980594635010e-02 -1.986994221806526184e-02 -4.110209271311759949e-02 4.040142521262168884e-02 -5.829116329550743103e-02 1.195950247347354889e-02 -7.158274762332439423e-03 -1.922668889164924622e-02 6.364288181066513062e-02
4.631285846699029207e-04 -7.894829660654067993e-02 3.001854568719863892e-02 -1.965723372995853424e-02 1.778439059853553772e-02 2.349148690700531006e-02 2.678832784295082092e-02 2.605325542390346527e-02 3.635109961032867432e-02 -5.451858788728713989e-02 5.452411621809005737e-02 -3.723490983247756958e-02 8.502392098307609558e-03 -1.345493644475936890e-02 -9.271951392292976379e-03 1.190279889851808548e-02 -1.651118882000446320e-02 -1.508862804621458054e-02 -5.730306729674339294e-02 1.215386297553777695e-02 -7.156101614236831665e-02 2.297681756317615509e-02 3.096284903585910797e-02 4.184390604496002197e-02 1.394556462764739990e-02 -2.893571928143501282e-02 2.919305860996246338e-02 -5.174327269196510315e-02 -1.847996003925800323e-02 -1.911550760269165039e-02 -2.099045366048812866e-02 5.384099856019020081e-02
3.223387151956558228e-02 -5.910006165504455566e-02 -5.364309065043926239e-03 -1.650514081120491028e-02 -4.837448243051767349e-03 2.601567469537258148e-02 -7.448878022842109203e-04 -8.133784867823123932e-03 1.480132341384887695e-02 -2.302238903939723969e-02 4.769077897071838379e-02 -1.888473704457283020e-02 1.487704343162477016e-03 -2.139516733586788177e-02 -1.601115614175796509e-02 1.550010684877634048e-02 -4.842428490519523621e-03 -3.206840157508850098e-02 -7.017485797405242920e-02 -1.778152189217507839e-03 -5.013526603579521179e-02 2.770297229290008545e-02 3.906203061342239380e-02 -6.372663658112287521e-03 3.522270917892456055e-02 -9.452621452510356903e-03 -8.311759680509567261e-03 -2.729444764554500580e-02 -2.937919273972511292e-02 -5.059374496340751648e-02 -1.142559573054313660e-02 5.724782496690750122e-02
3.096788376569747925e-02 2.689304202795028687e-02 -3.780576586723327637e-02 -1.547638513147830963e-02 -4.563598427921533585e-03 -5.623772740364074707e-02 5.953305400907993317e-03 -3.842400619760155678e-03 9.398980997502803802e-03 -3.164810314774513245e-02 5.501365661621093750e-02 -5.883082374930381775e-02 1.879800669848918915e-02 -1.191492564976215363e-02 2.480496186763048172e-03 3.908890765160322189e-03 -2.933449810370802879e-03 2.281813183799386024e-03 2.416580915451049805e-02 -2.184241078794002533e-02 -4.009607061743736267e-02 2.848481759428977966e-02 2.722771279513835907e-02 -6.545634940266609192e-03 5.183551833033561707e-02 -3.592390939593315125e-02 2.258903160691261292e-02 2.097605727612972260e-02 -9.536590427160263062e-03 1.610199175775051117e-02 -4.126302897930145264e-02 3.545418381690979004e-02
2.208675257861614227e-02 -2.849074639379978180e-02 -1.431309245526790619e-02 -2.699314802885055542e-02 1.308796275407075882e-02 -5.849581584334373474e-02 3.624508157372474670e-02 1.007705274969339371e-02 3.484570235013961792e-02 -4.304812848567962646e-02 2.706318907439708710e-02 -5.904844030737876892e-02 2.687241882085800171e-02 -1.259122882038354874e-02 2.123854495584964752e-02 -1.693736761808395386e-02 7.779360748827457428e-03 -2.564511448144912720e-02 6.265425682067871094e-02 -1.408204622566699982e-02 -5.530655384063720703e-02 2.084024809300899506e-02 3.326822444796562195e-02 1.412567496299743652e-02 3.166287764906883240e-02 -3.410006687045097351e-02 3.379387781023979187e-02 -2.013871259987354279e-02 -9.392231702804565430e-03 1.738560386002063751e-02 -4.218951240181922913e-02 6.395146250724792480e-02
-8.922889828681945801e-04 -5.021633952856063843e-02 1.943077147006988525e-02 -1.895457878708839417e-02 3.011907264590263367e-02 -4.321699216961860657e-02 4.684090614318847656e-02 2.472899481654167175e-02 5.954491347074508667e-02 -5.225834250450134277e-02 -5.756152328103780746e-03 -5.056307464838027954e-02 3.023242205381393433e-02 4.577233456075191498e-03 3.339926153421401978e-02 -1.037367992103099823e-02 -2.865205984562635422e-03 -1.495431642979383469e-02 2.354119159281253815e-02 -1.213380694389343262e-02 -5.800643563270568848e-02 3.729372052475810051e-03 9.766435250639915466e-03 2.233665622770786285e-02 3.826523199677467346e-03 -2.081947401165962219e-02 2.389294840395450592e-02 -1.563889533281326294e-02 1.865844801068305969e-02 -4.480728879570960999e-03 -2.534961327910423279e-02 7.897877693176269531e-02
-1.596952788531780243e-02 -6.819909065961837769e-02 2.458098344504833221e-02 -5.563581362366676331e-04 1.270830538123846054e-02 -2.944707497954368591e-02 2.839451655745506287e-02 2.032407373189926147e-02 5.207880958914756775e-02 -4.792002215981483459e-02 2.988086314871907234e-03 -5.309768021106719971e-02 1.610835082828998566e-02 3.037014976143836975e-03 5.112412944436073303e-02 -1.227697636932134628e-02 -1.892968639731407166e-02 -2.546936459839344025e-02 -1.827596500515937805e-02 -1.463285647332668304e-02 -6.588552147150039673e-02 -4.519476089626550674e-03 6.305015180259943008e-03 -1.951092854142189026e-02 2.478205971419811249e-02 -2.270212769508361816e-02 2.248446457087993622e-02 -2.269265800714492798e-02 1.282794121652841568e-02 -1.103551220148801804e-02 -3.083221428096294403e-02 6.606510281562805176e-02
-6.417277734726667404e-03 -5.334600433707237244e-02 2.461458498146384954e-04 -7.855710573494434357e-03 -1.778070814907550812e-02 -3.900131583213806152e-02 -1.650278223678469658e-03 1.151985139586031437e-03 3.907180950045585632e-02 -3.341883048415184021e-02 1.605220697820186615e-02 -5.744816362857818604e-02 -1.250484399497509003e-02 -2.708849031478166580e-03 4.980748146772384644e-02 2.179828472435474396e-02 -1.799867459340021014e-04 -3.493604436516761780e-02 -4.835309460759162903e-02 -1.110791787505149841e-02 -3.687644004821777344e-02 3.806904656812548637e-03 -1.252859737724065781e-02 -6.056662648916244507e-02 4.116144403815269470e-02 7.522423984482884407e-04 2.999942284077405930e-03 2.371878130361437798e-03 1.444777194410562515e-02 -2.679689414799213409e-02 -2.627455070614814758e-02 6.673830747604370117e-02
2.059285156428813934e-02 3.067553229629993439e-02 6.150165945291519165e-02 -2.743602171540260315e-02 4.998816549777984619e-02 1.167576480656862259e-02 1.984299719333648682e-02 -2.530504483729600906e-03 -4.203946888446807861e-02 1.905052922666072845e-02 1.148218289017677307e-02 6.988113373517990112e-02 -1.388395857065916061e-02 -2.042268589138984680e-02 3.570476919412612915e-02 -6.112498417496681213e-02 4.361513257026672363e-02 5.047602951526641846e-02 -2.237125299870967865e-02 5.234960839152336121e-02 -2.714001014828681946e-02 -3.081575036048889160e-02 -5.752940196543931961e-03 -2.094528824090957642e-02 6.951457262039184570e-02 7.023845613002777100e-02 4.848536849021911621e-02 4.578306153416633606e-02 -4.241367802023887634e-02 -6.142251566052436829e-02 -9.927199035882949829e-02 3.815971314907073975e-02
-4.210351966321468353e-03 3.924632444977760315e-03 2.999482676386833191e-02 -1.054205838590860367e-02 6.987069547176361084e-02 1.235882937908172607e-02 -8.241648785769939423e-03 -2.604148350656032562e-02 -4.717218503355979919e-02 3.585559874773025513e-02 -2.983426908031105995e-03 1.402634531259536743e-01 -6.753752939403057098e-03 -4.307469353079795837e-03 4.720458388328552246e-02 -3.118605539202690125e-02 4.751386493444442749e-02 4.985860362648963928e-02 -5.918401107192039490e-02 1.525218598544597626e-02 -3.935999795794487000e-02 -9.614953771233558655e-03 4.731726646423339844e-02 -1.961361616849899292e-02 5.800878256559371948e-02 3.176617622375488281e-02 3.275244310498237610e-02 5.141388624906539917e-02 -3.148495405912399292e-02 -1.991773396730422974e-02 -1.170182153582572937e-01 1.415896974503993988e-02
2.210212871432304382e-02 -8.292629383504390717e-03 8.019642904400825500e-03 -8.926077745854854584e-03 5.969379097223281860e-02 3.288540756329894066e-03 -2.946056798100471497e-02 -5.451313033699989319e-02 -5.585216358304023743e-02 4.148937389254570007e-02 -1.697991788387298584e-02 1.304030567407608032e-01 6.348710507154464722e-03 -1.393506396561861038e-02 1.771942153573036194e-02 -2.070051431655883789e-02 5.014484748244285583e-02 8.141472190618515015e-02 -3.324353694915771484e-02 -1.964195631444454193e-02 -4.889815673232078552e-02 4.040870070457458496e-02 9.838079661130905151e-02 -1.935793273150920868e-02 3.388101607561111450e-02 1.169100869446992874e-02 -9.643313824199140072e-04 5.231273919343948364e-02 -7.362929172813892365e-03 -4.854036960750818253e-03 -9.710270166397094727e-02 2.282773330807685852e-02
5.699693411588668823e-02 -1.052454393357038498e-02 2.059733122587203979e-02 -2.319166436791419983e-02 4.177292436361312866e-02 -1.865874603390693665e-02 5.914442706853151321e-03 -6.828216463327407837e-02 -6.000951677560806274e-02 5.922481417655944824e-02 -4.948171973228454590e-02 3.898242488503456116e-02 -4.749340936541557312e-03 -2.483462914824485779e-02 -1.653678715229034424e-02 -1.296954508870840073e-02 6.670318543910980225e-02 6.071481853723526001e-02 -1.124655362218618393e-02 -4.258277267217636108e-02 -4.246304929256439209e-02 7.126761227846145630e-02 1.047178059816360474e-01 -1.759777031838893890e-02 2.230126224458217621e-02 -1.203085295855998993e-02 -2.862598933279514313e-02 1.303682569414377213e-02 -4.113125614821910858e-03 1.400956418365240097e-02 -6.910059601068496704e-02 6.466334313154220581e-02
4.889247566461563110e-02 -1.471856050193309784e-02 2.558132447302341461e-02 2.138336712960153818e-04 -9.538386366330087185e-04 -2.929556556046009064e-02 3.045394457876682281e-02 -6.657425314188003540e-02 -3.194081783294677734e-02 4.050404578447341919e-02 -8.069605380296707153e-02 -4.524724185466766357e-02 2.436177246272563934e-02 -1.945381425321102142e-02 -3.470155224204063416e-02 -3.011935623362660408e-03 5.525630712509155273e-02 1.632280275225639343e-02 3.587092738598585129e-03 -4.717662557959556580e-02 1.800897181965410709e-03 4.386742413043975830e-02 5.849422886967658997e-02 -6.377447862178087234e-03 -8.856326341629028320e-03 -3.883329033851623535e-02 -8.264451287686824799e-03 -1.378218061290681362e-03 -1.280193496495485306e-02 3.124857321381568909e-02 -3.610225394368171692e-02 1.071212366223335266e-01
-5.684857070446014404e-02 8.266106247901916504e-03 -9.295426309108734131e-03 1.919066649861633778e-03 4.304810985922813416e-02 -9.140658192336559296e-03 -4.420182853937149048e-02 1.409590709954500198e-02 -4.241392388939857483e-02 -1.221998315304517746e-02 3.381607681512832642e-02 9.432598948478698730e-02 4.776551201939582825e-02 -6.329210102558135986e-02 1.561801228672266006e-02 -5.031503736972808838e-02 -8.406953886151313782e-03 -3.434640541672706604e-02 4.633296653628349304e-02 3.565775230526924133e-02 -1.129893213510513306e-02 -1.518973428755998611e-02 -4.921439290046691895e-02 2.162399515509605408e-02 -1.511306129395961761e-02 2.049897797405719757e-02 5.297187715768814087e-02 3.488392382860183716e-02 -6.929325312376022339e-02 4.726332053542137146e-02 -7.333152741193771362e-02 3.350444370880723000e-03
-8.226571977138519287e-02 2.215964952483773232e-03 -3.148556500673294067e-02 -1.546791289001703262e-02 9.551890939474105835e-02 -2.552761696279048920e-02 -5.757949501276016235e-02 8.899936452507972717e-03 -5.701477825641632080e-02 -1.133145857602357864e-02 2.201846614480018616e-02 1.580002307891845703e-01 2.164827100932598114e-02 -6.229683011770248413e-02 1.823525689542293549e-02 -4.806742817163467407e-02 -1.089888717979192734e-02 -4.026583582162857056e-02 -7.612770423293113708e-03 3.530710190534591675e-02 -2.487351000308990479e-02 -4.123280290514230728e-03 2.928470075130462646e-02 3.747983649373054504e-02 -1.882652565836906433e-02 -3.298806492239236832e-03 4.076112806797027588e-02 5.306801199913024902e-02 -6.457308679819107056e-02 3.784838318824768066e-02 -8.455035835504531860e-02 -8.846615254878997803e-02
-5.065743345767259598e-03 1.051427610218524933e-02 -4.310305416584014893e-02 -1.805055513978004456e-02 9.393016248941421509e-02 -2.573803253471851349e-02 -6.017949059605598450e-02 -1.790263131260871887e-02 -5.363221094012260437e-02 6.165597587823867798e-04 1.190251205116510391e-02 1.382241845130920410e-01 -5.697635933756828308e-03 -7.936469465494155884e-02 -1.737450482323765755e-03 -5.770005285739898682e-02 -2.042219042778015137e-02 3.840974532067775726e-03 -1.852003671228885651e-02 2.583360858261585236e-02 -4.471599683165550232e-02 1.381971128284931183e-02 1.060832589864730835e-01 4.784683510661125183e-02 -3.267033398151397705e-02 -1.190396491438150406e-02 -3.804579144343733788e-03 5.933916941285133362e-02 -4.702701419591903687e-02 8.064822293817996979e-03 -6.220113113522529602e-02 -8.779996633529663086e-02
8.277551829814910889e-02 2.176728285849094391e-02 -2.714271284639835358e-02 -1.989580504596233368e-02 5.275396257638931274e-02 -2.418243885040283203e-02 -7.086696568876504898e-03 -3.605180978775024414e-02 -5.679170787334442139e-02 1.561853010207414627e-02 -1.092137675732374191e-02 6.688404083251953125e-02 -4.474975541234016418e-02 -5.591060966253280640e-02 -1.732339151203632355e-02 -5.463016405701637268e-02 -2.235887385904788971e-02 -1.503039710223674774e-02 -1.002451870590448380e-02 -7.454305887222290039e-03 -3.559163957834243774e-02 4.850102588534355164e-02 1.227266266942024231e-01 3.176428377628326416e-02 -1.653854735195636749e-02 -1.892319507896900177e-02 -4.283049330115318298e-02 3.267085924744606018e-02 -3.159959614276885986e-02 7.855888456106185913e-03 -6.099158525466918945e-02 -4.371583834290504456e-02
9.017361700534820557e-02 1.202189549803733826e-02 -2.215529792010784149e-02 1.167066488415002823e-02 -7.568036206066608429e-03 -2.673003124073147774e-03 1.359860040247440338e-02 -2.809360623359680176e-02 -1.596968434751033783e-02 2.063087001442909241e-02 -3.076067194342613220e-02 1.995689235627651215e-03 -2.106020413339138031e-02 -1.073762495070695877e-02 -3.688393533229827881e-02 -2.885167859494686127e-02 -5.223528482019901276e-03 -6.046467274427413940e-02 1.976646296679973602e-02 -5.127701535820960999e-02 -2.783257141709327698e-02 1.736138761043548584e-02 4.417487233877182007e-02 9.028008207678794861e-03 -4.411954805254936218e-02 -2.441436611115932465e-02 -3.806955367326736450e-02 2.297629043459892273e-02 -2.347574755549430847e-02 2.395416051149368286e-02 -5.762544646859169006e-02 1.301464624702930450e-02
-5.285293981432914734e-02 1.109156664460897446e-02 -4.384313896298408508e-02 3.413610626012086868e-03 3.433037176728248596e-02 2.145868539810180664e-02 -7.305362820625305176e-02 2.810207195580005646e-02 -5.424904078245162964e-02 -6.368150562047958374e-02 3.801039233803749084e-02 1.629074849188327789e-02 3.352984040975570679e-02 -7.678534835577011108e-02 -3.463234752416610718e-02 -4.722208529710769653e-02 1.195856370031833649e-03 -4.996415972709655762e-02 2.527176588773727417e-02 5.375947430729866028e-02 2.860041521489620209e-02 -6.677781231701374054e-03 -2.228628844022750854e-02 3.640576824545860291e-02 -3.267470374703407288e-02 6.729322194587439299e-05 3.753230348229408264e-02 4.450947046279907227e-02 -9.693945199251174927e-02 1.266256868839263916e-01 -4.920450225472450256e-02 -3.190338984131813049e-02
-8.272136747837066650e-02 3.329458460211753845e-02 -3.965074196457862854e-02 -7.098778616636991501e-03 6.770684570074081421e-02 2.664015628397464752e-03 -8.325599879026412964e-02 5.338171124458312988e-02 -6.624830514192581177e-02 -4.371374845504760742e-02 -1.338277291506528854e-02 5.787068232893943787e-02 6.128264125436544418e-03 -8.559932559728622437e-02 -1.963893417268991470e-03 -3.747461736202239990e-02 -4.808146040886640549e-03 -6.289979070425033569e-02 -3.467434272170066833e-02 6.132163852453231812e-02 2.388612367212772369e-02 -3.554986417293548584e-02 4.664096608757972717e-02 5.994442105293273926e-02 -4.648439958691596985e-02 -3.733422374352812767e-03 1.956217177212238312e-02 3.910172358155250549e-02 -1.069366708397865295e-01 7.439675927162170410e-02 -5.799889191985130310e-02 -9.531363844871520996e-02
-2.169332280755043030e-02 5.494720488786697388e-02 -1.738269440829753876e-02 -1.709451153874397278e-02 4.784601181745529175e-02 -1.224115304648876190e-02 -6.005810946226119995e-02 3.570030629634857178e-02 -6.726696342229843140e-02 -8.702857419848442078e-03 -2.776747196912765503e-02 5.226697400212287903e-02 -1.762846112251281738e-02 -1.066314280033111572e-01 4.656673118006438017e-04 -3.312639519572257996e-02 6.818915251642465591e-03 -3.193375468254089355e-02 -4.947016015648841858e-02 4.694564267992973328e-02 1.786446943879127502e-02 -5.969740450382232666e-02 1.029838100075721741e-01 6.234529614448547363e-02 -4.022504389286041260e-02 -2.186753088608384132e-03 -3.768530860543251038e-02 4.252619296312332153e-02 -9.615445882081985474e-02 2.510170824825763702e-02 -4.417655989527702332e-02 -8.885334432125091553e-02
7.148051261901855469e-02 4.760941490530967712e-02 4.273917060345411301e-03 -2.245048806071281433e-02 -4.919201601296663284e-03 -9.433718398213386536e-03 -2.210961841046810150e-02 2.919029677286744118e-03 -6.237727403640747070e-02 1.494719088077545166e-02 -3.484772890806198120e-02 2.710367552936077118e-02 -3.351971879601478577e-02 -8.039660751819610596e-02 -2.072818018496036530e-02 -1.954113505780696869e-02 1.256868336349725723e-02 -3.775884583592414856e-02 -4.840037971735000610e-02 9.526588954031467438e-03 1.030412502586841583e-02 -3.061020001769065857e-02 7.826585322618484497e-02 2.142120897769927979e-02 -3.692088183015584946e-03 -1.678647287189960480e-02 -7.673510164022445679e-02 3.793891891837120056e-02 -5.662679672241210938e-02 -1.163404900580644608e-02 -5.451459065079689026e-02 -4.421782493591308594e-02
9.089567512273788452e-02 2.469035424292087555e-02 2.102648280560970306e-02 -2.308227680623531342e-02 -4.965222626924514771e-02 2.009522914886474609e-02 -4.340740386396646500e-03 -2.078914083540439606e-02 -2.388102933764457703e-02 2.829050831496715546e-02 -3.409800305962562561e-02 2.795357070863246918e-02 5.855937488377094269e-04 -2.873225137591362000e-02 -7.959375530481338501e-02 -1.121015194803476334e-02 1.858385466039180756e-02 -6.184512004256248474e-02 -1.905641332268714905e-02 -2.667385153472423553e-02 1.792131736874580383e-02 -3.418322280049324036e-02 5.114645231515169144e-03 -3.264938294887542725e-02 -3.899525851011276245e-03 -4.298899695277214050e-02 -4.719466343522071838e-02 4.369442909955978394e-02 -2.478448674082756042e-02 -5.223734304308891296e-02 -7.057789713144302368e-02 1.423434005118906498e-03
-5.141340568661689758e-02 3.232518956065177917e-02 -2.732409164309501648e-02 -1.590870320796966553e-02 -4.744130373001098633e-02 -2.918899431824684143e-02 -1.002652719616889954e-01 3.916997462511062622e-02 -7.839092612266540527e-02 -3.531598672270774841e-02 2.033129334449768066e-02 -1.129854917526245117e-01 8.569185435771942139e-02 -1.921561919152736664e-02 -2.616138570010662079e-02 -6.333788484334945679e-02 5.922688543796539307e-02 -2.969053015112876892e-02 2.496916987001895905e-02 8.072048425674438477e-02 3.069396317005157471e-02 7.896645925939083099e-03 2.441942691802978516e-02 3.906180150806903839e-03 2.566480822861194611e-02 -1.588040590286254883e-02 -1.675046421587467194e-02 1.924028806388378143e-02 -6.916399300098419189e-02 9.644536674022674561e-02 -4.410890862345695496e-02 -3.130311518907546997e-02
-9.204763919115066528e-02 3.237431496381759644e-02 -2.691448433324694633e-03 -3.880404308438301086e-02 -2.992083318531513214e-02 -5.863166227936744690e-02 -8.321451395750045776e-02 9.003625810146331787e-02 -5.349795520305633545e-02 -2.054867707192897797e-02 -1.857967488467693329e-02 -1.137805059552192688e-01 8.248770236968994141e-02 -3.062219172716140747e-02 -8.325779810547828674e-03 -3.870048001408576965e-02 6.137768551707267761e-02 -3.466552868485450745e-02 -6.023250985890626907e-03 6.329103559255599976e-02 2.615136839449405670e-02 -1.162380538880825043e-02 8.186160773038864136e-02 3.441378846764564514e-02 4.893147386610507965e-03 1.975429430603981018e-02 -1.962223090231418610e-02 -2.376722870394587517e-03 -7.707642763853073120e-02 5.622711405158042908e-02 -4.863639548420906067e-02 -6.347788870334625244e-02
-6.390779465436935425e-02 2.953883446753025055e-02 1.120022777467966080e-02 -4.057444259524345398e-02 -3.256532922387123108e-02 -6.985386461019515991e-02 -6.467147171497344971e-02 8.648436516523361206e-02 -1.985696516931056976e-02 9.324355982244014740e-03 -4.209685698151588440e-02 -1.014120206236839294e-01 6.923171132802963257e-02 -6.740936636924743652e-02 3.740559099242091179e-03 -3.766402229666709900e-02 6.756386160850524902e-02 -1.058524381369352341e-02 -1.344092655926942825e-02 3.305530920624732971e-02 3.082338720560073853e-02 -2.015179023146629333e-02 9.167467802762985229e-02 6.332960724830627441e-02 -1.740594860166311264e-03 3.351052850484848022e-02 -3.919916599988937378e-02 6.253353785723447800e-03 -5.005868524312973022e-02 5.501650739461183548e-03 -3.376461192965507507e-02 -3.734847158193588257e-02
9.865265339612960815e-03 6.440559402108192444e-03 -4.336926620453596115e-03 -3.099904209375381470e-02 -5.970661714673042297e-02 -4.710367321968078613e-02 -3.267671540379524231e-02 4.242802783846855164e-02 -1.565362140536308289e-02 9.605788625776767731e-03 -3.981744125485420227e-02 -7.213138043880462646e-02 3.008266165852546692e-02 -8.477035909891128540e-02 -5.974321160465478897e-03 -2.738961391150951385e-02 4.557203873991966248e-02 -7.169912569224834442e-03 -4.413148388266563416e-03 9.770791046321392059e-03 4.613956436514854431e-02 1.883142627775669098e-02 6.776177883148193359e-02 4.285069555044174194e-02 3.147175163030624390e-02 1.121671777218580246e-02 -5.166779831051826477e-02 1.614593714475631714e-02 -1.339163072407245636e-02 -3.719693794846534729e-02 -4.175005480647087097e-02 7.519199512898921967e-03
4.474662616848945618e-02 -1.534069422632455826e-02 -1.839462667703628540e-02 -1.746724918484687805e-02 -7.382015138864517212e-02 1.733132079243659973e-02 -3.625352168455719948e-03 -1.205303892493247986e-02 -6.597340572625398636e-03 1.073321141302585602e-02 -3.797472640872001648e-02 -1.391055062413215637e-02 2.881991490721702576e-02 -6.857496500015258789e-02 -6.281622499227523804e-02 -3.277775645256042480e-02 2.267731353640556335e-02 -2.093860134482383728e-02 1.101445406675338745e-02 -3.221966326236724854e-03 5.907850712537765503e-02 1.194552984088659286e-02 -3.208124544471502304e-03 -2.202730067074298859e-02 4.990205541253089905e-02 -1.427100226283073425e-02 2.904742956161499023e-03 2.614439278841018677e-02 5.051583051681518555e-03 -7.354829460382461548e-02 -5.737125128507614136e-02 2.918014302849769592e-02
-6.856858730316162109e-03 8.850158005952835083e-02 -2.912840060889720917e-02 -2.945279143750667572e-02 -6.064287200570106506e-02 -9.205813705921173096e-02 -8.040564507246017456e-02 -1.462034694850444794e-02 -5.553135275840759277e-02 6.411065813153982162e-03 -2.449869550764560699e-02 -8.423831313848495483e-02 7.434290647506713867e-02 2.838130109012126923e-02 2.047749422490596771e-02 -5.513839796185493469e-02 1.000684350728988647e-01 -9.077507071197032928e-03 -1.867729984223842621e-02 6.667567789554595947e-02 -1.842450164258480072e-02 3.631983324885368347e-02 2.178939059376716614e-02 -5.535941943526268005e-02 3.648253530263900757e-02 -4.060569778084754944e-02 -1.790710911154747009e-02 -1.511167455464601517e-02 -4.309131298214197159e-03 3.740537539124488831e-02 -6.394892930984497070e-02 -4.932028241455554962e-03
-3.514651954174041748e-02 5.331705883145332336e-02 -2.968386746942996979e-03 -5.536498129367828369e-02 -3.817001730203628540e-02 -1.037457585334777832e-01 -6.332432478666305542e-02 1.414766255766153336e-02 -3.037607483565807343e-02 1.534317806363105774e-02 -3.049149177968502045e-02 -8.086846023797988892e-02 8.835933357477188110e-02 1.947853341698646545e-02 5.383822694420814514e-02 -1.551416702568531036e-02 7.528854161500930786e-02 -1.771354232914745808e-03 -1.122770737856626511e-02 5.062979832291603088e-02 -9.040337987244129181e-03 1.617693901062011719e-02 5.984737724065780640e-02 -4.718051478266716003e-02 -3.299799049273133278e-03 5.025181546807289124e-02 -2.880580350756645203e-02 -2.648987062275409698e-02 1.114183943718671799e-02 2.379329502582550049e-02 -5.393814668059349060e-02 -1.335213705897331238e-02
-2.537686377763748169e-02 7.374154869467020035e-03 3.381552174687385559e-03 -3.721910715103149414e-02 -2.739680372178554535e-02 -1.009331643581390381e-01 -4.389619082212448120e-02 1.298942044377326965e-02 -2.876830287277698517e-03 2.559487149119377136e-02 -1.866722293198108673e-02 -7.129333913326263428e-02 7.423737645149230957e-02 -2.691542031243443489e-03 3.598295524716377258e-02 -5.490140058100223541e-03 8.585773408412933350e-02 2.550446987152099609e-02 -6.354192271828651428e-03 1.609950512647628784e-02 2.161366399377584457e-03 -6.253942381590604782e-03 6.343968957662582397e-02 -2.177539654076099396e-02 -2.377488464117050171e-02 8.405608683824539185e-02 -1.497536990791559219e-02 2.522020076867192984e-04 4.264492914080619812e-02 -7.162276189774274826e-03 -3.795806318521499634e-02 1.765038445591926575e-02
-2.394761890172958374e-03 -2.143894508481025696e-02 -1.405431982129812241e-02 -1.100671850144863129e-02 -3.943841904401779175e-02 -7.622321695089340210e-02 -3.575355745851993561e-03 -8.149558678269386292e-03 -2.998373471200466156e-03 1.327618770301342010e-02 -9.732667356729507446e-03 -6.146664544939994812e-02 3.393214941024780273e-02 -1.327438559383153915e-02 3.193484246730804443e-02 1.142549887299537659e-02 6.844232231378555298e-02 3.142332658171653748e-02 1.392760034650564194e-02 1.302881632000207901e-02 2.464179508388042450e-02 1.844013342633843422e-03 3.518717363476753235e-02 -4.182967543601989746e-02 1.639867387712001801e-02 7.197657227516174316e-02 9.945832192897796631e-03 1.733938232064247131e-02 4.459543153643608093e-02 -2.442277595400810242e-02 -5.901035293936729431e-02 4.712204262614250183e-02
-2.193997148424386978e-03 -4.974277690052986145e-02 -3.762705996632575989e-02 1.208657864481210709e-02 -4.551453515887260437e-02 -1.982472278177738190e-02 1.431669201701879501e-02 -2.587113156914710999e-02 -6.402122788131237030e-03 6.451951339840888977e-03 -3.069611033424735069e-03 -4.248682036995887756e-02 1.436682697385549545e-02 -1.124873524531722069e-03 1.212962996214628220e-02 2.950214780867099762e-03 4.884244129061698914e-02 2.281310781836509705e-02 2.304931357502937317e-02 1.553924381732940674e-02 5.145723000168800354e-02 -1.420188229531049728e-02 -8.949821814894676208e-03 -6.023016944527626038e-02 6.161389872431755066e-02 4.855524376034736633e-02 7.040497660636901855e-02 1.576940529048442841e-02 3.558298945426940918e-02 -3.900868445634841919e-02 -7.553759962320327759e-02 5.381638556718826294e-02
-9.860870242118835449e-02 -7.401991169899702072e-03 -8.123715966939926147e-02 9.385139495134353638e-02 4.487626254558563232e-03 -4.756315052509307861e-02 -3.163142129778862000e-02 -6.593701243400573730e-02 -3.750796616077423096e-02 6.134268641471862793e-02 8.715309947729110718e-02 3.982535377144813538e-02 2.621228247880935669e-02 1.967893354594707489e-02 -1.213062927126884460e-02 -6.887362804263830185e-03 2.894050627946853638e-02 -1.743939071893692017e-01 1.958365738391876221e-02 -1.151938922703266144e-02 -6.690987199544906616e-02 2.930667623877525330e-02 -9.599181823432445526e-03 1.146904453635215759e-01 -1.120736543089151382e-02 3.370261564850807190e-02 -2.908816561102867126e-03 2.560151740908622742e-02 -5.891634896397590637e-02 3.590664267539978027e-02 6.430623680353164673e-02 -7.496316730976104736e-02
-8.020420372486114502e-02 5.875842645764350891e-03 -6.847193092107772827e-02 6.112596765160560608e-02 7.465951144695281982e-03 -2.309288084506988525e-02 -9.161078371107578278e-03 -3.642554581165313721e-02 -3.339297696948051453e-02 7.226491719484329224e-02 4.026514664292335510e-02 5.814710631966590881e-02 5.714340135455131531e-02 1.927024871110916138e-02 5.761318281292915344e-02 8.426918648183345795e-03 1.990844868123531342e-02 -1.352094709873199463e-01 -1.518189441412687302e-02 -2.814013324677944183e-02 -9.400413185358047485e-02 -3.821105696260929108e-03 1.207473780959844589e-02 1.578759700059890747e-01 -1.331734471023082733e-02 5.569026991724967957e-02 3.099607117474079132e-02 -7.511348929256200790e-03 -6.150113046169281006e-02 -1.631133258342742920e-03 7.378619909286499023e-02 -5.483411252498626709e-02
-2.429226227104663849e-02 -1.286344486288726330e-04 -5.693065002560615540e-02 1.658897288143634796e-02 2.923213317990303040e-02 -2.711097942665219307e-03 1.087724044919013977e-02 -1.188799622468650341e-03 -4.145019873976707458e-02 5.542678385972976685e-02 3.101809136569499969e-02 3.545266389846801758e-02 9.221424907445907593e-02 -2.032077126204967499e-02 5.491497740149497986e-02 4.780498147010803223e-02 1.508113089948892593e-02 -6.438621878623962402e-02 -4.631495103240013123e-03 -5.416999012231826782e-02 -7.089111208915710449e-02 -8.711736649274826050e-03 5.794019624590873718e-02 1.333925426006317139e-01 -2.780970185995101929e-02 6.360651552677154541e-02 4.639589227735996246e-03 -6.259996443986892700e-02 -3.533813729882240295e-02 -2.699347212910652161e-02 8.504878729581832886e-02 -1.762892119586467743e-02
3.780611231923103333e-02 -3.972805570811033249e-03 -4.545805975794792175e-02 -2.431057021021842957e-02 2.839095517992973328e-02 9.089728817343711853e-03 1.650634780526161194e-02 1.536258403211832047e-02 -5.534412711858749390e-02 -1.288791559636592865e-02 4.321399331092834473e-02 -3.373109176754951477e-02 7.998267561197280884e-02 -6.326076388359069824e-02 4.833677783608436584e-02 1.935858093202114105e-02 2.043565362691879272e-02 -2.545679360628128052e-02 5.325392261147499084e-02 -4.246785119175910950e-02 -4.872344434261322021e-03 3.183047845959663391e-02 8.418745547533035278e-02 7.581169158220291138e-02 -4.712353646755218506e-02 4.150158539414405823e-02 -8.015075698494911194e-03 -7.946130633354187012e-02 3.951722756028175354e-03 -1.008490938693284988e-02 5.145607888698577881e-02 5.197891034185886383e-03
4.314188659191131592e-02 -7.585679180920124054e-03 -1.925773173570632935e-02 -8.976950496435165405e-02 1.376009639352560043e-02 3.789808601140975952e-02 -1.463210117071866989e-02 -4.793095868080854416e-03 -3.169880434870719910e-02 -2.758145518600940704e-02 9.925722330808639526e-02 -4.925943538546562195e-02 4.828973114490509033e-02 -6.403390318155288696e-02 8.822513744235038757e-03 -1.053471583873033524e-02 8.988475427031517029e-03 -2.116599818691611290e-03 8.457306027412414551e-02 -9.175285813398659229e-04 3.236927092075347900e-02 3.303247690200805664e-02 6.723076850175857544e-02 -1.077459938824176788e-02 -5.243293568491935730e-02 1.842972822487354279e-03 -3.678879886865615845e-02 -1.065626367926597595e-02 3.248244524002075195e-02 -2.048690430819988251e-02 1.066316012293100357e-02 1.944526284933090210e-02
-1.284978687763214111e-01 -3.542744368314743042e-02 -1.795128337107598782e-03 -2.582601504400372505e-03 -1.903953030705451965e-02 2.725250646471977234e-02 -5.316073819994926453e-02 -6.252979394048452377e-03 -3.443345800042152405e-02 5.323605984449386597e-02 1.064985319972038269e-01 1.083342656493186951e-01 7.367863506078720093e-02 4.063251242041587830e-02 3.430921211838722229e-02 1.403922960162162781e-02 4.225934669375419617e-02 -9.655845910310745239e-02 4.005184024572372437e-02 5.024154111742973328e-02 -5.812048166990280151e-02 -2.875416167080402374e-02 -4.959098249673843384e-02 1.025388017296791077e-01 1.803670264780521393e-02 3.002342209219932556e-02 -1.932121627032756805e-02 1.914129406213760376e-02 -6.059661135077476501e-02 8.139632642269134521e-03 6.213251501321792603e-02 -8.984138816595077515e-02
-1.109582185745239258e-01 -3.401261568069458008e-02 -6.770090200006961823e-03 -2.420203760266304016e-02 -1.807671226561069489e-02 4.007768630981445312e-02 -3.911984153091907501e-03 -1.955920457839965820e-02 -3.119056858122348785e-02 8.376800268888473511e-02 6.824639439582824707e-02 1.217125654220581055e-01 1.151884123682975769e-01 5.539081990718841553e-02 8.683407306671142578e-02 1.806681789457798004e-02 1.898746006190776825e-02 -3.497204557061195374e-02 -1.621796749532222748e-02 -5.828994326293468475e-04 -1.055654212832450867e-01 -7.599555701017379761e-02 -7.304764539003372192e-02 1.374419778585433960e-01 4.462113603949546814e-02 3.211667761206626892e-02 3.173930570483207703e-03 -2.530463412404060364e-02 -3.542829304933547974e-02 -1.971650170162320137e-03 9.400121867656707764e-02 -8.965051919221878052e-02
-1.826799474656581879e-02 -4.670102149248123169e-02 -3.166277334094047546e-02 -6.736701726913452148e-02 4.265126306563615799e-03 4.277586191892623901e-02 3.383289650082588196e-02 -2.152088284492492676e-02 -2.804546430706977844e-02 8.803080022335052490e-02 4.559997841715812683e-02 9.247602522373199463e-02 1.193537637591362000e-01 -4.512137267738580704e-03 7.900080084800720215e-02 3.497752547264099121e-02 9.678641334176063538e-03 3.780935332179069519e-02 -4.718442633748054504e-02 -5.123424902558326721e-02 -1.010842993855476379e-01 -8.032544702291488647e-02 -9.151051193475723267e-02 1.273386776447296143e-01 3.549648448824882507e-02 2.387337945401668549e-02 -1.957118324935436249e-02 -5.649304762482643127e-02 -6.505377590656280518e-03 -7.567802909761667252e-03 1.261382997035980225e-01 -5.230185389518737793e-02
6.096374988555908203e-02 -4.063421115279197693e-02 -4.214399307966232300e-02 -9.362126886844635010e-02 -1.483440166339278221e-03 2.665266580879688263e-02 4.355961456894874573e-02 3.031292697414755821e-03 -2.580939792096614838e-02 3.388154134154319763e-02 2.674172073602676392e-02 2.692734450101852417e-02 7.103838771581649780e-02 -9.439454227685928345e-02 3.808955103158950806e-02 1.129688229411840439e-02 3.520279377698898315e-02 3.366471081972122192e-02 -1.567729189991950989e-02 -4.922766610980033875e-02 -4.624315723776817322e-02 -6.100945174694061279e-02 -8.783731609582901001e-02 8.093646168708801270e-02 6.097421981394290924e-03 2.432165108621120453e-02 -1.065033208578824997e-02 -4.013335704803466797e-02 1.115412171930074692e-02 2.017003484070301056e-03 1.015536710619926453e-01 -1.739011332392692566e-02
5.160927399992942810e-02 -2.276642434298992157e-02 -3.388737142086029053e-02 -1.088337153196334839e-01 -1.483836211264133453e-02 2.263887785375118256e-02 1.582726463675498962e-02 1.744405739009380341e-02 1.530334167182445526e-02 1.662897877395153046e-02 3.162727132439613342e-02 -1.174206193536520004e-02 1.114428043365478516e-02 -1.354805231094360352e-01 -1.523173297755420208e-03 -2.173343859612941742e-02 3.208753094077110291e-02 2.383439987897872925e-02 2.969438582658767700e-02 -1.177513506263494492e-02 1.286491192877292633e-02 -5.488139018416404724e-02 -5.514279380440711975e-02 -7.063068915158510208e-03 1.221694890409708023e-02 1.449801959097385406e-02 -3.068417683243751526e-02 3.733107820153236389e-02 5.473041441291570663e-03 2.182664908468723297e-02 6.386586278676986694e-02 1.684205606579780579e-02
-6.117360666394233704e-02 1.493333722464740276e-03 8.072298020124435425e-02 -8.408654481172561646e-03 -3.123677894473075867e-02 4.700650274753570557e-02 -3.188811615109443665e-02 1.180956885218620300e-02 -4.145680740475654602e-02 -1.154899317771196365e-02 9.990698099136352539e-02 8.990036323666572571e-03 5.557324737310409546e-02 1.197565719485282898e-01 1.816252246499061584e-02 6.599263846874237061e-02 3.183152899146080017e-02 3.730628266930580139e-02 2.879922091960906982e-02 9.513156116008758545e-02 -8.887749910354614258e-02 -1.499539148062467575e-02 -3.363634273409843445e-02 3.648172318935394287e-02 -4.305974394083023071e-02 -1.417617872357368469e-02 8.797500049695372581e-04 -1.199756935238838196e-02 -4.313055425882339478e-02 -5.959387496113777161e-02 3.454776108264923096e-02 -7.122197747230529785e-02
-9.847539663314819336e-02 -7.470811251550912857e-03 7.946687936782836914e-02 -5.256196483969688416e-02 -2.353565767407417297e-02 5.640407279133796692e-02 2.139799483120441437e-02 -1.055266149342060089e-02 -4.376797005534172058e-02 1.892199926078319550e-02 7.490061968564987183e-02 3.206856176257133484e-02 7.845149189233779907e-02 1.371838450431823730e-01 6.531735509634017944e-02 6.980634480714797974e-02 -9.967143647372722626e-03 6.868336349725723267e-02 -2.635707706212997437e-02 5.656869336962699890e-02 -1.016219556331634521e-01 -5.412572622299194336e-02 -8.083650469779968262e-02 5.018749460577964783e-02 1.251341775059700012e-02 6.717672571539878845e-03 -8.747597225010395050e-03 -6.916206330060958862e-02 -8.547743782401084900e-03 -2.498473227024078369e-02 5.479453504085540771e-02 -8.937074244022369385e-02
-3.460000082850456238e-02 -1.290274690836668015e-02 7.845538854598999023e-02 -9.291664510965347290e-02 7.023176876828074455e-04 5.009289830923080444e-02 7.565230131149291992e-02 -3.222355246543884277e-02 -4.243832454085350037e-02 5.074916034936904907e-02 6.029077619314193726e-02 4.024890065193176270e-02 8.147050440311431885e-02 7.476620376110076904e-02 5.690876394510269165e-02 6.447335332632064819e-02 2.462857402861118317e-03 1.066841259598731995e-01 -6.246545910835266113e-02 1.922303228639066219e-03 -1.032888218760490417e-01 -5.804340913891792297e-02 -1.172842979431152344e-01 3.953128680586814880e-02 6.043536961078643799e-02 -4.064295906573534012e-03 -2.821927145123481750e-02 -8.270623534917831421e-02 2.365648373961448669e-02 5.660505034029483795e-03 7.826376706361770630e-02 -4.842370003461837769e-02
5.366056412458419800e-02 -5.490417592227458954e-03 4.996044561266899109e-02 -8.968603610992431641e-02 -1.625771075487136841e-02 4.472034052014350891e-02 9.316346049308776855e-02 -2.955123223364353180e-02 -3.574903309345245361e-02 2.587261423468589783e-02 2.406666241586208344e-02 -7.415123749524354935e-03 3.159669041633605957e-02 -2.237228117883205414e-02 3.547695651650428772e-02 5.171816423535346985e-02 1.148344948887825012e-02 8.278899639844894409e-02 -3.384475782513618469e-02 -1.850348152220249176e-02 -6.426150351762771606e-02 -5.171444267034530640e-02 -1.277760118246078491e-01 1.786177605390548706e-02 6.106614693999290466e-02 -4.135350231081247330e-03 7.659584283828735352e-03 -7.093724608421325684e-02 2.142810635268688202e-02 1.546433661133050919e-02 5.871359631419181824e-02 -1.966008730232715607e-02
5.336418375372886658e-02 7.762067019939422607e-03 1.134712528437376022e-02 -8.228019624948501587e-02 -3.929701074957847595e-02 4.042007029056549072e-02 5.090359970927238464e-02 1.723186112940311432e-03 -8.396889315918087959e-04 3.751861397176980972e-03 8.024851791560649872e-03 -6.647580862045288086e-02 -3.625700995326042175e-02 -8.843679726123809814e-02 -3.559191524982452393e-02 4.007804673165082932e-03 -1.424572197720408440e-03 4.870363324880599976e-02 1.299729198217391968e-02 -1.778413541615009308e-02 -3.500100970268249512e-02 -4.305520653724670410e-02 -1.046071648597717285e-01 -4.581347480416297913e-02 4.433972015976905823e-02 9.228321723639965057e-03 8.938916958868503571e-03 -6.333662196993827820e-03 1.736442744731903076e-02 4.079386219382286072e-02 2.276034466922283173e-02 2.356420457363128662e-02
-2.312162704765796661e-02 8.755771070718765259e-02 9.191933274269104004e-02 -1.580654829740524292e-02 -5.169136449694633484e-02 -3.704436868429183960e-02 -1.871982961893081665e-02 -3.500879975035786629e-03 3.396616084501147270e-03 -4.559244494885206223e-03 5.304004251956939697e-02 -4.619956482201814651e-03 2.114216051995754242e-02 1.062754169106483459e-01 -2.584282308816909790e-02 6.838951259851455688e-02 3.985144942998886108e-02 5.538207292556762695e-02 1.264943974092602730e-03 4.577426239848136902e-02 -3.449497744441032410e-02 -3.626260161399841309e-02 -5.621002241969108582e-02 -5.676804482936859131e-02 -6.027478724718093872e-02 -1.580019481480121613e-02 4.458451271057128906e-02 6.459733936935663223e-03 1.134591083973646164e-02 -5.027310922741889954e-02 -2.864449284970760345e-02 -3.661740198731422424e-02
-8.847105503082275391e-02 5.085606873035430908e-02 1.149084568023681641e-01 -4.706192389130592346e-02 -4.569211229681968689e-02 -5.888534337282180786e-02 2.770597860217094421e-02 -1.373199373483657837e-02 -4.341341555118560791e-03 2.468310296535491943e-02 2.396416477859020233e-02 3.370521962642669678e-02 4.176507145166397095e-02 1.560487151145935059e-01 -4.431015113368630409e-04 7.289623469114303589e-02 3.284313715994358063e-03 6.743717938661575317e-02 -1.557243335992097855e-02 4.665020480751991272e-02 -3.497744351625442505e-02 -6.274589151144027710e-02 -6.860961765050888062e-02 -4.012196883559226990e-02 -5.272939056158065796e-02 1.122536370530724525e-03 2.270535565912723541e-02 -3.689121454954147339e-02 1.459261123090982437e-02 -1.780164986848831177e-02 1.103465165942907333e-02 -7.880225032567977905e-02
-4.214007034897804260e-02 1.416171714663505554e-02 1.112257912755012512e-01 -6.919550895690917969e-02 -2.425989694893360138e-02 -6.411147117614746094e-02 9.165585041046142578e-02 -2.755012363195419312e-02 -2.724367380142211914e-02 5.097345262765884399e-02 -1.677778549492359161e-02 3.414493054151535034e-02 4.223727807402610779e-02 1.384431272745132446e-01 1.772885443642735481e-03 5.477666482329368591e-02 -5.251071881502866745e-03 8.213006705045700073e-02 -3.390905261039733887e-02 4.025049135088920593e-02 -2.565103955566883087e-02 -5.008528381586074829e-02 -6.449842453002929688e-02 -2.864596061408519745e-02 -1.799381151795387268e-02 -8.749869652092456818e-03 5.504126194864511490e-03 -4.675620049238204956e-02 2.182561345398426056e-02 3.284021979197859764e-03 4.114005342125892639e-02 -5.022421479225158691e-02
3.119417093694210052e-02 -4.485334735363721848e-03 6.927561014890670776e-02 -6.481108814477920532e-02 -3.635993227362632751e-02 -4.686304181814193726e-02 1.191046312451362610e-01 -4.175212234258651733e-02 -4.107902571558952332e-02 2.071247249841690063e-02 -3.523701056838035583e-02 3.878702409565448761e-03 9.950323961675167084e-03 9.016473591327667236e-02 -5.707403644919395447e-03 2.632293663918972015e-02 7.195086218416690826e-03 3.000559285283088684e-02 -2.487456053495407104e-02 3.028857707977294922e-02 5.372602026909589767e-03 -5.169817805290222168e-02 -5.088855698704719543e-02 -3.175518661737442017e-02 2.121876366436481476e-02 -1.199753768742084503e-02 2.391358837485313416e-02 -3.151376545429229736e-02 7.246222347021102905e-03 2.268479205667972565e-02 2.620571479201316833e-02 -2.710486389696598053e-02
5.002161860466003418e-02 -1.885619945824146271e-03 2.604220993816852570e-02 -5.664038658142089844e-02 -5.551702529191970825e-02 -3.214385127648711205e-03 7.684682309627532959e-02 -2.102191746234893799e-02 -3.743968205526471138e-03 3.557328600436449051e-03 -4.465842247009277344e-02 -3.918030858039855957e-02 -2.183889038860797882e-02 4.669621214270591736e-02 -6.458465754985809326e-02 -6.836583372205495834e-03 2.561766095459461212e-02 -1.058559399098157883e-02 -7.672405336052179337e-03 1.557098422199487686e-02 8.329218253493309021e-03 -4.089436680078506470e-02 -4.956236481666564941e-02 -6.414557993412017822e-02 1.807928457856178284e-02 2.141121029853820801e-02 1.949720829725265503e-02 2.025531418621540070e-02 2.514840103685855865e-03 4.046045243740081787e-02 -2.129180170595645905e-02 3.402664326131343842e-03
-3.673025406897068024e-03 5.025862529873847961e-02 2.306783013045787811e-02 3.373221680521965027e-02 -4.704633355140686035e-02 -1.318457424640655518e-01 -1.388014759868383408e-02 -9.003005921840667725e-03 -1.425823010504245758e-02 3.463762113824486732e-03 2.258377522230148315e-02 -3.650334104895591736e-02 1.914286520332098007e-03 -1.402440853416919708e-02 -9.523920714855194092e-03 -8.219170384109020233e-03 2.830844745039939880e-02 1.049518026411533356e-02 7.609630469232797623e-03 3.066031262278556824e-03 -5.887686833739280701e-02 -8.270035032182931900e-04 -2.312744595110416412e-02 -6.834910064935684204e-02 -2.067011035978794098e-02 -4.831986874341964722e-02 -1.665942929685115814e-02 1.909806765615940094e-02 6.496480107307434082e-02 2.024663612246513367e-02 -1.435542292892932892e-02 -6.945400498807430267e-03
-4.182815924286842346e-02 3.609216213226318359e-02 3.603551536798477173e-02 -5.030203610658645630e-03 -2.823324874043464661e-02 -1.454890221357345581e-01 1.733594574034214020e-02 -5.704351235181093216e-03 4.664502106606960297e-03 2.674260921776294708e-02 3.011192660778760910e-03 1.724018715322017670e-02 3.808470442891120911e-02 3.929679840803146362e-02 4.631873220205307007e-03 -1.248839870095252991e-02 1.703400048427283764e-03 1.810333877801895142e-02 8.164510130882263184e-03 1.443228404968976974e-02 -2.125627361238002777e-02 -1.396629493683576584e-02 9.808121249079704285e-03 -4.505193606019020081e-02 -5.912511795759201050e-02 -2.157187089323997498e-02 -2.430550940334796906e-02 -1.385141257196664810e-02 3.926314413547515869e-02 1.632340252399444580e-02 5.466125905513763428e-03 -2.597535774111747742e-02
-7.201472297310829163e-03 8.044720627367496490e-03 4.358986765146255493e-02 -2.751801349222660065e-02 -7.838573306798934937e-03 -1.432284414768218994e-01 6.326640397310256958e-02 1.207188796252012253e-02 -3.849255153909325600e-03 6.352330744266510010e-02 -2.275501936674118042e-02 2.397653646767139435e-02 3.888363018631935120e-02 6.437207013368606567e-02 -8.791596046648919582e-04 -2.841796912252902985e-02 8.682197891175746918e-03 6.207390129566192627e-02 -3.610669809859246016e-04 2.355575188994407654e-02 1.087772846221923828e-02 -2.986318198963999748e-03 3.465500101447105408e-02 -2.800226956605911255e-02 -6.300298124551773071e-02 -3.148020431399345398e-02 9.703098796308040619e-03 -1.502289250493049622e-02 3.967172279953956604e-02 5.213489290326833725e-03 2.209527604281902313e-02 2.619338454678654671e-03
4.845128953456878662e-02 -9.370204061269760132e-03 4.070725757628679276e-03 -3.445572033524513245e-02 -1.690423302352428436e-02 -9.554870426654815674e-02 7.044794410467147827e-02 1.144093647599220276e-02 -3.926227614283561707e-02 2.625963278114795685e-02 -5.290167033672332764e-02 1.542245410382747650e-02 2.766089141368865967e-02 3.519131988286972046e-02 -1.508582476526498795e-02 -3.041457384824752808e-02 -4.589120391756296158e-03 3.028238192200660706e-02 -4.274511709809303284e-03 2.740431018173694611e-02 3.914990648627281189e-02 5.980889778584241867e-03 3.845657035708427429e-02 -5.429708212614059448e-02 -2.946281060576438904e-02 -4.074637219309806824e-02 4.973230138421058655e-02 -3.872366796713322401e-04 2.441919036209583282e-02 -1.789507106877863407e-03 7.713131140917539597e-03 2.054950036108493805e-02
6.260463595390319824e-02 -6.341208063531666994e-05 -5.036395043134689331e-02 -4.652640223503112793e-02 -4.528545960783958435e-02 -3.582315891981124878e-02 4.563567414879798889e-02 3.135599661618471146e-03 -2.641959302127361298e-02 3.953533014282584190e-04 -6.062784045934677124e-02 1.473251148127019405e-03 3.072611615061759949e-02 1.302738208323717117e-03 -7.481218874454498291e-02 -5.214615538716316223e-02 -1.047840807586908340e-02 1.300043798983097076e-02 3.063497366383671761e-03 3.141960874199867249e-02 4.724258929491043091e-02 -5.885501392185688019e-03 1.963931508362293243e-02 -1.329529732465744019e-01 -6.170036271214485168e-03 -2.857819758355617523e-02 4.338659718632698059e-02 3.832470998167991638e-02 1.891654543578624725e-02 -1.604602672159671783e-02 -8.241972886025905609e-03 5.440530925989151001e-02
-4.257117956876754761e-02 -5.153420940041542053e-02 -2.698232606053352356e-02 3.629348799586296082e-02 2.251553907990455627e-02 -5.254069343209266663e-03 -6.423689424991607666e-02 -2.056052349507808685e-02 -1.053655240684747696e-02 2.971482835710048676e-02 3.567741811275482178e-02 5.281408503651618958e-02 3.985239937901496887e-02 2.174370735883712769e-02 2.623672038316726685e-02 -1.834409311413764954e-02 3.861303254961967468e-02 -2.093736268579959869e-02 3.755304589867591858e-02 -2.095239609479904175e-02 3.183092176914215088e-02 2.320620790123939514e-02 -3.013604693114757538e-02 3.361938521265983582e-02 -2.628976106643676758e-02 3.083890117704868317e-02 6.725252419710159302e-02 1.491039246320724487e-02 -8.390112221240997314e-02 2.349385991692543030e-02 2.024939982220530510e-03 -4.664462804794311523e-02
-3.653261438012123108e-02 -1.495496835559606552e-02 -3.127454966306686401e-02 3.548603132367134094e-02 2.382972091436386108e-02 -1.041900552809238434e-02 -4.890825226902961731e-02 -2.537074312567710876e-02 -2.197662368416786194e-02 3.453515470027923584e-02 2.409702539443969727e-02 7.962808012962341309e-02 4.078983142971992493e-02 1.805031299591064453e-02 4.102865606546401978e-02 -1.475032977759838104e-02 4.313073679804801941e-02 1.803193800151348114e-02 2.566023729741573334e-02 -2.934544719755649567e-02 -1.124162971973419189e-02 -8.692970499396324158e-03 -8.724841289222240448e-03 5.124559253454208374e-02 -1.179401017725467682e-02 2.729181945323944092e-02 5.953699722886085510e-02 1.394465565681457520e-02 -8.630013465881347656e-02 1.233150716871023178e-02 2.422170015051960945e-03 -5.876800417900085449e-02
-6.997577380388975143e-03 1.145972497761249542e-02 -3.621822223067283630e-02 2.370209433138370514e-02 2.819710224866867065e-02 -1.609407737851142883e-02 -3.352978080511093140e-02 -3.171141073107719421e-02 -3.703821823000907898e-02 4.303777217864990234e-02 1.250448729842901230e-02 7.094524800777435303e-02 2.517032064497470856e-02 -1.115704770199954510e-03 2.890578843653202057e-02 -6.801514886319637299e-03 5.885557830333709717e-02 7.632943987846374512e-02 2.339132502675056458e-02 -4.545795544981956482e-02 -4.103262722492218018e-02 -1.220051292330026627e-02 1.459985785186290741e-02 5.124667659401893616e-02 2.898900769650936127e-02 2.681988663971424103e-02 2.443127334117889404e-02 3.551073838025331497e-03 -8.537849038839340210e-02 1.176066696643829346e-02 1.211818866431713104e-02 -5.077690631151199341e-02
2.086204476654529572e-02 1.016439124941825867e-02 -2.936323359608650208e-02 6.333006545901298523e-03 2.226110920310020447e-02 -1.989835128188133240e-02 -2.823303081095218658e-02 -3.092727810144424438e-02 -4.996851086616516113e-02 2.134000696241855621e-02 -5.537120159715414047e-03 4.005216434597969055e-02 -7.326378952711820602e-03 -1.113187428563833237e-02 1.840165629982948303e-02 -2.364680403843522072e-04 4.432932287454605103e-02 7.957599312067031860e-02 1.762122847139835358e-02 -5.918038263916969299e-02 -2.853994630277156830e-02 4.463107790797948837e-03 9.036018513143062592e-03 2.950287610292434692e-02 5.638127401471138000e-02 1.603574492037296295e-02 9.655099362134933472e-03 8.254485204815864563e-03 -6.396982073783874512e-02 6.272396538406610489e-03 1.330640166997909546e-02 -2.535412833094596863e-02
3.892933577299118042e-02 -1.379618421196937561e-02 -1.280043646693229675e-02 -1.933470554649829865e-02 1.179816201329231262e-02 -1.672089658677577972e-02 -2.090473845601081848e-02 -2.773453108966350555e-02 -4.245723783969879150e-02 1.462798565626144409e-02 -2.185018174350261688e-02 3.149547846987843513e-03 -1.618544384837150574e-02 -1.815775968134403229e-02 1.746820867992937565e-03 6.878378335386514664e-03 3.373556956648826599e-02 4.877153411507606506e-02 9.861677885055541992e-03 -5.861242115497589111e-02 5.356193054467439651e-03 2.693782001733779907e-02 -1.588604412972927094e-02 4.600095562636852264e-03 5.440930277109146118e-02 -1.252114493399858475e-02 1.764095388352870941e-02 6.035029888153076172e-03 -3.979705274105072021e-02 -1.408004667609930038e-02 1.407337840646505356e-02 7.865338586270809174e-03
-4.162102565169334412e-02 -2.206664346158504486e-02 3.956712782382965088e-03 1.156706828624010086e-02 -3.540171682834625244e-02 1.841859892010688782e-02 -8.027047663927078247e-02 -1.865592598915100098e-02 -1.977565325796604156e-02 -1.672753505408763885e-02 5.691033788025379181e-03 1.642265729606151581e-02 9.675592929124832153e-02 3.633413091301918030e-02 2.874088240787386894e-04 -2.956143207848072052e-02 2.805774100124835968e-02 8.618086576461791992e-03 2.231579646468162537e-02 1.322869490832090378e-02 -2.715360140427947044e-03 1.654618047177791595e-02 -1.601810567080974579e-02 3.732106089591979980e-02 -5.541972443461418152e-02 6.110965088009834290e-02 8.805958181619644165e-02 2.434554323554039001e-02 -9.902111440896987915e-02 -6.478159921243786812e-04 1.246109837666153908e-03 -4.851345345377922058e-02
-4.002536088228225708e-02 1.191512774676084518e-02 1.509445346891880035e-02 -5.360824521631002426e-03 -2.508851513266563416e-02 5.499552935361862183e-03 -6.773646175861358643e-02 -3.290512412786483765e-02 -2.817130647599697113e-02 -1.585841923952102661e-02 -1.321543008089065552e-02 2.961634099483489990e-02 8.144932985305786133e-02 2.880268916487693787e-02 1.382570248097181320e-02 -2.139330282807350159e-02 2.546670474112033844e-02 4.844190180301666260e-02 1.210653409361839294e-02 -9.840450249612331390e-03 -3.246958926320075989e-02 -1.292000617831945419e-02 1.903076306916773319e-03 6.441991031169891357e-02 -2.299033291637897491e-02 5.993463844060897827e-02 7.406292110681533813e-02 1.742937602102756500e-02 -1.085231676697731018e-01 1.284141000360250473e-02 1.021669618785381317e-02 -6.169620156288146973e-02
2.921376377344131470e-03 3.560066223144531250e-02 1.839401014149188995e-02 -2.041936293244361877e-02 -9.080084972083568573e-03 -2.030435763299465179e-02 -4.779428988695144653e-02 -5.006764084100723267e-02 -3.038131259381771088e-02 -8.797693997621536255e-03 -2.393808774650096893e-02 2.437150850892066956e-02 3.912366554141044617e-02 -1.030619628727436066e-02 6.695864722132682800e-03 -1.033351849764585495e-02 4.294124990701675415e-02 9.237103164196014404e-02 5.805743858218193054e-03 -3.362284600734710693e-02 -6.102667748928070068e-02 -2.362177893519401550e-02 1.013848185539245605e-02 7.121966779232025146e-02 3.788127750158309937e-02 5.661423504352569580e-02 3.626594692468643188e-02 1.769736409187316895e-02 -9.722606837749481201e-02 1.602830365300178528e-02 3.053134121000766754e-02 -5.165105685591697693e-02
4.865816980600357056e-02 5.136526376008987427e-02 2.767701633274555206e-02 -2.270338498055934906e-02 -1.298325136303901672e-02 -3.913559764623641968e-02 -3.425805270671844482e-02 -4.643591493368148804e-02 -3.261332213878631592e-02 -1.326800230890512466e-02 -4.235887154936790466e-02 1.159629551693797112e-03 -1.712351664900779724e-02 -4.137104377150535583e-02 -8.993112482130527496e-03 -5.309717264026403427e-03 3.219426050782203674e-02 7.819847017526626587e-02 -1.021394971758127213e-02 -4.748216271400451660e-02 -4.075586050748825073e-02 -2.298401296138763428e-02 -1.200712472200393677e-02 4.765213653445243835e-02 8.875086158514022827e-02 3.064990229904651642e-02 1.886056177318096161e-02 2.966178953647613525e-02 -7.309713214635848999e-02 1.580605469644069672e-02 3.005658648908138275e-02 -2.845793589949607849e-02
6.529288738965988159e-02 5.241117998957633972e-02 3.771105036139488220e-02 -1.903928443789482117e-02 -3.047180175781250000e-02 -3.379013016819953918e-02 -1.114187855273485184e-02 -3.163683414459228516e-02 -2.214837074279785156e-02 -5.638772621750831604e-03 -5.853494629263877869e-02 -2.288253977894783020e-02 -3.795032575726509094e-02 -5.956857651472091675e-02 -3.549687564373016357e-02 -8.080025203526020050e-03 8.521086536347866058e-03 3.796270117163658142e-02 -1.642777957022190094e-02 -4.877209290862083435e-02 -2.240429166704416275e-03 -1.486884430050849915e-02 -3.920141980051994324e-02 1.286747399717569351e-02 9.388231486082077026e-02 1.997426152229309082e-03 1.594039797782897949e-02 2.141923084855079651e-02 -4.018313065171241760e-02 1.425489038228988647e-02 2.174435183405876160e-02 2.125345170497894287e-02
6.110705435276031494e-03 6.380314379930496216e-02 4.610113427042961121e-02 1.468629762530326843e-02 -3.893143311142921448e-02 2.614536695182323456e-02 -8.269985765218734741e-02 -1.317337714135646820e-02 1.602241303771734238e-03 -2.485334873199462891e-02 -5.383256822824478149e-03 -4.738803580403327942e-02 5.958492681384086609e-02 5.505577102303504944e-02 -4.665448516607284546e-02 -1.587874814867973328e-02 4.963690787553787231e-02 3.053056634962558746e-02 1.140412595123052597e-02 2.865513972938060760e-02 -1.275135017931461334e-02 3.361945599317550659e-02 -3.706575836986303329e-03 -1.375066395848989487e-02 -1.047897562384605408e-01 5.432562157511711121e-02 1.918122917413711548e-02 2.359426207840442657e-02 -5.540018528699874878e-02 -1.370501145720481873e-02 -3.281872346997261047e-02 -3.447801247239112854e-02
-2.456539683043956757e-02 8.075796067714691162e-02 7.009354978799819946e-02 -1.441919896751642227e-02 -1.382919587194919586e-02 -1.407831162214279175e-02 -6.842760741710662842e-02 -2.389953657984733582e-02 6.239833775907754898e-03 -2.334595099091529846e-02 -1.833768188953399658e-02 -4.729831963777542114e-02 4.448899254202842712e-02 4.345202073454856873e-02 -5.181807279586791992e-02 -4.164189565926790237e-03 3.857084736227989197e-02 4.480921849608421326e-02 1.095976680517196655e-02 1.376898121088743210e-02 -1.947556436061859131e-02 -8.904262445867061615e-03 -4.527673590928316116e-03 6.961941253393888474e-03 -9.073388576507568359e-02 8.134906738996505737e-02 3.397147404029965401e-03 1.668120361864566803e-02 -6.197820231318473816e-02 -4.934212192893028259e-03 -2.394470199942588806e-02 -5.798326060175895691e-02
-1.154698990285396576e-02 8.693829178810119629e-02 9.379818290472030640e-02 -2.278210222721099854e-02 6.114278454333543777e-03 -4.944950714707374573e-02 -3.600348159670829773e-02 -3.594138100743293762e-02 1.551767694763839245e-03 -1.030080020427703857e-03 -4.216995835304260254e-02 -5.693154409527778625e-02 1.431186124682426453e-02 1.086344383656978607e-02 -4.925757646560668945e-02 6.016370840370655060e-03 5.346616730093955994e-02 6.801938265562057495e-02 9.889208711683750153e-03 -5.472004413604736328e-03 -2.868300490081310272e-02 -3.579638153314590454e-02 -1.458732876926660538e-02 2.230887673795223236e-02 -5.334043130278587341e-02 8.700010925531387329e-02 -1.705450378358364105e-02 1.555692777037620544e-02 -4.390047863125801086e-02 4.276392981410026550e-03 2.445104066282510757e-03 -5.370454117655754089e-02
2.535264007747173309e-02 7.410037517547607422e-02 7.948496937751770020e-02 -1.444607134908437729e-02 -5.609943531453609467e-03 -5.294554680585861206e-02 -8.219371549785137177e-03 -4.136042296886444092e-02 -7.861878722906112671e-03 9.552227566018700600e-04 -5.820078775286674500e-02 -7.189235836267471313e-02 -1.638498157262802124e-02 -2.482958696782588959e-02 -3.824359923601150513e-02 1.740546524524688721e-02 3.009906969964504242e-02 5.177738517522811890e-02 2.827733289450407028e-03 -2.895177528262138367e-02 -1.283897366374731064e-02 -3.603453934192657471e-02 -3.117526508867740631e-02 -2.985716855619102716e-04 1.559964031912386417e-03 5.858934298157691956e-02 -1.696632988750934601e-02 1.711832173168659210e-02 -1.373656187206506729e-02 8.769760839641094208e-03 8.589907549321651459e-03 -2.701020799577236176e-02
4.136669263243675232e-02 5.559344217181205750e-02 6.501291692256927490e-02 -2.797598950564861298e-03 -2.095533162355422974e-02 -3.014386817812919617e-02 -7.532638963311910629e-03 -2.826114930212497711e-02 -8.106634952127933502e-03 5.560216959565877914e-03 -6.697718054056167603e-02 -7.459908723831176758e-02 -3.631178289651870728e-02 -4.681881889700889587e-02 -4.940100759267807007e-02 2.989623695611953735e-02 1.799952238798141479e-02 1.871813647449016571e-02 3.124851034954190254e-03 -4.362907260656356812e-02 1.841666817199438810e-04 -3.075833618640899658e-02 -4.345386102795600891e-02 -2.492476999759674072e-02 2.850946597754955292e-02 1.921018771827220917e-02 4.322732798755168915e-03 4.551734775304794312e-03 1.041998993605375290e-02 2.935151383280754089e-02 -1.591747975908219814e-03 1.370684895664453506e-02
-1.569114811718463898e-02 6.868290901184082031e-02 2.356875687837600708e-02 1.858296059072017670e-02 -2.784938737750053406e-02 -1.870668306946754456e-02 -6.465071439743041992e-02 -1.048620231449604034e-02 5.318000447005033493e-03 -1.231898739933967590e-02 -4.183485172688961029e-03 -4.277170822024345398e-02 1.245245430618524551e-02 5.537403747439384460e-02 -3.759023547172546387e-02 -3.501704707741737366e-02 5.243301764130592346e-02 2.111568674445152283e-02 -1.084446720778942108e-02 3.987700864672660828e-02 2.331728301942348480e-02 4.744580015540122986e-02 7.866523228585720062e-03 -3.229393810033798218e-02 -5.324393138289451599e-02 3.688377887010574341e-02 -1.077032834291458130e-02 -5.326448008418083191e-03 -1.951175509020686150e-04 -2.592882141470909119e-03 -2.509088814258575439e-02 -3.011515364050865173e-02
-4.633438959717750549e-02 6.073026731610298157e-02 5.622617900371551514e-02 -2.059843391180038452e-02 -7.618462201207876205e-03 -5.594397336244583130e-02 -5.133482441306114197e-02 -1.567190326750278473e-02 8.361738175153732300e-03 -1.391698885709047318e-02 -2.127522043883800507e-02 -3.545245900750160217e-02 2.165534533560276031e-02 4.862827807664871216e-02 -3.089036978781223297e-02 -3.341230377554893494e-02 4.626993462443351746e-02 2.136115729808807373e-02 -2.937828889116644859e-03 3.223010897636413574e-02 1.235313527286052704e-02 7.272118702530860901e-03 3.270291537046432495e-02 -1.393390633165836334e-02 -6.973269581794738770e-02 7.679224759340286255e-02 -3.313776850700378418e-02 -1.360843610018491745e-02 -7.940476760268211365e-03 -5.756107158958911896e-03 -1.511351950466632843e-02 -3.667330741882324219e-02
-3.581513091921806335e-02 4.477652534842491150e-02 8.493837714195251465e-02 -2.535163797438144684e-02 1.792345196008682251e-02 -7.115560024976730347e-02 -2.564663812518119812e-02 -1.774605363607406616e-02 7.433943916112184525e-03 -6.584947928786277771e-03 -3.550806641578674316e-02 -3.389568999409675598e-02 2.728409366682171822e-03 2.368246391415596008e-02 -3.240870311856269836e-02 -2.637491375207901001e-02 5.498434603214263916e-02 2.748652733862400055e-02 6.850181613117456436e-03 2.101579122245311737e-02 6.702661979943513870e-03 -1.445758622139692307e-02 3.905914723873138428e-02 5.104942247271537781e-03 -7.124570012092590332e-02 8.593877404928207397e-02 -3.293884545564651489e-02 -2.568521536886692047e-03 -3.807963803410530090e-03 -8.424268104135990143e-03 -4.369981979834847152e-06 -2.425391972064971924e-02
4.422541242092847824e-03 3.445872664451599121e-02 7.516258955001831055e-02 -1.927625387907028198e-03 2.483091317117214203e-02 -5.891812220215797424e-02 -3.802130231633782387e-04 -2.519048750400543213e-02 5.329213454388082027e-04 -1.681504957377910614e-02 -3.592232614755630493e-02 -3.557639196515083313e-02 -2.368114702403545380e-02 9.090054780244827271e-03 -2.119109034538269043e-02 -8.576876483857631683e-03 4.761807993054389954e-02 2.194950170814990997e-02 -1.402714522555470467e-03 -3.822316182777285576e-03 1.814148575067520142e-02 -2.177494578063488007e-02 1.772585883736610413e-02 -9.673987515270709991e-03 -4.347967356443405151e-02 6.595692783594131470e-02 -4.667364992201328278e-03 1.314770057797431946e-02 1.652198284864425659e-02 1.245843479409813881e-03 -4.899056162685155869e-03 -1.620027050375938416e-02
1.425397302955389023e-02 2.106387168169021606e-02 4.383612051606178284e-02 2.285598590970039368e-02 1.630433462560176849e-02 -2.550479397177696228e-02 -6.801228504627943039e-03 -2.271412499248981476e-02 4.968358203768730164e-03 -2.035398595035076141e-02 -3.869270905852317810e-02 -2.880586124956607819e-02 -3.228875249624252319e-02 -1.087594777345657349e-02 -3.750785440206527710e-02 2.081827726215124130e-03 4.264027997851371765e-02 6.412399001419544220e-03 -1.341368071734905243e-03 -2.288630232214927673e-02 2.395385317504405975e-02 -3.444155678153038025e-02 -5.558500532060861588e-03 -2.754739671945571899e-02 -2.036811783909797668e-02 3.825893998146057129e-02 2.767786383628845215e-02 2.547758445143699646e-02 2.283403091132640839e-02 6.762701552361249924e-03 -1.744368672370910645e-02 1.116257160902023315e-02
-1.422200258821249008e-02 4.039732366800308228e-02 -1.510648895055055618e-02 2.047926560044288635e-02 -1.965527236461639404e-02 -6.347592175006866455e-02 -5.363588780164718628e-02 -3.242640197277069092e-02 -1.251627132296562195e-02 6.632627453655004501e-03 -5.760748405009508133e-03 -2.657567895948886871e-02 -1.044869702309370041e-02 1.602469384670257568e-02 -3.633560612797737122e-02 -2.111601643264293671e-02 2.756479009985923767e-02 -8.100106380879878998e-03 -6.522634997963905334e-03 1.612860523164272308e-02 3.492732718586921692e-02 1.756676472723484039e-02 4.143036494497209787e-04 1.181668136268854141e-02 1.143443980254232883e-03 2.425495535135269165e-03 -2.674131840467453003e-02 -3.431143611669540405e-02 4.737386852502822876e-02 1.573596149682998657e-02 6.911480333656072617e-03 -7.596567738801240921e-04
-2.756237611174583435e-02 3.352639451622962952e-02 8.059879764914512634e-03 -1.070039812475442886e-02 -6.968257948756217957e-03 -8.310414850711822510e-02 -3.570611774921417236e-02 -3.178818151354789734e-02 8.513258770108222961e-03 4.193626344203948975e-03 -1.583798672072589397e-03 -1.534150820225477219e-02 5.426183925010263920e-04 1.525930315256118774e-02 -1.567733660340309143e-02 -1.603156886994838715e-02 2.048303186893463135e-02 -2.489157766103744507e-02 -1.029490213841199875e-02 5.784099921584129333e-03 2.991545572876930237e-02 3.269266802817583084e-03 2.528910338878631592e-02 3.367624431848526001e-02 -2.274714969098567963e-02 3.604892641305923462e-02 -4.268802702426910400e-02 -5.655647814273834229e-02 4.248046129941940308e-02 -1.266468130052089691e-02 1.931673847138881683e-03 -5.974757950752973557e-03
-1.378355082124471664e-02 3.602359816431999207e-02 2.488721907138824463e-02 -1.087334286421537399e-02 2.395818382501602173e-02 -7.785258442163467407e-02 -1.947381161153316498e-02 -2.762925438582897186e-02 1.663097552955150604e-02 -2.166185993701219559e-03 6.416762247681617737e-03 -1.350272726267576218e-02 -1.287659071385860443e-02 -1.114311744458973408e-03 -1.877517439424991608e-03 -1.082096900790929794e-02 4.202110320329666138e-02 -4.324891604483127594e-03 -1.677264831960201263e-02 -6.506494246423244476e-04 2.947573550045490265e-02 -9.996328502893447876e-03 4.078352078795433044e-02 4.412965849041938782e-02 -4.193901270627975464e-02 4.999420791864395142e-02 -1.741404272615909576e-02 -3.543181344866752625e-02 3.731830790638923645e-02 -2.464272454380989075e-02 8.407589048147201538e-03 2.325339941307902336e-03
1.741994917392730713e-02 2.667011320590972900e-02 1.536256819963455200e-02 1.640526205301284790e-02 2.344431728124618530e-02 -4.863267391920089722e-02 -7.823967374861240387e-03 -2.364554256200790405e-02 1.036568824201822281e-02 -3.501976653933525085e-02 1.331035327166318893e-02 -8.024661801755428314e-03 -2.358696796000003815e-02 -1.538334507495164871e-02 1.402157545089721680e-02 -3.756382735446095467e-03 3.234046697616577148e-02 5.775906611233949661e-03 -2.240306697785854340e-02 -1.664539426565170288e-02 3.959212452173233032e-02 -1.970722898840904236e-02 3.413361683487892151e-02 1.200732495635747910e-02 -2.384162135422229767e-02 3.529801964759826660e-02 2.292645722627639771e-02 -8.016255684196949005e-03 3.613968566060066223e-02 -2.503163926303386688e-02 1.903454540297389030e-03 -2.078244928270578384e-03
2.324510365724563599e-02 1.005952712148427963e-02 -5.169807933270931244e-03 3.337194770574569702e-02 7.424763403832912445e-03 -1.015028357505798340e-02 -6.576120387762784958e-03 -3.243368491530418396e-02 1.716622523963451385e-02 -3.405122458934783936e-02 -1.345367636531591415e-02 1.931850711116567254e-04 -8.198462426662445068e-03 -3.310874104499816895e-02 1.952160848304629326e-03 -8.191928267478942871e-03 2.438617125153541565e-02 -2.794173778966069221e-03 -2.035825513303279877e-02 -2.029128372669219971e-02 3.936148434877395630e-02 -4.398933053016662598e-02 1.782067306339740753e-02 -2.843619324266910553e-02 4.756558220833539963e-03 5.450722761452198029e-03 4.551153257489204407e-02 2.385949343442916870e-02 2.062466181814670563e-02 -1.552731543779373169e-02 -5.192236043512821198e-03 9.971316903829574585e-03
-2.608825825154781342e-02 -5.249376874417066574e-03 -2.223037555813789368e-02 3.784553334116935730e-02 5.849982611835002899e-03 5.283324979245662689e-03 -3.183722496032714844e-02 -1.306196488440036774e-02 -7.466916926205158234e-03 5.841482803225517273e-02 1.838184520602226257e-02 4.557287693023681641e-02 4.706425964832305908e-02 1.453990116715431213e-02 8.166880346834659576e-03 -3.530273213982582092e-02 4.153237119317054749e-02 1.424707751721143723e-02 2.103137550875544548e-03 1.172322663478553295e-03 1.446250732988119125e-02 -3.150168806314468384e-02 -8.961752057075500488e-03 -1.010576821863651276e-02 1.176284626126289368e-03 1.478837057948112488e-02 2.295968495309352875e-02 8.281834423542022705e-03 -6.340123713016510010e-02 -5.477097583934664726e-04 -4.272861033678054810e-02 -1.805452047847211361e-03
-1.551344152539968491e-02 -4.470974206924438477e-03 -3.608141094446182251e-02 4.187364131212234497e-02 2.614978700876235962e-02 -1.266913581639528275e-02 8.616426959633827209e-03 -2.560313791036605835e-02 -2.373630926012992859e-02 5.872198939323425293e-02 2.043611556291580200e-02 7.059991359710693359e-02 5.938716605305671692e-02 7.203736808151006699e-03 1.089051365852355957e-02 -1.359008532017469406e-02 4.967218264937400818e-02 3.487460315227508545e-02 -1.464511454105377197e-02 -1.001931261271238327e-02 -6.848599761724472046e-03 -3.198941051959991455e-02 1.191351749002933502e-02 -1.049013808369636536e-02 2.437714301049709320e-02 7.525420747697353363e-03 2.995791286230087280e-02 -1.217100420035421848e-03 -7.593826949596405029e-02 -3.218137891963124275e-03 -3.895559906959533691e-02 -8.973348885774612427e-03
2.139258198440074921e-02 -1.598524861037731171e-02 -3.653135150671005249e-02 2.241531386971473694e-02 3.830926865339279175e-02 -1.399397477507591248e-02 3.189451247453689575e-02 -3.722880035638809204e-02 -4.044146835803985596e-02 6.194210797548294067e-02 4.406277555972337723e-03 6.746967881917953491e-02 6.321173906326293945e-02 1.166274523711763322e-04 -3.165032248944044113e-03 5.738454405218362808e-03 7.006852328777313232e-02 7.088144123554229736e-02 -1.919743604958057404e-02 -2.908980846405029297e-02 -2.032477408647537231e-02 -1.440044678747653961e-02 3.337279707193374634e-02 -2.299305051565170288e-02 4.478124529123306274e-02 -6.070381961762905121e-03 8.530159480869770050e-03 -6.200444418936967850e-03 -7.726801931858062744e-02 2.971791429445147514e-03 -2.725769206881523132e-02 4.553219769150018692e-03
4.488423094153404236e-02 -3.402226418256759644e-02 -3.314094617962837219e-02 -8.949904586188495159e-04 3.302626684308052063e-02 -1.359463296830654144e-02 3.699453547596931458e-02 -4.343350604176521301e-02 -5.281020700931549072e-02 3.320064023137092590e-02 -6.200017407536506653e-03 2.671798877418041229e-02 4.871160537004470825e-02 -1.019923714920878410e-03 -9.917313000187277794e-04 2.800109796226024628e-03 5.673494562506675720e-02 6.864062696695327759e-02 -1.103076525032520294e-02 -4.144062474370002747e-02 7.244604174047708511e-03 5.261665210127830505e-03 2.836553566157817841e-02 -2.034917660057544708e-02 6.204646453261375427e-02 -3.737942129373550415e-02 -2.044450026005506516e-03 -2.887310460209846497e-03 -7.767364382743835449e-02 6.436848081648349762e-03 -1.427594199776649475e-02 4.421603307127952576e-02
4.433868080377578735e-02 -6.231846287846565247e-02 -2.681044861674308777e-02 -1.444761920720338821e-02 2.712799794971942902e-02 -1.664756610989570618e-02 2.861504070460796356e-02 -4.066736623644828796e-02 -5.064439028501510620e-02 2.847893722355365753e-02 -2.576211281120777130e-02 -1.205198559910058975e-02 4.547792300581932068e-02 1.743918634019792080e-03 -9.044578298926353455e-03 6.341280881315469742e-03 4.778314381837844849e-02 4.426071420311927795e-02 -1.575451460666954517e-04 -3.889074549078941345e-02 2.840927056968212128e-02 1.873810030519962311e-02 1.241296436637639999e-02 -2.152661979198455811e-02 5.167818814516067505e-02 -6.281608343124389648e-02 -1.734364591538906097e-02 1.304879039525985718e-02 -6.599990278482437134e-02 1.481115538626909256e-02 -4.705626983195543289e-03 7.763651758432388306e-02
-3.083020634949207306e-02 -4.202220216393470764e-02 -2.611988782882690430e-02 4.962538834661245346e-03 -3.955490421503782272e-03 2.564962487667798996e-03 -7.538653910160064697e-02 -9.333410300314426422e-03 -1.386693771928548813e-02 7.219019345939159393e-03 2.974166907370090485e-02 4.709348455071449280e-02 7.034206390380859375e-02 1.850136928260326385e-02 -1.524550840258598328e-03 -3.118827752768993378e-02 7.030361890792846680e-02 -5.373151507228612900e-03 2.495578676462173462e-02 -2.779077331069856882e-04 7.150833029299974442e-03 -2.930390648543834686e-02 -1.762284524738788605e-02 -2.181537449359893799e-02 -2.864602208137512207e-02 3.121651336550712585e-02 5.335300415754318237e-02 -1.541531644761562347e-02 -7.635495811700820923e-02 7.572220638394355774e-03 -3.968074917793273926e-02 -1.764050871133804321e-02
-2.535822801291942596e-02 -4.237546026706695557e-02 -3.652754053473472595e-02 1.876383321359753609e-03 2.216885797679424286e-02 -6.009278353303670883e-03 -4.046801850199699402e-02 -3.055896237492561340e-02 -2.810637839138507843e-02 -7.530267350375652313e-03 3.310417383909225464e-02 6.595799326896667480e-02 7.052284479141235352e-02 2.448343904688954353e-03 1.013267785310745239e-02 -1.518949121236801147e-02 6.861057877540588379e-02 1.595431752502918243e-02 5.102484952658414841e-03 -9.869006462395191193e-03 -2.068839594721794128e-02 -3.280173242092132568e-02 2.186598815023899078e-02 -1.042504515498876572e-02 -7.430660072714090347e-03 3.322069719433784485e-02 6.170353293418884277e-02 -2.674462459981441498e-02 -9.156210720539093018e-02 1.001958921551704407e-02 -3.097161464393138885e-02 -2.358369156718254089e-02
2.031771838665008545e-02 -3.992537409067153931e-02 -3.251252695918083191e-02 -9.337495081126689911e-03 4.612620174884796143e-02 -1.420554611831903458e-02 -1.574718020856380463e-02 -5.311556160449981689e-02 -3.311462700366973877e-02 -1.782529288902878761e-03 2.764527872204780579e-02 6.341477483510971069e-02 4.978002980351448059e-02 -2.353128604590892792e-02 -2.864647423848509789e-03 4.958460573107004166e-03 6.962542980909347534e-02 4.268202558159828186e-02 -1.396633964031934738e-02 -3.615011274814605713e-02 -4.640461876988410950e-02 -2.496971748769283295e-02 5.525495484471321106e-02 -1.440385729074478149e-02 2.048472128808498383e-02 1.820031739771366119e-02 3.889486938714981079e-02 -2.910648658871650696e-02 -9.511090815067291260e-02 9.257571771740913391e-03 -1.364927459508180618e-02 -7.911470718681812286e-03
6.896201521158218384e-02 -3.748858720064163208e-02 -2.762958407402038574e-02 -9.585235267877578735e-03 3.501083701848983765e-02 -1.168438978493213654e-02 4.109710920602083206e-03 -5.145993083715438843e-02 -4.229445755481719971e-02 -1.360586751252412796e-02 1.545320637524127960e-02 2.959291450679302216e-02 1.382387150079011917e-02 -2.935044094920158386e-02 -4.508611746132373810e-03 5.408225581049919128e-03 4.480610415339469910e-02 3.953562676906585693e-02 -1.710224710404872894e-02 -5.246891826391220093e-02 -2.683494426310062408e-02 1.650970196351408958e-03 5.075996369123458862e-02 -1.177356019616127014e-02 4.622662067413330078e-02 -4.543185699731111526e-03 2.262153290212154388e-02 -1.187672000378370285e-02 -9.613244980573654175e-02 1.785966567695140839e-02 -1.393447257578372955e-02 3.588864952325820923e-02
7.948347926139831543e-02 -4.095991328358650208e-02 -1.460642460733652115e-02 -5.816230084747076035e-03 1.882512308657169342e-02 -7.039982592687010765e-04 1.719426549971103668e-02 -3.450639545917510986e-02 -3.831973671913146973e-02 -1.386165432631969452e-02 -3.084957366809248924e-03 1.470838615205138922e-04 -3.272316418588161469e-03 -2.284160815179347992e-02 -2.288911119103431702e-02 5.625111050903797150e-03 2.286547236144542694e-02 1.500835642218589783e-02 -5.040069576352834702e-03 -5.179364979267120361e-02 -3.332006512209773064e-03 2.152246981859207153e-02 1.955936662852764130e-02 -1.535736303776502609e-02 4.216253757476806641e-02 -2.650919556617736816e-02 7.451323326677083969e-03 1.270476169884204865e-02 -8.584796637296676636e-02 3.252397850155830383e-02 -1.682851836085319519e-02 8.190248906612396240e-02
-8.374799974262714386e-03 1.495496928691864014e-02 2.107398770749568939e-02 -6.076103076338768005e-03 1.290524378418922424e-02 -3.823546576313674450e-04 -9.376356005668640137e-02 -3.891726490110158920e-03 -1.698093838058412075e-03 -2.018488943576812744e-02 2.140232175588607788e-02 -1.773314923048019409e-02 5.576165020465850830e-02 3.867859765887260437e-02 -5.004948750138282776e-02 -1.140014175325632095e-02 9.336767345666885376e-02 -2.069971291348338127e-03 1.059065293520689011e-02 6.052189506590366364e-03 1.962901838123798370e-02 2.625976223498582840e-03 -4.992010071873664856e-03 -2.869005873799324036e-02 -7.268950343132019043e-02 1.747373677790164948e-02 1.786770485341548920e-02 -1.314481068402528763e-02 -5.179173499345779419e-02 1.362417917698621750e-02 -5.756462737917900085e-02 -1.450280286371707916e-02
-2.208951301872730255e-02 3.429163247346878052e-03 3.240378573536872864e-02 -2.023543044924736023e-02 3.415151312947273254e-02 -2.115760557353496552e-02 -5.743014439940452576e-02 -1.635414548218250275e-02 -4.374201409518718719e-03 -2.477265894412994385e-02 3.199674934148788452e-02 -1.289430633187294006e-02 5.992988497018814087e-02 2.100568637251853943e-02 -3.535445407032966614e-02 9.572035633027553558e-03 8.315084874629974365e-02 8.067778311669826508e-03 2.915297169238328934e-03 -8.026831783354282379e-03 5.659695249050855637e-03 -2.616439759731292725e-02 1.909515447914600372e-02 -1.172606367617845535e-02 -5.397475138306617737e-02 2.934398315846920013e-02 1.176643930375576019e-02 -4.271225631237030029e-02 -6.441138684749603271e-02 5.796295125037431717e-03 -4.632786288857460022e-02 -4.314378648996353149e-02
9.598284959793090820e-03 -3.063831711187958717e-03 4.428737610578536987e-02 -2.029379457235336304e-02 4.927965998649597168e-02 -4.063381254673004150e-02 -1.382226869463920593e-02 -3.716810420155525208e-02 -4.725802689790725708e-03 -5.360445007681846619e-03 3.030939772725105286e-02 -1.609582826495170593e-02 4.337906092405319214e-02 -7.945830933749675751e-03 -2.653003856539726257e-02 2.877310104668140411e-02 7.561779767274856567e-02 2.971172519028186798e-02 5.457391031086444855e-03 -3.391805291175842285e-02 -1.308492571115493774e-02 -2.989773266017436981e-02 2.722139097750186920e-02 -1.166877150535583496e-02 -2.866354770958423615e-02 2.724021486937999725e-02 -1.521008322015404701e-03 -4.297466948628425598e-02 -6.997956335544586182e-02 -7.053030189126729965e-03 -2.617473155260086060e-02 -2.759974636137485504e-02
6.440420448780059814e-02 -2.350288676097989082e-03 3.985019028186798096e-02 -9.532894939184188843e-03 2.794831991195678711e-02 -3.079280629754066467e-02 9.271003305912017822e-03 -4.858183860778808594e-02 -1.400792133063077927e-02 -1.565955020487308502e-02 2.122209407389163971e-02 -2.573666535317897797e-02 2.085709385573863983e-02 -2.717697806656360626e-02 -8.483350276947021484e-03 2.568093314766883850e-02 4.419000074267387390e-02 2.434015460312366486e-02 2.834928687661886215e-03 -5.281438305974006653e-02 4.065253306180238724e-03 -5.287009757012128830e-03 1.828353106975555420e-02 -1.150579564273357391e-02 1.189612084999680519e-04 4.754394292831420898e-03 -6.146819330751895905e-03 -2.263033017516136169e-02 -5.994914099574089050e-02 -5.026680417358875275e-03 -2.254167757928371429e-02 1.142552588135004044e-02
8.320268988609313965e-02 -6.640683393925428391e-03 3.951732069253921509e-02 -2.578153507784008980e-03 1.934195682406425476e-02 1.800363417714834213e-03 1.694479957222938538e-02 -4.229893907904624939e-02 -2.031176909804344177e-02 -1.804001815617084503e-02 4.647742956876754761e-03 -2.918152511119842529e-02 3.561842022463679314e-03 -2.478662505745887756e-02 -2.322487533092498779e-02 3.432634472846984863e-02 2.587154693901538849e-02 1.007703831419348717e-03 1.852972619235515594e-02 -6.009829789400100708e-02 1.431998144835233688e-02 1.172597240656614304e-02 -4.549378529191017151e-03 -1.814208179712295532e-02 2.509096171706914902e-03 -2.735643088817596436e-02 1.010841690003871918e-02 6.922800093889236450e-03 -5.298456922173500061e-02 8.896916173398494720e-03 -2.654220722615718842e-02 5.618106201291084290e-02
-1.597457937896251678e-02 9.045442566275596619e-03 4.495184123516082764e-02 -1.588783226907253265e-02 -3.342705592513084412e-02 -4.932533204555511475e-02 -6.863407790660858154e-02 -8.021908812224864960e-03 4.094346892088651657e-03 -3.638513153418898582e-03 5.518510472029447556e-03 -5.533596500754356384e-02 3.482160344719886780e-02 5.085826292634010315e-02 -5.252757295966148376e-02 -2.705201134085655212e-02 8.425249904394149780e-02 2.521619899198412895e-03 -1.123833656311035156e-02 3.428367897868156433e-02 5.961282551288604736e-02 2.398226223886013031e-02 5.201001092791557312e-02 -3.032048419117927551e-02 -4.557304456830024719e-02 -1.236923621036112309e-03 -9.286476299166679382e-03 -9.575845673680305481e-03 -3.319433331489562988e-02 7.914036512374877930e-03 -4.703647270798683167e-02 -2.839577756822109222e-02
-4.475047811865806580e-02 -1.035208813846111298e-02 7.532516121864318848e-02 -3.980694711208343506e-02 -2.785077877342700958e-02 -7.878439873456954956e-02 -4.087359830737113953e-02 -1.050473749637603760e-02 7.176952436566352844e-03 -8.000344969332218170e-03 -4.066145047545433044e-03 -4.927845299243927002e-02 4.821691662073135376e-02 4.017205536365509033e-02 -2.770605124533176422e-02 -1.313058380037546158e-02 6.961845606565475464e-02 1.358355116099119186e-02 -6.931003648787736893e-03 1.897596195340156555e-02 3.992032259702682495e-02 -2.689907560124993324e-03 7.134293764829635620e-02 -1.219440251588821411e-02 -4.223968088626861572e-02 2.826433442533016205e-02 -1.235984917730093002e-02 -3.317888081073760986e-02 -4.133702442049980164e-02 -9.601374040357768536e-04 -3.283781558275222778e-02 -3.626417741179466248e-02
-3.402561694383621216e-02 -2.199866436421871185e-02 9.458408504724502563e-02 -3.411134704947471619e-02 -1.427066884934902191e-02 -8.708119392395019531e-02 -1.392805948853492737e-02 -1.726931706070899963e-02 1.267409324645996094e-02 5.223542917519807816e-03 -5.377460736781358719e-03 -4.756708443164825439e-02 3.459481894969940186e-02 1.323000155389308929e-02 -1.710699498653411865e-02 -2.609852934256196022e-03 6.259982287883758545e-02 2.512539550662040710e-02 3.525930689647793770e-03 -9.149185381829738617e-03 1.596461795270442963e-02 -1.317832060158252716e-02 6.665692478418350220e-02 2.787552541121840477e-03 -3.054341673851013184e-02 2.596770785748958588e-02 -7.969685830175876617e-03 -3.211384639143943787e-02 -4.966218024492263794e-02 -1.608391106128692627e-02 -1.335406024008989334e-02 -2.135401964187622070e-02
8.472368353977799416e-04 -2.324939519166946411e-02 8.176591247320175171e-02 -9.002899751067161560e-03 -2.031217887997627258e-02 -6.760307401418685913e-02 4.284517839550971985e-03 -3.218280896544456482e-02 5.716475192457437515e-03 -1.123882364481687546e-02 6.991752889007329941e-04 -3.971766307950019836e-02 6.270427722483873367e-03 -6.441039964556694031e-03 -2.810010919347405434e-03 -1.399009372107684612e-03 4.672629386186599731e-02 2.762643061578273773e-02 6.237688474357128143e-03 -3.261204808950424194e-02 3.037136234343051910e-02 3.810548922047019005e-03 3.626985475420951843e-02 2.544312970712780952e-03 -1.068959571421146393e-02 1.673417165875434875e-02 1.313499640673398972e-02 -1.323100551962852478e-02 -3.446083515882492065e-02 -1.735646463930606842e-02 -7.818858139216899872e-03 4.920982290059328079e-03
2.166277170181274414e-02 -1.650355756282806396e-02 5.513787269592285156e-02 2.001653239130973816e-02 -1.100823562592267990e-02 -3.030273877084255219e-02 5.289309192448854446e-03 -3.772683814167976379e-02 4.301423672586679459e-03 -2.443976514041423798e-02 7.029732805676758289e-04 -2.769380435347557068e-02 -1.902064867317676544e-02 -7.867484353482723236e-03 -2.556671574711799622e-02 8.604446426033973694e-03 3.789281472563743591e-02 1.043173577636480331e-02 1.653682067990303040e-02 -4.217686504125595093e-02 3.688902035355567932e-02 8.275776170194149017e-03 -1.932879677042365074e-03 -1.478306483477354050e-02 9.932672837749123573e-04 -1.086963340640068054e-02 4.177434369921684265e-02 1.271903142333030701e-02 -3.459220379590988159e-02 -6.316820625215768814e-03 -1.775827817618846893e-02 3.444227203726768494e-02
-1.434078533202409744e-02 -1.096324902027845383e-02 2.254248969256877899e-02 -1.323068281635642052e-03 -3.952087461948394775e-02 -7.902380824089050293e-02 -5.804938822984695435e-02 -4.138369858264923096e-02 4.705237690359354019e-03 8.117828518152236938e-03 -2.845094725489616394e-02 -3.872740641236305237e-02 1.166218426078557968e-02 3.965431824326515198e-02 -4.606735706329345703e-02 9.707045741379261017e-03 4.138948768377304077e-02 -1.418475899845361710e-02 -3.263761848211288452e-02 1.790370605885982513e-02 4.922878742218017578e-02 1.112397108227014542e-02 2.890718169510364532e-02 -1.036368589848279953e-02 -1.436589751392602921e-02 -4.272765293717384338e-02 -2.381994947791099548e-02 3.882348304614424706e-03 -4.180318210273981094e-03 2.235340513288974762e-02 -1.309776306152343750e-02 9.312028996646404266e-04
-3.285145759582519531e-02 -2.025903016328811646e-02 5.055518075823783875e-02 -2.704305015504360199e-02 -3.157334402203559875e-02 -9.550417214632034302e-02 -3.836220875382423401e-02 -4.192798212170600891e-02 2.159048430621623993e-02 5.250249058008193970e-03 -2.722890116274356842e-02 -3.616493567824363708e-02 2.510496973991394043e-02 3.785040602087974548e-02 -1.919674687087535858e-02 1.280954759567975998e-02 3.595631569623947144e-02 -6.664776243269443512e-03 -1.901802793145179749e-02 -5.022783298045396805e-04 3.869945555925369263e-02 -3.466905560344457626e-03 4.813107475638389587e-02 1.315517444163560867e-02 -3.185635432600975037e-02 -5.995945073664188385e-03 -3.925902023911476135e-02 -1.262931060045957565e-02 1.694965991191565990e-03 -2.746365033090114594e-03 -7.067302707582712173e-03 -1.727618975564837456e-03
-2.618941292166709900e-02 -3.291756287217140198e-02 6.802187860012054443e-02 -2.100382931530475616e-02 -1.378718018531799316e-02 -9.401395171880722046e-02 -1.024332828819751740e-02 -4.078020527958869934e-02 3.162638098001480103e-02 5.908875260502099991e-03 -6.928017362952232361e-03 -3.562006354331970215e-02 9.879796765744686127e-03 1.778007484972476959e-02 -1.006985269486904144e-02 3.056302666664123535e-03 4.198099672794342041e-02 9.206184186041355133e-03 -2.749092178419232368e-03 -2.137311361730098724e-02 2.851127274334430695e-02 -8.837957866489887238e-03 4.668616876006126404e-02 2.867510914802551270e-02 -3.748969733715057373e-02 -1.387199736200273037e-03 -2.331295423209667206e-02 -2.735897665843367577e-03 1.006932812742888927e-03 -1.601826958358287811e-02 7.261382881551980972e-03 8.037050720304250717e-04
-4.738145973533391953e-03 -2.768179029226303101e-02 5.597028508782386780e-02 2.918404992669820786e-03 -2.018832787871360779e-02 -6.897668540477752686e-02 1.682639122009277344e-02 -4.388002678751945496e-02 2.446806617081165314e-02 -1.935449987649917603e-02 1.041499525308609009e-02 -2.663308382034301758e-02 -1.249692775309085846e-02 -6.877788808196783066e-03 1.297851209528744221e-03 -6.324007175862789154e-03 3.195372223854064941e-02 1.420730352401733398e-02 -2.171892672777175903e-03 -3.142024204134941101e-02 4.435049369931221008e-02 1.909559126943349838e-03 3.552087396383285522e-02 1.783249154686927795e-02 -1.959645003080368042e-02 -5.061930045485496521e-03 1.099767163395881653e-02 2.015293389558792114e-02 9.257315658032894135e-03 -1.138278748840093613e-02 6.655916105955839157e-03 4.627194255590438843e-03
-6.888323114253580570e-04 -2.279507741332054138e-02 3.621503710746765137e-02 2.954998612403869629e-02 -9.810590185225009918e-03 -2.350231446325778961e-02 1.840206049382686615e-02 -4.886745288968086243e-02 2.503327652812004089e-02 -3.465238958597183228e-02 7.318991702049970627e-03 -1.628297939896583557e-02 -2.847851812839508057e-02 -1.564708538353443146e-02 -1.226138137280941010e-02 -3.519303863868117332e-03 2.232269570231437683e-02 3.257666830904781818e-04 4.653923679143190384e-04 -4.200568422675132751e-02 4.026728868484497070e-02 -8.043336682021617889e-03 1.995258964598178864e-02 -8.764048106968402863e-03 -3.543512430042028427e-04 -3.570771217346191406e-02 4.208590090274810791e-02 3.018227033317089081e-02 8.779847412370145321e-04 -4.130154382437467575e-03 7.369680097326636314e-04 1.888014003634452820e-02
-1.274047140032052994e-02 6.960945576429367065e-02 -4.295920580625534058e-02 -7.013105787336826324e-04 -4.205830395221710205e-02 -1.204699557274580002e-02 8.213638514280319214e-02 -2.445403113961219788e-02 -3.091090545058250427e-02 -1.030866894870996475e-02 -4.934914782643318176e-02 -1.919996365904808044e-02 6.674259901046752930e-02 -3.606316633522510529e-03 -1.319045294076204300e-02 -4.081385582685470581e-02 7.018040865659713745e-02 3.830644115805625916e-02 1.317574642598628998e-02 2.495905011892318726e-02 2.237277664244174957e-02 -6.617300957441329956e-02 2.249516919255256653e-02 -3.394252434372901917e-02 3.862538561224937439e-02 9.752101264894008636e-03 -6.313514709472656250e-02 2.531644329428672791e-02 -2.858631871640682220e-02 3.923468291759490967e-02 -1.506148185580968857e-02 3.849244862794876099e-02
4.722134023904800415e-02 5.308947339653968811e-02 -9.509586542844772339e-02 6.633546203374862671e-02 -9.618937969207763672e-02 -2.796277031302452087e-02 1.124190166592597961e-01 -3.704187646508216858e-02 5.486229900270700455e-03 -1.266984175890684128e-02 -5.345711484551429749e-02 -4.971241578459739685e-02 -4.070197045803070068e-02 -7.977629080414772034e-03 -3.092737309634685516e-02 -2.925899811089038849e-02 9.542513638734817505e-02 2.046480216085910797e-02 4.688926972448825836e-03 -3.663868457078933716e-02 2.020871080458164215e-02 -2.416575327515602112e-02 4.693653807044029236e-02 -4.182311892509460449e-02 6.479566544294357300e-02 2.275305055081844330e-02 -4.569449648261070251e-02 -2.379185892641544342e-02 1.585157029330730438e-02 2.822134457528591156e-02 2.199344336986541748e-02 1.217986717820167542e-01
5.487718060612678528e-02 3.958527371287345886e-02 -8.449156582355499268e-02 8.959736675024032593e-02 -3.551275655627250671e-02 -1.876904070377349854e-02 8.093923330307006836e-02 -3.888696804642677307e-02 4.235162958502769470e-02 6.588845048099756241e-03 -7.645878195762634277e-02 -5.207952857017517090e-02 -3.017889522016048431e-02 -1.101141888648271561e-02 -5.624683573842048645e-02 -1.973242126405239105e-02 1.120420843362808228e-01 3.552845492959022522e-02 -2.224270999431610107e-02 -2.185634896159172058e-02 -8.593962411396205425e-04 3.670665901154279709e-03 -1.641935110092163086e-02 -6.446924060583114624e-02 7.690194994211196899e-02 2.604096196591854095e-02 -6.074381619691848755e-02 -3.059300780296325684e-02 5.115295760333538055e-03 1.498807035386562347e-02 2.712030895054340363e-02 8.933380246162414551e-02
8.494669571518898010e-03 7.642256561666727066e-03 -9.442238509654998779e-02 4.625194519758224487e-02 -3.690426051616668701e-02 -1.889323443174362183e-02 4.108850285410881042e-02 -4.374572262167930603e-02 4.005546495318412781e-02 3.931944817304611206e-02 -5.953229591250419617e-02 -3.508796915411949158e-02 -1.198804471641778946e-02 -2.179278619587421417e-02 -3.476099297404289246e-02 -3.478176519274711609e-02 1.801301389932632446e-01 -1.229227893054485321e-02 -8.158283680677413940e-02 -2.331933379173278809e-02 -2.618241414893418550e-04 2.883150940760970116e-03 -2.921510115265846252e-02 -7.490380108356475830e-02 8.115965127944946289e-02 3.223819285631179810e-02 -4.538743197917938232e-02 -2.957277931272983551e-02 -4.805470257997512817e-02 5.224246159195899963e-02 2.418829500675201416e-02 5.803962051868438721e-02
-6.948541104793548584e-02 3.157415241003036499e-02 -3.578829392790794373e-02 -1.543027535080909729e-02 -9.607992134988307953e-03 -4.744894104078412056e-04 -3.006689809262752533e-02 -3.330071642994880676e-02 1.624560798518359661e-03 2.080829255282878876e-02 -2.237821929156780243e-02 7.486462127417325974e-03 3.802317753434181213e-02 -1.594595843926072121e-03 -3.600845485925674438e-02 -4.386917874217033386e-02 9.907073527574539185e-02 -1.466558314859867096e-02 -6.669919192790985107e-02 -3.063006140291690826e-02 -1.707849296508356929e-04 -2.403209358453750610e-02 -4.641376435756683350e-02 -2.632722817361354828e-02 8.164532482624053955e-02 5.455565406009554863e-04 -5.561493709683418274e-02 -1.816634275019168854e-02 -5.057280883193016052e-02 2.276648581027984619e-02 8.059865795075893402e-03 -1.008060760796070099e-02
1.727468334138393402e-02 8.163219690322875977e-02 -5.288245156407356262e-02 1.215626858174800873e-02 -1.365337707102298737e-02 -6.901350803673267365e-03 4.878560826182365417e-02 3.241956437705084682e-05 -3.838309273123741150e-02 -2.650740556418895721e-02 -2.518646977841854095e-02 3.308517043478786945e-04 5.395997688174247742e-02 8.966264314949512482e-03 1.514633279293775558e-02 -1.049752756953239441e-01 8.788164705038070679e-02 5.831475183367729187e-02 2.147149480879306793e-02 4.452747851610183716e-02 -1.445570215582847595e-02 -4.514280706644058228e-02 6.228440906852483749e-03 -4.735352098941802979e-02 -4.666815511882305145e-03 2.564650215208530426e-02 -9.700466692447662354e-02 -2.578827319666743279e-03 -2.409954927861690521e-02 1.979930140078067780e-02 -4.808771982789039612e-02 6.023058667778968811e-02
8.975260704755783081e-02 6.135908886790275574e-02 -1.315087080001831055e-01 7.657135277986526489e-02 -3.583661466836929321e-02 -1.448389329016208649e-02 8.148716390132904053e-02 -2.191130444407463074e-02 5.609593354165554047e-03 -3.451788425445556641e-02 -2.337670698761940002e-02 -4.396193474531173706e-02 -8.049155771732330322e-02 2.218450885266065598e-03 6.644478417001664639e-04 -1.197706609964370728e-01 1.088154390454292297e-01 3.594952821731567383e-02 2.795043028891086578e-02 -1.976313814520835876e-02 -9.897445328533649445e-03 -1.125473342835903168e-02 3.814528882503509521e-02 -6.703206151723861694e-02 5.252391565591096878e-03 3.383241221308708191e-02 -6.181250140070915222e-02 -5.663763359189033508e-02 2.082676999270915985e-02 2.164106070995330811e-02 -2.461577020585536957e-02 1.339438259601593018e-01
1.088601276278495789e-01 1.798799633979797363e-02 -1.393788307905197144e-01 8.390167355537414551e-02 4.088942706584930420e-02 1.831494970247149467e-03 2.291628718376159668e-02 -1.752589084208011627e-02 5.206846818327903748e-02 -9.209942072629928589e-03 -4.755536839365959167e-02 -6.255970895290374756e-02 -7.858802378177642822e-02 -1.199817168526351452e-03 -2.850298024713993073e-02 -1.212448999285697937e-01 1.242298483848571777e-01 1.903893798589706421e-02 -3.590747341513633728e-02 -1.358757819980382919e-02 -3.901192545890808105e-02 2.269562147557735443e-02 -1.849045790731906891e-02 -8.236210048198699951e-02 2.276870608329772949e-02 5.520923435688018799e-02 -7.028271257877349854e-02 -7.122279703617095947e-02 2.790593728423118591e-02 3.034438937902450562e-02 -1.582898944616317749e-02 1.102682352066040039e-01
4.163649305701255798e-02 -2.332890871912240982e-03 -1.411980539560317993e-01 4.276030138134956360e-02 3.600619733333587646e-02 -1.304854825139045715e-02 -6.149283144623041153e-03 -3.523034602403640747e-02 4.392404109239578247e-02 5.701698735356330872e-02 -3.956707194447517395e-02 -3.872883692383766174e-02 -3.170507401227951050e-02 -1.458177808672189713e-02 -3.655347600579261780e-02 -1.282246261835098267e-01 1.987594366073608398e-01 -2.173971943557262421e-02 -1.301490962505340576e-01 -1.432255376130342484e-02 -2.016697265207767487e-02 1.841861195862293243e-02 -1.770596764981746674e-02 -8.655605465173721313e-02 3.348424658179283142e-02 5.809679999947547913e-02 -5.499608442187309265e-02 -5.842082947492599487e-02 -1.457355916500091553e-02 5.834555625915527344e-02 -1.706342771649360657e-02 6.826525926589965820e-02
-5.339831486344337463e-02 2.186730504035949707e-02 -6.561384350061416626e-02 -2.527925930917263031e-02 3.697259351611137390e-02 -7.060904987156391144e-03 -7.215167582035064697e-02 -2.473730035126209259e-02 -5.877694580703973770e-03 5.231610313057899475e-02 -1.671790960244834423e-03 1.448681461624801159e-03 4.923833534121513367e-02 1.033763680607080460e-02 -2.780222706496715546e-02 -1.038946732878684998e-01 1.297657340764999390e-01 6.618166808038949966e-04 -1.139844059944152832e-01 -2.129346877336502075e-02 -2.828245237469673157e-02 -1.879251562058925629e-02 -2.308898791670799255e-02 -3.411821275949478149e-02 3.802787885069847107e-02 3.471551463007926941e-02 -6.698206067085266113e-02 -4.407483711838722229e-02 -1.210758369415998459e-02 3.293957933783531189e-02 -1.482028234750032425e-02 1.996906660497188568e-02
1.913656294345855713e-02 2.935724705457687378e-02 -4.412808641791343689e-02 2.094859629869461060e-02 2.043966203927993774e-02 -2.224636729806661606e-03 1.020246557891368866e-02 2.966928109526634216e-02 -4.707554727792739868e-02 -3.732431307435035706e-02 2.124498970806598663e-02 3.188793361186981201e-02 4.628936573863029480e-02 1.932119950652122498e-02 4.933061078190803528e-02 -1.494044512510299683e-01 9.420280903577804565e-02 6.571008265018463135e-02 2.327740937471389771e-02 6.045092642307281494e-02 -5.460663884878158569e-02 -2.254089526832103729e-02 -4.511277191340923309e-03 -2.496234700083732605e-02 -5.131189897656440735e-02 3.099140711128711700e-02 -7.071643322706222534e-02 -2.432997711002826691e-02 -3.217188268899917603e-02 1.091622933745384216e-02 -6.204973533749580383e-02 6.192690506577491760e-02
7.449827343225479126e-02 -5.120550849824212492e-05 -1.011854335665702820e-01 7.932709902524948120e-02 3.762717545032501221e-02 1.542071811854839325e-02 4.535795748233795166e-02 1.192011218518018723e-02 -1.941980980336666107e-02 -6.358883529901504517e-02 3.118253126740455627e-02 -1.348408591002225876e-02 -1.042062789201736450e-01 2.287646010518074036e-02 3.677548095583915710e-02 -1.809135675430297852e-01 9.753084927797317505e-02 4.235550016164779663e-02 3.478318080306053162e-02 -5.990875419229269028e-03 -5.437350645661354065e-02 1.195341441780328751e-02 5.662949010729789734e-02 -4.487820714712142944e-02 -9.122920036315917969e-02 3.715338185429573059e-02 -3.749505057930946350e-02 -6.631764024496078491e-02 7.289113942533731461e-03 1.856832392513751984e-02 -4.732409492135047913e-02 1.231751739978790283e-01
1.000253036618232727e-01 -7.591606676578521729e-02 -1.319335550069808960e-01 7.048171758651733398e-02 1.254342794418334961e-01 4.465321823954582214e-02 -3.490366041660308838e-02 2.377497404813766479e-02 2.286221459507942200e-02 -4.219084978103637695e-02 1.382492482662200928e-02 -3.014140948653221130e-02 -1.126099005341529846e-01 1.218187995254993439e-02 -7.788018323481082916e-03 -1.875796020030975342e-01 1.038540154695510864e-01 -2.572693862020969391e-03 -3.786865249276161194e-02 -5.634751287288963795e-04 -8.289761096239089966e-02 3.295718505978584290e-02 2.606452256441116333e-02 -2.862106263637542725e-02 -8.547272533178329468e-02 6.204345449805259705e-02 -4.116032645106315613e-02 -7.187030464410781860e-02 4.658336937427520752e-02 3.994729369878768921e-02 -4.291610419750213623e-02 9.759943187236785889e-02
4.066196829080581665e-02 -8.572253584861755371e-02 -1.258955448865890503e-01 3.417463600635528564e-02 1.134207323193550110e-01 1.525473408401012421e-02 -5.147500708699226379e-02 -2.128509804606437683e-03 1.542639732360839844e-02 3.509415313601493835e-02 2.155481651425361633e-02 -6.726473569869995117e-03 -3.847384080290794373e-02 2.158656483516097069e-03 -3.005530685186386108e-02 -1.876818686723709106e-01 1.598308831453323364e-01 -2.706519700586795807e-02 -1.485748738050460815e-01 1.378722954541444778e-03 -6.853873282670974731e-02 4.241762682795524597e-02 4.026918858289718628e-02 -4.995452612638473511e-02 -8.110812306404113770e-02 5.785142630338668823e-02 -3.909872472286224365e-02 -5.135997384786605835e-02 1.113128941506147385e-02 6.647863984107971191e-02 -4.240351542830467224e-02 6.957652419805526733e-02
-3.886092826724052429e-02 -4.756848141551017761e-02 -5.799345672130584717e-02 -2.578846178948879242e-02 7.446076720952987671e-02 9.366063401103019714e-03 -9.185059368610382080e-02 -7.880582474172115326e-03 -8.239615708589553833e-03 4.901363700628280640e-02 4.028848186135292053e-02 1.659385301172733307e-02 5.939029902219772339e-02 2.698688022792339325e-02 -1.703871041536331177e-02 -1.461481600999832153e-01 1.085542812943458557e-01 5.508463829755783081e-03 -1.309071928262710571e-01 -7.012313697487115860e-03 -7.682108879089355469e-02 9.070974774658679962e-03 3.180856257677078247e-02 -9.733577258884906769e-03 -5.803398787975311279e-02 4.230197146534919739e-02 -5.932052060961723328e-02 -5.574749782681465149e-02 7.417790591716766357e-03 4.565801098942756653e-02 -3.996564820408821106e-02 5.203782021999359131e-02
-8.656518533825874329e-03 -2.999218367040157318e-02 -8.530205115675926208e-03 -3.436390252318233252e-04 1.162849459797143936e-02 -7.648009341210126877e-03 1.365463342517614365e-02 4.403385519981384277e-02 -5.354581400752067566e-02 -3.360294923186302185e-02 4.090105369687080383e-02 5.054702982306480408e-02 5.419994145631790161e-02 2.808461524546146393e-02 5.566356331110000610e-02 -1.335934549570083618e-01 7.353023439645767212e-02 3.788999095559120178e-02 1.684264279901981354e-04 6.912016868591308594e-02 -6.188973039388656616e-02 -1.990347728133201599e-02 -1.108184922486543655e-02 1.464089192450046539e-02 -2.665745839476585388e-02 2.479910477995872498e-02 -1.675224676728248596e-02 -9.133676066994667053e-04 -3.273095190525054932e-02 6.772097665816545486e-03 -4.705317318439483643e-02 2.845437452197074890e-02
7.315964903682470322e-03 -8.142878860235214233e-02 -1.273034233599901199e-02 5.814281478524208069e-02 3.958161547780036926e-02 2.175430022180080414e-02 3.442806750535964966e-02 4.049290344119071960e-02 -3.828082606196403503e-02 -6.453863531351089478e-02 6.693708151578903198e-02 2.624585852026939392e-02 -8.492528647184371948e-02 4.639644175767898560e-02 4.116623476147651672e-02 -1.526496708393096924e-01 4.522637277841567993e-02 1.353658176958560944e-02 2.573038451373577118e-02 1.191974803805351257e-02 -7.240506261587142944e-02 9.158447384834289551e-03 5.727089568972587585e-02 1.747415028512477875e-02 -9.722719341516494751e-02 3.281876444816589355e-02 7.122534792870283127e-03 -3.928340971469879150e-02 1.077880710363388062e-02 8.655838668346405029e-03 -4.413474723696708679e-02 6.545826792716979980e-02
3.716447576880455017e-02 -1.649407595396041870e-01 -4.861616343259811401e-02 3.964678198099136353e-02 1.174042895436286926e-01 6.411917507648468018e-02 -4.412513598799705505e-02 5.309581756591796875e-02 -1.711226068437099457e-02 -5.013143643736839294e-02 5.851640924811363220e-02 1.280964072793722153e-02 -9.454531967639923096e-02 3.777186200022697449e-02 2.623827895149588585e-03 -1.671170443296432495e-01 5.412222072482109070e-02 -4.286163672804832458e-02 -2.113841660320758820e-02 7.976851426064968109e-03 -9.365181624889373779e-02 1.565401628613471985e-02 3.425110131502151489e-02 5.078600347042083740e-02 -1.285641938447952271e-01 2.432426251471042633e-02 -4.848645534366369247e-03 -3.023625165224075317e-02 5.779108032584190369e-02 2.567113563418388367e-02 -4.964916408061981201e-02 4.936227574944496155e-02
1.085937581956386566e-02 -1.566148251295089722e-01 -4.701987653970718384e-02 1.828036084771156311e-02 1.031514182686805725e-01 3.700014203786849976e-02 -6.411477923393249512e-02 3.832760080695152283e-02 -2.074559032917022705e-02 9.497311897575855255e-03 6.353061646223068237e-02 2.383995614945888519e-02 -1.857210882008075714e-02 2.670224383473396301e-02 -2.422198839485645294e-02 -1.688560843467712402e-01 8.923308551311492920e-02 -4.688781872391700745e-02 -1.054257676005363464e-01 2.437347732484340668e-02 -8.582469075918197632e-02 4.429592192173004150e-02 5.133428797125816345e-02 1.865614391863346100e-02 -1.185039803385734558e-01 1.117705088108778000e-02 -1.287195738404989243e-02 -1.976515166461467743e-02 2.006627060472965240e-02 4.822124168276786804e-02 -5.167672783136367798e-02 4.058348760008811951e-02
-4.520433768630027771e-02 -1.005342826247215271e-01 -3.849367145448923111e-03 -2.536353096365928650e-02 5.983278900384902954e-02 2.583226375281810760e-02 -8.587029576301574707e-02 6.647096481174230576e-03 -1.382059697061777115e-02 3.536685556173324585e-02 5.797611549496650696e-02 3.934295848011970520e-02 7.654052227735519409e-02 2.695171535015106201e-02 -1.754552684724330902e-02 -1.130338981747627258e-01 6.329521536827087402e-02 -8.615060709416866302e-03 -1.048266440629959106e-01 2.848249115049839020e-02 -9.173581749200820923e-02 1.206686068326234818e-02 2.872795052826404572e-02 2.652420289814472198e-02 -8.541665226221084595e-02 1.814000424928963184e-03 -3.602215275168418884e-02 -4.489440470933914185e-02 8.615370839834213257e-03 4.305516928434371948e-02 -4.392858594655990601e-02 4.621812328696250916e-02
-2.346904762089252472e-02 -8.683614432811737061e-03 6.500375922769308090e-03 -3.562038391828536987e-02 -3.613357990980148315e-02 -8.658125996589660645e-03 3.552617505192756653e-02 4.215291887521743774e-02 -3.719032555818557739e-02 -1.789487898349761963e-02 3.442365303635597229e-02 4.144374653697013855e-02 6.361989676952362061e-02 2.721614018082618713e-02 4.211185500025749207e-02 -7.126534730195999146e-02 4.396725818514823914e-02 -2.918345853686332703e-03 -9.183343499898910522e-03 7.054296135902404785e-02 -4.471807181835174561e-02 -1.255978923290967941e-02 -1.431372854858636856e-02 2.525077573955059052e-02 3.881292045116424561e-02 1.939053088426589966e-02 1.303017139434814453e-02 3.862529993057250977e-02 -3.873162344098091125e-02 1.960888318717479706e-02 -3.126415982842445374e-02 -2.617957629263401031e-02
-4.614586755633354187e-02 -7.249471545219421387e-02 3.682016208767890930e-02 1.092738844454288483e-02 -2.899894258007407188e-03 2.419321797788143158e-02 5.094896629452705383e-02 4.718836396932601929e-02 -3.811242803931236267e-02 -5.078648403286933899e-02 7.877377420663833618e-02 3.105778805911540985e-02 -5.706407502293586731e-02 5.423334613442420959e-02 3.630406036972999573e-02 -8.405772596597671509e-02 1.229725312441587448e-03 -1.590578444302082062e-02 2.504017204046249390e-02 2.834795787930488586e-02 -7.026208192110061646e-02 4.107656423002481461e-03 2.699101530015468597e-02 3.932126238942146301e-02 -3.787926584482192993e-02 2.672767639160156250e-02 1.951180212199687958e-02 1.418835856020450592e-02 2.265347167849540710e-03 -3.027216007467359304e-04 -2.512975782155990601e-02 -7.531085517257452011e-03
-1.352267246693372726e-02 -1.288914680480957031e-01 1.519476249814033508e-02 2.761268522590398788e-03 6.009091436862945557e-02 5.656430497765541077e-02 -1.849888823926448822e-02 5.603343993425369263e-02 -4.282862693071365356e-02 -2.464900910854339600e-02 7.774430513381958008e-02 2.878089249134063721e-02 -6.804622709751129150e-02 5.360759794712066650e-02 9.183229878544807434e-03 -7.856700569391250610e-02 1.552331354469060898e-02 -5.518051236867904663e-02 9.667457081377506256e-03 1.408022362738847733e-02 -7.945207506418228149e-02 -8.796068839728832245e-03 -2.367395674809813499e-03 8.033798635005950928e-02 -8.548855781555175781e-02 -1.720138266682624817e-02 -1.741885498631745577e-04 2.711374126374721527e-02 3.837708383798599243e-02 1.153954863548278809e-02 -3.532115370035171509e-02 -1.077411882579326630e-02
-1.268449332565069199e-02 -9.911338984966278076e-02 2.428213879466056824e-02 -4.999037832021713257e-03 3.904290124773979187e-02 3.241117298603057861e-02 -4.505817592144012451e-02 4.349638894200325012e-02 -4.446569457650184631e-02 1.876269094645977020e-02 6.915487349033355713e-02 3.031607158482074738e-02 7.987009361386299133e-03 3.773714229464530945e-02 -2.408465370535850525e-02 -7.689246535301208496e-02 3.371045365929603577e-02 -4.987033829092979431e-02 -3.377498313784599304e-02 4.265727102756500244e-02 -7.405103743076324463e-02 2.678536437451839447e-02 1.472779642790555954e-02 4.844076558947563171e-02 -6.889732927083969116e-02 -3.521625325083732605e-02 -3.602145006880164146e-03 1.471605896949768066e-02 2.181020099669694901e-03 3.336074203252792358e-02 -3.765633702278137207e-02 1.288292231038212776e-03
-4.506013169884681702e-02 -4.891707375645637512e-02 4.961486533284187317e-02 -4.645581170916557312e-02 1.122907456010580063e-02 1.984266750514507294e-02 -6.356727331876754761e-02 5.643005482852458954e-03 -1.869110576808452606e-02 3.158724680542945862e-02 4.926126450300216675e-02 3.426703438162803650e-02 7.008862495422363281e-02 1.376142352819442749e-02 -1.880484074354171753e-02 -3.876988217234611511e-02 2.153460495173931122e-02 4.317830782383680344e-03 -5.797555297613143921e-02 5.392729118466377258e-02 -6.517982482910156250e-02 4.835695028305053711e-03 -1.605672016739845276e-02 4.064095020294189453e-02 -2.308627218008041382e-02 -4.829407855868339539e-02 -1.603168994188308716e-02 -2.083003893494606018e-02 -1.778655499219894409e-02 4.180278629064559937e-02 -3.680048882961273193e-02 1.907500810921192169e-02
-6.301687657833099365e-02 -1.661694794893264771e-02 2.189425751566886902e-03 9.809179604053497314e-02 1.415543816983699799e-02 -3.329105908051133156e-03 5.761174857616424561e-02 -3.697369247674942017e-02 -9.258634410798549652e-03 1.297181695699691772e-01 -5.205106572248041630e-05 6.247713044285774231e-02 2.164265513420104980e-02 2.963260933756828308e-02 5.132557824254035950e-02 -1.729974523186683655e-02 -5.397584661841392517e-02 -1.176698319613933563e-02 -4.269828274846076965e-02 -2.628626301884651184e-02 1.536703296005725861e-02 6.410679966211318970e-02 4.677932709455490112e-02 2.084288187325000763e-02 1.768958382308483124e-02 -8.795380592346191406e-02 -9.393116831779479980e-02 -2.430432848632335663e-02 3.912457078695297241e-02 -2.751400321722030640e-02 -2.045149542391300201e-02 4.774749279022216797e-03
-7.660283893346786499e-02 -2.603239566087722778e-02 1.093781739473342896e-02 7.616885751485824585e-02 4.773047287017107010e-03 -1.508569251745939255e-02 9.487313032150268555e-02 -5.398779734969139099e-02 -4.690965171903371811e-03 1.306590884923934937e-01 -8.571212179958820343e-03 5.984994024038314819e-02 2.732775732874870300e-02 8.366481401026248932e-03 7.458177953958511353e-02 -3.312776610255241394e-02 -3.013187646865844727e-02 1.555998716503381729e-02 -2.230333909392356873e-02 -7.781039923429489136e-03 9.467637937632389367e-06 -1.019303314387798309e-02 4.550785571336746216e-02 2.160061150789260864e-02 5.520347505807876587e-03 -5.649243667721748352e-02 -8.941889554262161255e-02 6.226212251931428909e-03 1.478561107069253922e-02 -7.423116825520992279e-03 -2.520063146948814392e-02 5.059559270739555359e-02
-6.062181666493415833e-02 -1.616854965686798096e-02 1.181539893150329590e-02 3.262357041239738464e-02 1.317050401121377945e-02 -1.541241910308599472e-02 7.391832768917083740e-02 -5.944682657718658447e-02 4.229196812957525253e-03 8.434277027845382690e-02 -1.302931457757949829e-03 6.069520860910415649e-02 9.053939022123813629e-03 -1.647525839507579803e-02 1.012601926922798157e-01 -3.090473636984825134e-02 -1.513541955500841141e-02 4.889293760061264038e-02 6.211308296769857407e-03 7.963107898831367493e-03 -9.237124584615230560e-03 -9.078410267829895020e-02 4.987952113151550293e-02 1.019045431166887283e-02 -2.882770262658596039e-02 -2.676404081284999847e-02 -5.252299830317497253e-02 1.068700291216373444e-02 1.789128035306930542e-02 7.600801181979477406e-04 -3.925976157188415527e-02 8.668290078639984131e-02
-3.568236902356147766e-02 7.613302208483219147e-03 7.371154148131608963e-03 -1.125120464712381363e-02 1.691523380577564240e-02 -2.632285235449671745e-03 1.191745977848768234e-02 -3.499111905694007874e-02 1.609505270607769489e-03 1.475398428738117218e-03 -1.171982288360595703e-02 4.892504587769508362e-02 -9.300000965595245361e-03 -2.107051573693752289e-02 1.162868291139602661e-01 -2.593068592250347137e-02 -4.066270589828491211e-02 3.831391781568527222e-02 2.293167822062969208e-02 1.603889465332031250e-02 -7.709991186857223511e-04 -1.214225366711616516e-01 5.885621532797813416e-02 -1.578194648027420044e-02 -4.685984179377555847e-02 -2.227469347417354584e-02 5.700404290109872818e-03 -2.149076759815216064e-02 1.745912805199623108e-02 8.804150857031345367e-03 -4.332641139626502991e-02 7.144991308450698853e-02
-2.954957447946071625e-02 2.486659772694110870e-02 -4.151161760091781616e-03 -2.985937520861625671e-02 2.291441708803176880e-02 3.464954346418380737e-02 -4.322825744748115540e-02 -4.979345947504043579e-03 -1.237670332193374634e-02 -6.850098818540573120e-02 -1.066207233816385269e-02 3.955153003334999084e-02 -3.795685619115829468e-02 1.312161097303032875e-03 1.074138507246971130e-01 -2.851515077054500580e-02 -5.588752031326293945e-02 -7.106198463588953018e-03 3.119340538978576660e-02 2.427533082664012909e-02 1.490020845085382462e-02 -1.199432760477066040e-01 7.901384681463241577e-02 -3.008862584829330444e-02 -3.814069554209709167e-02 -2.494830451905727386e-02 3.322586789727210999e-02 -3.472026437520980835e-02 3.341195406392216682e-03 -5.394197069108486176e-03 -4.168017208576202393e-02 2.163973636925220490e-02
-6.110230088233947754e-02 -2.563728205859661102e-02 -2.007466182112693787e-02 1.081587895750999451e-01 2.926010265946388245e-02 1.349074952304363251e-02 5.267370492219924927e-02 -2.403411455452442169e-02 -1.821544393897056580e-02 1.086701378226280212e-01 1.413842756301164627e-02 3.283831104636192322e-02 6.862625479698181152e-03 5.843688920140266418e-02 -2.492537908256053925e-02 -1.535768341273069382e-02 -6.677338387817144394e-03 -2.259071730077266693e-02 -5.313105136156082153e-02 -4.884269461035728455e-02 3.465690463781356812e-02 2.769617736339569092e-02 3.105249628424644470e-02 1.454749330878257751e-02 1.289655175060033798e-02 -2.157087251543998718e-02 -9.685619175434112549e-02 1.801486872136592865e-02 1.444114092737436295e-02 -3.576994314789772034e-02 -3.594517009332776070e-03 -5.831710994243621826e-03
-8.332482725381851196e-02 -3.658669814467430115e-02 -7.924370467662811279e-03 1.000004708766937256e-01 2.254772558808326721e-02 -1.127589866518974304e-02 8.961084485054016113e-02 -4.286020994186401367e-02 -7.246611174196004868e-03 1.273527443408966064e-01 1.143099833279848099e-02 3.111698105931282043e-02 1.411773264408111572e-02 3.173715621232986450e-02 -3.206954896450042725e-02 -2.157283201813697815e-02 2.432365529239177704e-02 1.478385366499423981e-02 -2.888187021017074585e-02 -2.420832961797714233e-02 2.704424969851970673e-02 -5.103804916143417358e-02 1.635137945413589478e-02 1.867909543216228485e-02 7.882816717028617859e-03 -1.087424904108047485e-02 -9.459485113620758057e-02 4.897202178835868835e-02 -1.188459992408752441e-02 -1.031720172613859177e-02 -5.316095426678657532e-03 3.708351776003837585e-02
-7.824721932411193848e-02 -3.051148168742656708e-02 -2.274359343573451042e-03 6.724688410758972168e-02 3.358874097466468811e-02 -1.212005224078893661e-02 7.138795405626296997e-02 -5.118930339813232422e-02 2.641690662130713463e-03 1.032507866621017456e-01 1.821997202932834625e-02 2.893081121146678925e-02 -1.128334319218993187e-03 -6.822826340794563293e-03 -1.767149753868579865e-02 -5.957548506557941437e-03 3.936563804745674133e-02 5.307040736079216003e-02 1.753189018927514553e-03 -3.372532781213521957e-03 2.072623372077941895e-02 -1.250878572463989258e-01 3.245660103857517242e-03 1.450186409056186676e-02 -2.486406639218330383e-02 -7.397471345029771328e-04 -5.230560526251792908e-02 5.120818689465522766e-02 -4.432797897607088089e-03 2.567217685282230377e-03 -1.847743988037109375e-02 7.337040454149246216e-02
-5.565986782312393188e-02 -4.997624550014734268e-03 -9.793128818273544312e-03 3.066233545541763306e-02 4.193025827407836914e-02 5.478657782077789307e-03 1.291413977742195129e-02 -3.080146759748458862e-02 -5.357633810490369797e-03 3.510886058211326599e-02 6.424415390938520432e-03 1.700315438210964203e-02 -1.623925007879734039e-02 -2.084055356681346893e-02 1.789668388664722443e-02 6.156726740300655365e-03 7.696018088608980179e-03 3.876451775431632996e-02 4.609099589288234711e-03 5.001252982765436172e-03 3.158761560916900635e-02 -1.371902823448181152e-01 9.092554450035095215e-03 -3.888532519340515137e-03 -4.573814570903778076e-02 -1.776416203938424587e-03 6.038018967956304550e-03 4.008591640740633011e-03 3.404072951525449753e-03 1.846328191459178925e-02 -2.971996180713176727e-02 5.898961797356605530e-02
-4.795127362012863159e-02 1.696137338876724243e-02 -2.374417707324028015e-02 1.357847638428211212e-02 4.737734049558639526e-02 5.731971934437751770e-02 -4.845141246914863586e-02 -4.228955134749412537e-03 -2.741778828203678131e-02 -3.619999065995216370e-02 -2.141299191862344742e-03 1.096926350146532059e-02 -3.276458755135536194e-02 -9.715293534100055695e-03 4.447446390986442566e-02 5.176744423806667328e-03 -2.327394299209117889e-02 -1.708345301449298859e-02 3.875877475365996361e-03 9.844373911619186401e-03 4.693800583481788635e-02 -1.178196594119071960e-01 3.955850750207901001e-02 -1.963606663048267365e-02 -4.518727958202362061e-02 -5.953311920166015625e-03 2.796566858887672424e-02 -1.999127864837646484e-02 -4.760679788887500763e-03 1.101350132375955582e-02 -3.618673235177993774e-02 9.862789884209632874e-03
-5.190882459282875061e-02 -7.608843967318534851e-03 -1.199698913842439651e-02 9.674900770187377930e-02 1.567823067307472229e-02 1.039734669029712677e-02 4.115861654281616211e-02 -2.473690547049045563e-02 -6.398413795977830887e-03 6.047068536281585693e-02 4.794142674654722214e-03 -1.115681324154138565e-02 1.284205727279186249e-02 6.415244936943054199e-02 -1.201880201697349548e-01 -1.025684410706162453e-03 2.646753378212451935e-02 -2.019657380878925323e-02 -6.807240098714828491e-02 -5.961684510111808777e-02 4.420416429638862610e-02 7.113578729331493378e-03 1.335835084319114685e-02 7.250316441059112549e-03 5.691360216587781906e-03 2.731399238109588623e-02 -9.897506982088088989e-02 4.431366547942161560e-02 9.501841850578784943e-03 -2.589730732142925262e-02 6.373514421284198761e-03 -2.281482890248298645e-02
-7.588670402765274048e-02 -5.870386958122253418e-03 -4.137602169066667557e-03 1.005806624889373779e-01 9.104295633733272552e-03 -1.675829663872718811e-02 7.561147212982177734e-02 -4.097511991858482361e-02 1.258219406008720398e-02 8.632191270589828491e-02 2.242049574851989746e-02 -1.307633984833955765e-02 1.832994632422924042e-02 4.224310070276260376e-02 -1.590360105037689209e-01 -7.717790082097053528e-03 5.071495473384857178e-02 1.495308149605989456e-02 -3.822167217731475830e-02 -3.695717826485633850e-02 3.772474452853202820e-02 -5.159199982881546021e-02 -1.203317288309335709e-02 2.522755041718482971e-02 1.083278469741344452e-02 2.122623100876808167e-02 -1.003611236810684204e-01 5.703651532530784607e-02 -2.034393884241580963e-02 1.011537853628396988e-02 7.484535221010446548e-03 2.078850008547306061e-02
-7.685919851064682007e-02 -3.136201994493603706e-03 -1.447869348339736462e-03 7.718949019908905029e-02 2.409808896481990814e-02 -1.916176825761795044e-02 6.584641337394714355e-02 -4.794295132160186768e-02 1.966084167361259460e-02 8.695619553327560425e-02 3.828368335962295532e-02 -1.636804267764091492e-02 1.015909132547676563e-03 -1.996464794501662254e-03 -1.531261950731277466e-01 1.552753965370357037e-03 6.292521208524703979e-02 4.688635841012001038e-02 -7.329271640628576279e-03 -1.407572161406278610e-02 3.320412710309028625e-02 -1.033589914441108704e-01 -4.322771355509757996e-02 3.145725652575492859e-02 -7.133819162845611572e-03 1.268737856298685074e-02 -5.620352178812026978e-02 5.293813347816467285e-02 -1.956536062061786652e-02 2.868868224322795868e-02 -2.560183871537446976e-03 5.825345218181610107e-02
-6.064873188734054565e-02 1.085459347814321518e-02 -6.785298697650432587e-03 5.042853951454162598e-02 4.031172767281532288e-02 -4.053577780723571777e-03 1.704614236950874329e-02 -3.564772009849548340e-02 6.798775400966405869e-03 3.812267631292343140e-02 2.579098753631114960e-02 -2.125288359820842743e-02 -1.351564563810825348e-02 -2.172254025936126709e-02 -9.673503041267395020e-02 8.126262575387954712e-03 1.792861521244049072e-02 2.029285021126270294e-02 -9.643919765949249268e-03 -7.152833044528961182e-03 3.943444788455963135e-02 -9.987818449735641479e-02 -4.633579403162002563e-02 2.172603644430637360e-02 -2.300046570599079132e-02 9.599114768207073212e-03 3.894771216437220573e-03 3.165029454976320267e-03 -8.742116391658782959e-03 4.285420104861259460e-02 -1.591890677809715271e-02 4.147148504853248596e-02
-4.887517169117927551e-02 2.426450699567794800e-02 -1.585863903164863586e-02 3.777170926332473755e-02 4.681352525949478149e-02 5.313300713896751404e-02 -3.770993649959564209e-02 -1.511008851230144501e-02 -2.316205389797687531e-02 -2.944039367139339447e-02 6.290125194936990738e-03 -1.587144471704959869e-02 -2.658607810735702515e-02 -2.016987651586532593e-02 -3.111985325813293457e-02 1.306844496866688132e-04 -2.382963523268699646e-02 -3.957288339734077454e-02 -1.255953218787908554e-02 -5.267987144179642200e-04 4.305098950862884521e-02 -7.250821590423583984e-02 -1.201138645410537720e-02 9.716597385704517365e-03 -2.025982365012168884e-02 5.434008315205574036e-03 2.084714360535144806e-02 -2.022020332515239716e-02 -1.271178247407078743e-03 3.696960955858230591e-02 -2.878054045140743256e-02 2.270098775625228882e-09
-3.821634128689765930e-02 2.225465141236782074e-02 5.489904433488845825e-03 5.927564203739166260e-02 -1.856013387441635132e-02 -2.058971486985683441e-02 1.918788254261016846e-02 3.415791783481836319e-03 1.838687621057033539e-02 6.729785352945327759e-03 -4.187720827758312225e-03 -1.387955714017152786e-02 -2.390591427683830261e-03 4.045287519693374634e-02 -1.407321542501449585e-01 -1.583486795425415039e-02 3.843186795711517334e-02 -2.353999577462673187e-02 -8.261280506849288940e-02 -5.399060249328613281e-02 2.745273150503635406e-02 1.487036328762769699e-02 -6.337277125567197800e-03 3.355302847921848297e-03 1.903885789215564728e-02 5.316853150725364685e-02 -6.788209825754165649e-02 3.572981804609298706e-02 1.701146736741065979e-02 -7.749818731099367142e-03 1.249191258102655411e-02 -2.867682278156280518e-02
-5.358462035655975342e-02 3.789072111248970032e-02 1.163834426552057266e-02 6.505119055509567261e-02 -2.232130616903305054e-02 -4.715329781174659729e-02 5.089229345321655273e-02 -6.008435040712356567e-03 4.089550673961639404e-02 3.833177685737609863e-02 1.610863581299781799e-02 -1.939378120005130768e-02 3.903386881574988365e-03 2.911916375160217285e-02 -2.021527886390686035e-01 -2.964118123054504395e-02 5.743028968572616577e-02 8.526183664798736572e-03 -5.130445584654808044e-02 -3.770218789577484131e-02 1.761413179337978363e-02 -1.899563334882259369e-02 -3.912918642163276672e-02 3.075541369616985321e-02 2.893640287220478058e-02 3.656363859772682190e-02 -6.627377122640609741e-02 3.067902661859989166e-02 -1.672053150832653046e-02 2.922615222632884979e-02 1.641179434955120087e-02 1.118621975183486938e-02
-5.380287393927574158e-02 3.463865444064140320e-02 1.500909775495529175e-02 5.463642627000808716e-02 -3.290650201961398125e-03 -5.774630233645439148e-02 4.671249538660049438e-02 -1.289076078683137894e-02 4.820118471980094910e-02 4.995707795023918152e-02 3.068538941442966461e-02 -2.203369140625000000e-02 -1.168608944863080978e-02 -1.033044420182704926e-02 -1.987587958574295044e-01 -3.441150858998298645e-02 6.264184415340423584e-02 3.627688065171241760e-02 -1.886222697794437408e-02 -1.441481243818998337e-02 1.103662420064210892e-02 -3.822842612862586975e-02 -8.104553073644638062e-02 4.051801562309265137e-02 2.586182206869125366e-02 1.747228018939495087e-02 -2.893084660172462463e-02 2.416980452835559845e-02 -2.572839520871639252e-02 4.999249801039695740e-02 1.146207842975854874e-02 5.400142818689346313e-02
-3.860605880618095398e-02 3.754270076751708984e-02 6.203541532158851624e-03 4.447668790817260742e-02 1.431940682232379913e-02 -4.800775647163391113e-02 7.963844574987888336e-03 -6.512091960757970810e-03 3.255201131105422974e-02 1.677237637341022491e-02 1.416030619293451309e-02 -2.390654571354389191e-02 -2.059319987893104553e-02 -2.992300316691398621e-02 -1.296054869890213013e-01 -3.988581523299217224e-02 1.635318435728549957e-02 1.295359525829553604e-02 -1.925403438508510590e-02 -1.031142938882112503e-02 9.089789353311061859e-03 -2.553160116076469421e-02 -8.627179265022277832e-02 3.708956763148307800e-02 1.836278848350048065e-02 4.982424434274435043e-03 1.991584897041320801e-02 -1.435814704746007919e-02 -1.971458457410335541e-02 5.665235966444015503e-02 -4.385082283988595009e-04 5.099682882428169250e-02
-3.125035390257835388e-02 3.883174806833267212e-02 -7.837354205548763275e-04 4.184586554765701294e-02 1.979435048997402191e-02 5.241570062935352325e-03 -4.280371963977813721e-02 5.598695948719978333e-03 -3.018124494701623917e-03 -4.230419546365737915e-02 -1.196830999106168747e-02 -1.678410731256008148e-02 -2.558097615838050842e-02 -3.367286920547485352e-02 -4.225394502282142639e-02 -4.791399464011192322e-02 -2.461165376007556915e-02 -3.976633399724960327e-02 -2.159084193408489227e-02 1.623137504793703556e-03 9.555784054100513458e-04 -9.086034260690212250e-03 -5.204326659440994263e-02 2.840030379593372345e-02 2.220476791262626648e-02 1.173271681182086468e-03 2.662158198654651642e-02 -2.780131809413433075e-02 -5.466254428029060364e-03 4.670444875955581665e-02 -1.807623542845249176e-02 2.512711659073829651e-02
-1.092009618878364563e-02 1.757422648370265961e-02 1.907855644822120667e-02 -5.829795729368925095e-03 -6.640773266553878784e-02 -5.738345533609390259e-02 -3.276471421122550964e-02 -4.315547179430723190e-03 2.417357824742794037e-02 -2.605921216309070587e-02 -7.836501114070415497e-03 -8.095352910459041595e-03 -2.005024999380111694e-02 4.390624351799488068e-03 -9.203837066888809204e-02 1.422295533120632172e-02 1.858605886809527874e-03 -2.544675022363662720e-02 -8.625908195972442627e-02 -3.504575043916702271e-02 -4.656425677239894867e-03 4.561841860413551331e-02 -5.887554958462715149e-03 -6.213316693902015686e-03 1.734963990747928619e-02 5.428788065910339355e-02 -2.733705565333366394e-02 2.845262363553047180e-02 1.416248455643653870e-02 -1.409032568335533142e-02 3.254382871091365814e-03 -4.683650657534599304e-02
-2.224595472216606140e-02 3.870218247175216675e-02 1.651482097804546356e-02 -4.416996147483587265e-03 -7.027176767587661743e-02 -8.104424178600311279e-02 -4.227267112582921982e-03 -1.019353698939085007e-02 4.925297200679779053e-02 8.833045139908790588e-03 1.899805851280689240e-02 -1.646616682410240173e-02 -1.748114638030529022e-02 -2.175770234316587448e-03 -1.542753279209136963e-01 -8.021330460906028748e-03 1.688973046839237213e-02 1.247355685336515307e-04 -6.823723763227462769e-02 -2.380038425326347351e-02 -2.164113707840442657e-02 3.569070994853973389e-02 -4.025628417730331421e-02 2.466345019638538361e-02 2.717611938714981079e-02 3.223443776369094849e-02 -2.656744234263896942e-02 1.432088110595941544e-02 -1.088248100131750107e-02 2.131659537553787231e-02 5.147784017026424408e-03 -1.231093518435955048e-02
-1.764842681586742401e-02 4.020420461893081665e-02 1.612537726759910583e-02 -3.276938106864690781e-03 -5.299872159957885742e-02 -8.814255148172378540e-02 1.098567387089133263e-03 -9.556284174323081970e-03 5.996197834610939026e-02 2.949626557528972626e-02 3.434677049517631531e-02 -2.143506146967411041e-02 -2.924065478146076202e-02 -2.684629522264003754e-02 -1.546790897846221924e-01 -2.798544615507125854e-02 2.277877368032932281e-02 2.648507617413997650e-02 -3.812616690993309021e-02 1.891348161734640598e-03 -3.340305760502815247e-02 3.376552835106849670e-02 -7.656902074813842773e-02 4.343211650848388672e-02 3.574988245964050293e-02 4.854161292314529419e-03 5.422981455922126770e-03 1.076625194400548935e-02 -2.862155996263027191e-02 4.364250227808952332e-02 2.922528889030218124e-03 3.593402355909347534e-02
-5.785220768302679062e-03 4.295821115374565125e-02 8.882543072104454041e-03 4.830575082451105118e-03 -3.946886584162712097e-02 -8.759865164756774902e-02 -2.875978499650955200e-02 -5.191360134631395340e-03 5.071191489696502686e-02 3.701928537338972092e-03 1.624912209808826447e-02 -2.019518427550792694e-02 -2.790730446577072144e-02 -4.008355364203453064e-02 -8.400596678256988525e-02 -4.384955763816833496e-02 -1.867808960378170013e-02 1.730131730437278748e-02 -3.011666052043437958e-02 8.963560685515403748e-03 -3.890991955995559692e-02 4.398244619369506836e-02 -7.753844559192657471e-02 4.530614987015724182e-02 3.462189808487892151e-02 -1.046881265938282013e-02 4.488803073763847351e-02 -1.016108039766550064e-02 -2.222822606563568115e-02 4.510048404335975647e-02 -5.384169053286314011e-03 4.740741476416587830e-02
-6.057085003703832626e-03 4.220374673604965210e-02 7.193772587925195694e-03 1.875194907188415527e-02 -3.623553365468978882e-02 -4.130377620458602905e-02 -7.005155086517333984e-02 3.434129524976015091e-03 1.523708272725343704e-02 -5.580768361687660217e-02 -1.779683865606784821e-02 -1.397329568862915039e-02 -2.521487511694431305e-02 -4.051939770579338074e-02 4.555358027573674917e-04 -5.852090939879417419e-02 -4.832386597990989685e-02 -9.746767580509185791e-03 -2.865525893867015839e-02 2.216684445738792419e-02 -4.795105382800102234e-02 4.223717749118804932e-02 -4.718062654137611389e-02 3.928007557988166809e-02 3.790611773729324341e-02 -1.647659949958324432e-02 4.149485379457473755e-02 -1.461584120988845825e-02 -1.009699888527393341e-02 2.843393012881278992e-02 -2.162878587841987610e-02 2.845323458313941956e-02
-3.109500557184219360e-02 -9.819416329264640808e-03 -3.997150436043739319e-02 6.857281178236007690e-02 2.154871821403503418e-02 -1.837772317230701447e-02 8.768388070166110992e-03 -1.308102346956729889e-02 -3.307015448808670044e-02 -6.587498355656862259e-03 -8.801280520856380463e-03 3.945416212081909180e-02 4.872756451368331909e-02 3.417663974687457085e-03 -2.506928518414497375e-02 3.167121484875679016e-02 -4.396291449666023254e-02 -1.957395859062671661e-02 -7.271774113178253174e-03 2.899187244474887848e-02 -1.591304689645767212e-02 3.929337859153747559e-02 6.026061996817588806e-02 3.007553890347480774e-02 -1.078980043530464172e-02 -2.604789100587368011e-03 -6.503524631261825562e-02 -2.497803606092929840e-02 1.988188549876213074e-02 -5.286244675517082214e-02 5.637730658054351807e-02 -6.899540126323699951e-02
-3.422852605581283569e-02 -2.000481262803077698e-02 -4.637030884623527527e-02 3.365533798933029175e-02 4.145865514874458313e-02 -2.047066949307918549e-02 9.601614437997341156e-03 -3.385339677333831787e-02 -2.284154482185840607e-02 1.507944986224174500e-02 1.008590124547481537e-02 6.157098338007926941e-02 4.412652179598808289e-02 8.242468349635601044e-03 -1.908484287559986115e-02 2.898027747869491577e-02 -7.988791912794113159e-03 -3.087305091321468353e-02 1.202509086579084396e-02 9.786134585738182068e-03 -2.004227600991725922e-02 5.791015550494194031e-02 3.699120506644248962e-02 2.651906199753284454e-02 -1.144880242645740509e-02 5.256474483758211136e-03 -4.451973736286163330e-02 9.129414684139192104e-04 3.826226340606808662e-03 -2.559313550591468811e-02 8.508261293172836304e-02 -4.931393638253211975e-02
-3.806316852569580078e-02 -8.774799294769763947e-03 -4.630881920456886292e-02 7.229080423712730408e-03 4.103729501366615295e-02 -1.703565940260887146e-02 -2.714700996875762939e-02 -4.002341628074645996e-02 -7.629113271832466125e-03 1.146291010081768036e-02 2.405170165002346039e-02 5.239097774028778076e-02 2.119904011487960815e-02 -7.450546137988567352e-03 -1.895237900316715240e-02 2.212935127317905426e-02 -1.067793369293212891e-02 -1.603514887392520905e-02 4.635302722454071045e-02 -2.128240466117858887e-02 -1.077110413461923599e-02 6.204553693532943726e-02 1.851990446448326111e-02 1.516721677035093307e-02 -1.307217497378587723e-02 2.586063637863844633e-04 -3.190769627690315247e-02 1.693419553339481354e-02 2.007611282169818878e-02 -4.097139462828636169e-03 9.636012464761734009e-02 -1.399369444698095322e-02
-2.571302093565464020e-02 -7.965791970491409302e-03 -4.006107896566390991e-02 -1.435687299817800522e-02 8.327264338731765747e-03 -1.953668892383575439e-03 -5.318704247474670410e-02 -2.876045554876327515e-02 -3.788173198699951172e-03 -2.811306715011596680e-02 3.992681391537189484e-03 4.228739067912101746e-02 -5.122072529047727585e-03 -2.593270130455493927e-02 4.421055491548031569e-04 -4.618307575583457947e-03 -1.719141192734241486e-02 -1.618259400129318237e-02 5.619314685463905334e-02 -4.028831422328948975e-02 1.904321461915969849e-02 7.270895689725875854e-02 1.956185325980186462e-02 -7.594111375510692596e-03 -1.367012597620487213e-02 5.411351565271615982e-03 -4.081218969076871872e-03 3.417992033064365387e-03 3.427142649888992310e-02 2.208879962563514709e-02 6.753458827733993530e-02 8.799728937447071075e-03
-4.262288659811019897e-02 1.457080151885747910e-02 -1.989215984940528870e-02 -3.224914893507957458e-02 -3.099172934889793396e-02 1.344431377947330475e-02 -7.940161973237991333e-02 -2.135987766087055206e-02 -8.011445403099060059e-03 -5.144419893622398376e-02 -1.636150851845741272e-02 4.495060071349143982e-02 -2.175697498023509979e-02 -2.199541032314300537e-02 4.145559854805469513e-03 -3.744179755449295044e-02 -4.126179590821266174e-02 -1.668549515306949615e-02 3.905124217271804810e-02 -5.386351794004440308e-02 4.399579390883445740e-02 4.303999617695808411e-02 2.335875667631626129e-02 -3.701188787817955017e-02 1.050810236483812332e-02 2.050638012588024139e-02 2.185113541781902313e-02 -1.308185281231999397e-03 2.167724072933197021e-02 1.631057076156139374e-02 2.074193209409713745e-02 2.385672926902770996e-02
3.587282262742519379e-04 -1.076889131218194962e-02 5.300377961248159409e-04 6.259778887033462524e-02 1.085141021758317947e-02 7.464702706784009933e-03 2.124878950417041779e-02 2.490092441439628601e-02 -3.181850910186767578e-02 -3.336741775274276733e-02 -3.158541768789291382e-02 2.850756980478763580e-02 1.716353371739387512e-02 1.536598615348339081e-02 -1.311117503792047501e-02 2.512680925428867340e-02 -3.631671518087387085e-02 1.442575547844171524e-02 -2.763536199927330017e-02 3.873470425605773926e-02 -1.983343251049518585e-02 4.239850118756294250e-02 4.852454736828804016e-02 -8.175448514521121979e-03 4.251692444086074829e-03 1.933220773935317993e-02 -6.183781474828720093e-02 6.782391108572483063e-03 2.729806490242481232e-02 -7.005551457405090332e-02 1.739100553095340729e-02 -6.519762426614761353e-02
-1.584779471158981323e-02 -1.639237068593502045e-02 -2.398833865299820900e-03 2.866376377642154694e-02 1.788175292313098907e-02 6.543383933603763580e-04 3.579557687044143677e-02 9.328894084319472313e-04 -3.114807233214378357e-02 6.506539066322147846e-04 -8.301856927573680878e-03 5.639666691422462463e-02 1.905164681375026703e-02 1.680984720587730408e-02 -1.340464595705270767e-02 4.236146807670593262e-02 -2.725796774029731750e-03 -3.605112899094820023e-03 -5.660109454765915871e-04 1.923888735473155975e-02 -1.976936310529708862e-02 5.508149042725563049e-02 1.912549883127212524e-02 -5.075026303529739380e-03 -1.535168557893484831e-04 1.615160331130027771e-02 -5.915886536240577698e-02 3.200637176632881165e-02 1.459360495209693909e-02 -2.600985765457153320e-02 4.465476796030998230e-02 -5.382616817951202393e-02
-1.934848539531230927e-02 -5.213535390794277191e-03 -1.838906900957226753e-04 -3.681401954963803291e-03 1.748179830610752106e-02 -2.321042586117982864e-03 1.033950038254261017e-02 -9.112625382840633392e-03 -2.342723123729228973e-02 1.569064147770404816e-02 4.156890325248241425e-03 3.274287655949592590e-02 -6.433172966353595257e-04 2.395256888121366501e-03 -1.555238477885723114e-02 4.391454160213470459e-02 8.913071826100349426e-03 2.593069104477763176e-03 3.500949591398239136e-02 -6.605646107345819473e-03 -1.726290956139564514e-02 5.782873928546905518e-02 3.658619243651628494e-03 -1.412351895123720169e-02 -3.666247008368372917e-03 -1.608415390364825726e-03 -5.723496153950691223e-02 4.588175937533378601e-02 2.456499077379703522e-02 1.300154440104961395e-02 5.082358419895172119e-02 -2.783677540719509125e-02
-5.688834469765424728e-03 -1.865881262347102165e-03 6.656849291175603867e-04 -2.205622754991054535e-02 -5.472197197377681732e-03 8.050558157265186310e-03 -9.390516206622123718e-03 2.011885168030858040e-03 -1.799989491701126099e-02 -1.028755307197570801e-02 -2.026136405766010284e-02 2.609061310067772865e-03 -2.693671919405460358e-02 -9.636204689741134644e-03 5.720600020140409470e-04 3.076323866844177246e-02 -1.160452156909741461e-04 -1.046480331569910049e-02 5.150973051786422729e-02 -2.066611498594284058e-02 -2.690674737095832825e-03 6.675457209348678589e-02 3.689726348966360092e-03 -2.660620398819446564e-02 -7.635334972292184830e-03 -4.678593482822179794e-03 -1.949331723153591156e-02 2.258508466184139252e-02 3.136517480015754700e-02 5.388801172375679016e-02 2.765972167253494263e-02 -5.124587099999189377e-03
-1.905227638781070709e-02 1.311069540679454803e-02 1.278144307434558868e-02 -2.537428215146064758e-02 -3.705019131302833557e-02 2.236490882933139801e-02 -3.496438264846801758e-02 1.304997038096189499e-02 -1.361571531742811203e-02 -3.758275508880615234e-02 -3.937393426895141602e-02 -2.114831702783703804e-03 -4.422141984105110168e-02 -4.801053088158369064e-03 6.600706838071346283e-03 4.999808035790920258e-03 -2.221430465579032898e-02 -1.760635338723659515e-02 3.939200565218925476e-02 -3.296961262822151184e-02 1.222434919327497482e-02 4.148669540882110596e-02 1.328610442578792572e-02 -4.239611700177192688e-02 1.582626625895500183e-02 1.574217341840267181e-02 1.656346209347248077e-02 1.550702960230410099e-03 2.016566321253776550e-02 5.256216600537300110e-02 -9.570618160068988800e-03 1.462524011731147766e-02
9.148912504315376282e-03 1.371698733419179916e-02 2.363228425383567810e-02 4.134899005293846130e-02 1.559255458414554596e-02 2.671917527914047241e-02 2.038232237100601196e-02 3.152026981115341187e-02 -1.989276334643363953e-02 -3.666270524263381958e-02 -2.370091155171394348e-02 -3.528501465916633606e-02 9.611083194613456726e-03 1.639406755566596985e-02 -1.704576052725315094e-02 2.606070600450038910e-02 -2.249564416706562042e-02 3.890116140246391296e-02 -1.617127470672130585e-02 5.047398805618286133e-02 -2.391625195741653442e-02 3.521439433097839355e-02 2.150633931159973145e-02 -1.508202776312828064e-02 -1.017399877309799194e-02 2.075912430882453918e-02 -6.953857094049453735e-02 2.790919132530689240e-02 2.615261077880859375e-02 -4.854395985603332520e-02 -1.429077610373497009e-02 -3.378795832395553589e-02
-5.111546255648136139e-03 1.863075420260429382e-02 3.343911096453666687e-02 1.454893127083778381e-02 6.221862044185400009e-03 8.801219053566455841e-03 5.067018792033195496e-02 1.353860832750797272e-02 -1.813587546348571777e-02 1.169633865356445312e-02 -7.544505642727017403e-04 -5.781305953860282898e-03 1.170015614479780197e-02 1.442710030823945999e-02 -1.890516094863414764e-02 5.438802763819694519e-02 9.148677345365285873e-04 1.643438450992107391e-02 8.926404640078544617e-03 3.216507658362388611e-02 -2.691533230245113373e-02 2.697418443858623505e-02 -5.906883161514997482e-03 2.463337266817688942e-03 -1.604329794645309448e-02 1.990983262658119202e-02 -6.670940667390823364e-02 4.543812200427055359e-02 1.513862423598766327e-02 -1.252522598952054977e-02 2.579531399533152580e-03 -3.065654449164867401e-02
-1.049415022134780884e-02 1.841757260262966156e-02 3.536949679255485535e-02 -9.584829211235046387e-03 2.195366658270359039e-03 -4.639359191060066223e-03 4.467366635799407959e-02 1.031581033021211624e-02 -2.532571926712989807e-02 4.295917600393295288e-02 9.080116637051105499e-03 -3.384369239211082458e-02 3.841041761916130781e-04 6.818102207034826279e-03 -1.062082964926958084e-02 6.128986924886703491e-02 1.945582590997219086e-02 2.167976461350917816e-02 3.826311603188514709e-02 1.221388857811689377e-02 -2.505394443869590759e-02 2.049297280609607697e-02 -1.940339803695678711e-02 -3.508322639390826225e-03 -1.523508317768573761e-02 1.166781596839427948e-02 -6.512881815433502197e-02 4.464200139045715332e-02 1.653282903134822845e-02 1.947346515953540802e-02 4.710739012807607651e-03 -8.866828866302967072e-03
8.978558704257011414e-03 1.263302378356456757e-02 4.396402835845947266e-02 -2.313849329948425293e-02 -6.903113331645727158e-03 5.141206202097237110e-04 3.107310272753238678e-02 1.800009049475193024e-02 -2.891514264047145844e-02 2.187148295342922211e-02 -1.964284107089042664e-02 -5.348173156380653381e-02 -2.167354524135589600e-02 9.572950191795825958e-03 7.841388694941997528e-03 6.182776391506195068e-02 4.383739084005355835e-03 -2.180780051276087761e-03 4.454240575432777405e-02 -2.571376506239175797e-03 -2.099859528243541718e-02 3.350427001714706421e-02 -1.276504807174205780e-02 -9.737281128764152527e-03 -1.658838614821434021e-02 5.431049969047307968e-03 -3.378241881728172302e-02 1.679012365639209747e-02 2.603657543659210205e-02 5.846859514713287354e-02 -1.223772205412387848e-02 1.421036012470722198e-02
4.752025008201599121e-03 2.138605713844299316e-02 5.808422714471817017e-02 -2.207176573574542999e-02 -1.852141134440898895e-02 2.000414766371250153e-02 3.645588876679539680e-03 2.382504194974899292e-02 -2.355134859681129456e-02 -5.575335584580898285e-03 -4.139959439635276794e-02 -4.261283576488494873e-02 -3.780069947242736816e-02 2.201497741043567657e-02 2.555457130074501038e-02 4.372058436274528503e-02 -2.394214272499084473e-02 -6.339929066598415375e-03 2.717752754688262939e-02 -2.210865728557109833e-02 -1.054095383733510971e-02 2.314702793955802917e-02 -8.988138288259506226e-03 -3.077479265630245209e-02 2.542008180171251297e-03 2.994412370026111603e-02 -7.841576822102069855e-03 -2.396139083430171013e-03 2.191827818751335144e-02 5.817947536706924438e-02 -4.127175733447074890e-02 3.449261188507080078e-02
1.424532104283571243e-02 1.974760740995407104e-02 2.607247792184352875e-02 1.865698397159576416e-02 1.309808995574712753e-02 5.245208367705345154e-02 -5.631486885249614716e-03 4.041470214724540710e-02 -1.743979752063751221e-02 -4.179836809635162354e-02 -2.129724435508251190e-02 -6.553481519222259521e-02 -1.126966904848814011e-02 1.082591363228857517e-03 1.489063631743192673e-02 2.920215483754873276e-04 -5.078319460153579712e-03 2.194063179194927216e-02 -1.161565259099006653e-02 4.160245135426521301e-02 -1.524270884692668915e-02 3.643618151545524597e-02 -3.831384237855672836e-03 -3.171568363904953003e-02 1.955958083271980286e-02 8.665513247251510620e-03 -2.676144801080226898e-02 2.485548378899693489e-03 1.494681835174560547e-02 -1.560995914041996002e-02 -2.968492358922958374e-02 -1.324767991900444031e-02
-4.399408586323261261e-03 3.303837776184082031e-02 4.415027424693107605e-02 -3.874677466228604317e-03 -1.497114356607198715e-02 2.510551363229751587e-02 3.214569017291069031e-02 2.690592408180236816e-02 -1.460115425288677216e-03 8.606685325503349304e-03 -4.835142754018306732e-03 -4.530714824795722961e-02 6.548535893671214581e-04 -4.173408728092908859e-03 1.168116740882396698e-02 2.835066802799701691e-02 1.168174855411052704e-02 1.370790228247642517e-02 5.684093921445310116e-04 3.251590952277183533e-02 -2.401088923215866089e-02 1.190080493688583374e-02 -2.784588932991027832e-02 -1.206337008625268936e-02 1.934722438454627991e-02 9.809257462620735168e-03 -3.224510699510574341e-02 1.391544844955205917e-02 1.510664448142051697e-02 3.855978604406118393e-03 -1.819839514791965485e-02 2.283779904246330261e-04
-1.914090849459171295e-02 3.079757280647754669e-02 4.496926441788673401e-02 -2.273987233638763428e-02 -2.234883047640323639e-02 7.028965745121240616e-03 4.998171702027320862e-02 2.875438332557678223e-02 -1.201751641929149628e-02 4.668645560741424561e-02 7.388963364064693451e-03 -6.952831149101257324e-02 -2.138482639566063881e-03 -3.899898845702409744e-03 7.373783737421035767e-03 2.620345912873744965e-02 2.408496476709842682e-02 2.762491814792156219e-02 1.359304971992969513e-02 2.314863540232181549e-02 -2.722995355725288391e-02 5.098814610391855240e-03 -3.513290360569953918e-02 -2.413230389356613159e-02 3.375240042805671692e-02 9.968607686460018158e-03 -3.278723731637001038e-02 8.317659609019756317e-03 1.233476679772138596e-02 6.779043003916740417e-03 -2.438783645629882812e-02 1.746979542076587677e-02
-8.947160094976425171e-03 2.704571746289730072e-02 5.463443696498870850e-02 -2.485948801040649414e-02 -2.149542421102523804e-02 1.107171177864074707e-02 5.036768317222595215e-02 2.905056998133659363e-02 -2.355127409100532532e-02 2.892711944878101349e-02 -1.184256002306938171e-02 -7.375995814800262451e-02 -1.314293965697288513e-02 4.216316621750593185e-03 1.242641080170869827e-02 2.967008203268051147e-02 -6.548685487359762192e-03 2.664560684934258461e-03 1.963967084884643555e-02 1.528414431959390640e-02 -2.332541346549987793e-02 2.883616648614406586e-02 -2.819569781422615051e-02 -3.343858942389488220e-02 2.943366207182407379e-02 1.045586075633764267e-02 -7.759093772619962692e-03 -6.221890449523925781e-03 2.020968683063983917e-02 2.043165452778339386e-02 -3.853126615285873413e-02 3.683386370539665222e-02
-1.167531870305538177e-02 2.531679905951023102e-02 6.363420933485031128e-02 -2.006625197827816010e-02 -2.289858460426330566e-02 2.991716377437114716e-02 3.225805982947349548e-02 3.015494532883167267e-02 -2.784986421465873718e-02 3.811837523244321346e-04 -2.509838156402111053e-02 -4.098014533519744873e-02 -2.032140828669071198e-02 2.071332186460494995e-02 2.381778880953788757e-02 4.496625158935785294e-03 -4.323031008243560791e-02 4.435040056705474854e-03 4.460834898054599762e-03 -7.129955571144819260e-03 -1.473668403923511505e-02 2.144321426749229431e-02 -2.570796199142932892e-02 -4.748811200261116028e-02 4.083223640918731689e-02 2.364289388060569763e-02 1.538750436156988144e-02 -6.354438140988349915e-03 1.094493549317121506e-02 -7.399814669042825699e-03 -5.681364610791206360e-02 4.846999421715736389e-02
7.618608651682734489e-04 5.707207601517438889e-03 4.081839323043823242e-02 -1.064377184957265854e-02 -1.965230330824851990e-02 4.403379186987876892e-02 -3.769938275218009949e-02 4.089690744876861572e-02 -3.925353288650512695e-02 -3.905166313052177429e-02 -4.796885419636964798e-03 -7.312849909067153931e-02 -1.888785511255264282e-02 -1.744730584323406219e-02 3.424474969506263733e-02 -1.328126993030309677e-02 -9.053488261997699738e-03 -2.824527956545352936e-02 -1.531358622014522552e-02 2.850810997188091278e-02 -7.964488118886947632e-03 3.791896626353263855e-02 -3.607156500220298767e-02 -6.146198883652687073e-02 1.429347228258848190e-02 -1.759778894484043121e-02 2.025042474269866943e-02 -3.449054434895515442e-02 -1.723139733076095581e-02 1.727355271577835083e-02 -3.683487325906753540e-02 -2.138284593820571899e-02
-7.143243215978145599e-03 1.955116540193557739e-02 5.176169425249099731e-02 -3.101334162056446075e-02 -4.779477044939994812e-02 1.271542999893426895e-02 3.951217979192733765e-03 3.628699481487274170e-02 -1.128231454640626907e-02 7.377661298960447311e-03 4.169473424553871155e-03 -7.288344204425811768e-02 -1.595562137663364410e-02 -2.795331738889217377e-02 2.353077568113803864e-02 4.947138018906116486e-03 -1.473648298997431993e-04 -3.321702405810356140e-02 -9.612841531634330750e-03 2.305011078715324402e-02 -2.361344546079635620e-02 6.479392293840646744e-03 -5.539975687861442566e-02 -5.205721780657768250e-02 3.482697997242212296e-03 -2.371308393776416779e-02 1.932849758304655552e-03 -2.288421615958213806e-02 -1.349944435060024261e-02 3.612767904996871948e-02 -3.309451788663864136e-02 -7.101199124008417130e-03
-2.441841922700405121e-02 1.985911279916763306e-02 5.204228311777114868e-02 -3.945219144225120544e-02 -5.388878285884857178e-02 5.875444912817329168e-05 3.788544237613677979e-02 3.713211789727210999e-02 -7.759314496070146561e-03 3.720174357295036316e-02 1.422443613409996033e-02 -8.610929548740386963e-02 -2.053212746977806091e-02 -3.105896711349487305e-02 1.237262878566980362e-02 -1.038073375821113586e-02 8.376491256058216095e-03 -1.535977888852357864e-02 -7.131884340196847916e-04 1.176982279866933823e-02 -3.308847919106483459e-02 -5.538338795304298401e-03 -6.469132751226425171e-02 -6.040618568658828735e-02 1.290005911141633987e-02 -2.232351712882518768e-02 7.215694058686494827e-03 -2.063460461795330048e-02 -1.664319261908531189e-02 2.955533005297183990e-02 -3.913587331771850586e-02 1.070656813681125641e-02
-2.160953916609287262e-02 1.902638748288154602e-02 6.041302531957626343e-02 -1.809631474316120148e-02 -5.147169157862663269e-02 1.567622413858771324e-03 4.945426061749458313e-02 2.410743385553359985e-02 -1.376816630363464355e-02 2.385691739618778229e-02 1.788518391549587250e-03 -7.079236209392547607e-02 -1.890909858047962189e-02 -2.017210423946380615e-02 1.339165121316909790e-02 -1.394556369632482529e-02 -2.808298543095588684e-02 -2.397714182734489441e-02 5.801355931907892227e-03 1.355120819061994553e-02 -2.846069447696208954e-02 3.700492903590202332e-03 -5.849658325314521790e-02 -6.216815859079360962e-02 1.032575592398643494e-02 -2.205635234713554382e-02 3.565648570656776428e-02 -1.169259194284677505e-02 -1.472228299826383591e-02 2.075961977243423462e-02 -4.514206573367118835e-02 2.648152038455009460e-02
-2.163022384047508240e-02 1.540765259414911270e-02 6.670245528221130371e-02 9.274421026930212975e-04 -4.630676284432411194e-02 2.503980696201324463e-02 4.409184306859970093e-02 1.845379173755645752e-02 -2.406194806098937988e-02 -3.049631370231509209e-03 -7.723716087639331818e-03 -2.367549762129783630e-02 -1.483771204948425293e-02 -1.327878795564174652e-03 2.376757189631462097e-02 -3.512644767761230469e-02 -6.925271451473236084e-02 -6.765318568795919418e-03 -7.484794594347476959e-03 4.333239514380693436e-03 -2.613813430070877075e-02 -5.916156806051731110e-03 -6.104997918009757996e-02 -7.004633545875549316e-02 2.718916535377502441e-02 -1.719028316438198090e-02 5.232685804367065430e-02 7.965960539877414703e-03 -1.721407659351825714e-02 -2.917580120265483856e-02 -5.471055209636688232e-02 3.942448273301124573e-02
-4.915225505828857422e-02 6.892566382884979248e-02 -2.639899216592311859e-02 1.706115785054862499e-03 -6.953417509794235229e-02 -8.677680790424346924e-02 1.010757386684417725e-01 -6.530803442001342773e-02 1.263608317822217941e-02 -2.821815200150012970e-02 7.192368805408477783e-02 -1.859349757432937622e-02 -4.347486421465873718e-02 -4.309904761612415314e-03 2.188223786652088165e-02 2.151549421250820160e-02 -4.916944727301597595e-02 1.748348958790302277e-02 6.545373052358627319e-02 2.008016593754291534e-02 3.083482384681701660e-02 -1.989431865513324738e-02 -3.243746235966682434e-02 -3.132059797644615173e-02 4.466642066836357117e-02 -9.361512027680873871e-03 -9.498306550085544586e-03 -7.637534290552139282e-02 8.724493533372879028e-02 1.800199039280414581e-02 1.564872451126575470e-02 -8.130511641502380371e-02
-2.640666253864765167e-02 4.880372062325477600e-02 -6.254467368125915527e-02 2.538126660510897636e-03 -3.013145737349987030e-02 -6.305620074272155762e-02 1.133986115455627441e-01 -6.959744542837142944e-02 1.989619992673397064e-02 1.583062298595905304e-02 8.242053538560867310e-02 -2.358371019363403320e-02 -3.247675672173500061e-02 -3.210853319615125656e-03 2.228487655520439148e-02 6.271917372941970825e-02 -6.231847405433654785e-02 1.939008384943008423e-02 3.396895155310630798e-02 -9.620126220397651196e-04 3.753231093287467957e-02 -5.342671647667884827e-03 -4.891798645257949829e-02 -4.419492930173873901e-02 8.712914586067199707e-02 5.181804671883583069e-02 4.576013609766960144e-02 -9.599370509386062622e-02 5.442719161510467529e-02 1.807545498013496399e-02 1.999205350875854492e-02 -7.597709447145462036e-02
1.600464340299367905e-03 3.420951962471008301e-02 -7.312411069869995117e-02 5.080077797174453735e-03 3.754403907805681229e-03 -2.711491100490093231e-02 6.958982348442077637e-02 -6.578098237514495850e-02 4.785463213920593262e-03 4.091385379433631897e-02 7.156147062778472900e-02 -2.210930734872817993e-02 2.895189216360449791e-03 -3.554415889084339142e-03 1.928713172674179077e-02 9.721753746271133423e-02 -6.790715456008911133e-02 2.810819074511528015e-02 -1.419039163738489151e-02 -1.447774469852447510e-02 4.353823885321617126e-02 2.021104097366333008e-02 -7.876942306756973267e-02 -3.568213805556297302e-02 1.027670204639434814e-01 1.042552888393402100e-01 7.306087762117385864e-02 -1.071631833910942078e-01 -1.702741906046867371e-02 1.247835252434015274e-02 2.040611021220684052e-02 -4.611499235033988953e-02
-3.553520515561103821e-02 9.028834290802478790e-03 -6.499667465686798096e-02 5.521985236555337906e-03 1.159320957958698273e-02 -7.845551590435206890e-04 2.542820200324058533e-02 -6.061674654483795166e-02 -1.184780988842248917e-02 4.607589915394783020e-02 7.153103500604629517e-02 -1.607611589133739471e-02 2.512793056666851044e-02 -1.081498060375452042e-02 -7.738096173852682114e-03 8.800492435693740845e-02 -4.380240291357040405e-02 3.672086820006370544e-02 -4.213127866387367249e-02 -5.130072589963674545e-03 4.905097559094429016e-02 3.876284509897232056e-02 -6.076657027006149292e-02 -1.946633867919445038e-02 1.053665429353713989e-01 9.403604269027709961e-02 4.352598264813423157e-02 -1.044818162918090820e-01 -6.223698332905769348e-02 5.483162123709917068e-03 -3.175908466801047325e-03 -5.290326476097106934e-02
-6.106227263808250427e-02 -4.972463008016347885e-03 -4.583440348505973816e-02 8.619375526905059814e-03 -1.013010274618864059e-02 2.910635620355606079e-02 -6.391569040715694427e-03 -4.459632560610771179e-02 -1.629750430583953857e-02 4.739461466670036316e-02 4.951104521751403809e-02 -2.230285666882991791e-02 2.137606777250766754e-02 -1.912600127980113029e-03 -3.109131753444671631e-02 6.548272073268890381e-02 -4.787473753094673157e-02 4.401321709156036377e-02 -1.641316525638103485e-02 1.095915678888559341e-02 3.312941268086433411e-02 9.176517836749553680e-03 -3.342423215508460999e-02 1.316686626523733139e-02 7.440119236707687378e-02 5.780155956745147705e-02 1.601728238165378571e-02 -7.701754570007324219e-02 -4.879846423864364624e-02 1.312979846261441708e-03 -1.925954408943653107e-02 -6.670637428760528564e-02
-4.961529001593589783e-02 7.990725338459014893e-02 -3.112278692424297333e-02 -2.263796702027320862e-02 -1.439454779028892517e-02 -9.480684995651245117e-02 1.038100868463516235e-01 -4.745712876319885254e-02 2.105006761848926544e-02 -3.108975663781166077e-02 9.380140155553817749e-02 -4.239270836114883423e-02 -5.312228202819824219e-02 5.371846258640289307e-03 6.036557722836732864e-03 -9.897429496049880981e-03 -5.641033500432968140e-02 8.907247334718704224e-03 7.747279852628707886e-02 1.594688557088375092e-02 4.039575532078742981e-02 -2.850553952157497406e-02 -3.817621991038322449e-02 -5.942496284842491150e-02 4.441050812602043152e-02 1.599502190947532654e-02 -2.382857352495193481e-02 -1.170630827546119690e-01 1.045220345258712769e-01 2.703792415559291840e-02 7.369541563093662262e-03 -7.174956798553466797e-02
-4.881815984845161438e-02 5.717333778738975525e-02 -7.697443664073944092e-02 -3.346823528409004211e-02 4.766278713941574097e-02 -7.895237207412719727e-02 1.226834729313850403e-01 -6.777076423168182373e-02 3.569952771067619324e-02 -1.062733121216297150e-02 1.191689670085906982e-01 -5.391011387109756470e-02 -5.698059871792793274e-02 -4.348108544945716858e-03 3.678565146401524544e-03 3.607120737433433533e-02 -7.640139758586883545e-02 1.370896957814693451e-02 4.358354583382606506e-02 -2.378453966230154037e-03 3.025752864778041840e-02 -1.524486113339662552e-02 -6.229005753993988037e-02 -5.986990779638290405e-02 7.314415276050567627e-02 6.703118979930877686e-02 4.850573837757110596e-02 -1.600911021232604980e-01 1.315645277500152588e-01 1.598712243139743805e-02 1.804162934422492981e-02 -7.080867886543273926e-02
-2.884616516530513763e-02 3.551571816205978394e-02 -9.669851511716842651e-02 -3.466402739286422729e-02 9.753944724798202515e-02 -2.992836385965347290e-02 6.462027132511138916e-02 -7.077218592166900635e-02 3.067179583013057709e-02 2.939119562506675720e-02 1.185002550482749939e-01 -5.025606974959373474e-02 -1.576229929924011230e-02 -2.092272043228149414e-02 6.540280301123857498e-03 7.923498004674911499e-02 -7.760550826787948608e-02 1.755229383707046509e-02 -3.813589364290237427e-02 -3.834337927401065826e-03 1.863797754049301147e-02 1.097525283694267273e-02 -8.023152500391006470e-02 -2.428442984819412231e-02 8.692108094692230225e-02 1.498278975486755371e-01 6.145028024911880493e-02 -1.622212380170822144e-01 6.926757097244262695e-02 4.017362371087074280e-03 2.138028852641582489e-02 -3.817970678210258484e-02
-3.789540380239486694e-02 1.042158529162406921e-02 -8.651927858591079712e-02 -1.053347531706094742e-02 9.249901771545410156e-02 7.568773347884416580e-03 4.546971991658210754e-03 -6.203562393784523010e-02 7.450261153280735016e-03 6.059769168496131897e-02 1.212654709815979004e-01 -2.848902717232704163e-02 2.656626142561435699e-02 -2.911903336644172668e-02 -9.741092100739479065e-03 7.645850628614425659e-02 -6.201933696866035461e-02 3.405510261654853821e-02 -9.388907998800277710e-02 7.945151068270206451e-03 1.842636987566947937e-02 4.640097916126251221e-02 -6.285768002271652222e-02 -5.297047086060047150e-03 8.652931451797485352e-02 1.558580100536346436e-01 2.934651076793670654e-02 -1.200844869017601013e-01 2.810913065331988037e-05 -6.889436859637498856e-03 5.205110646784305573e-03 -3.664315864443778992e-02
-3.909761458635330200e-02 -3.021979064214974642e-04 -6.162277236580848694e-02 9.096297435462474823e-03 2.531741745769977570e-02 5.338850617408752441e-02 -4.106141626834869385e-02 -4.404193535447120667e-02 2.397334901615977287e-03 5.228972062468528748e-02 9.251561015844345093e-02 -3.638797998428344727e-02 2.576380036771297455e-02 -1.521037984639406204e-02 -1.679080724716186523e-02 4.305692389607429504e-02 -6.583324819803237915e-02 4.732803627848625183e-02 -5.985522270202636719e-02 1.823015324771404266e-02 8.486389182507991791e-03 3.740883618593215942e-02 -1.953005604445934296e-02 2.374701201915740967e-02 3.921017050743103027e-02 1.035323441028594971e-01 5.328325089067220688e-03 -7.069935649633407593e-02 -3.184917569160461426e-02 -1.015640236437320709e-02 -1.195912156254053116e-02 -3.494785353541374207e-02
-1.850874163210391998e-02 4.658141732215881348e-02 -1.182420086115598679e-02 -1.470014825463294983e-02 4.961774870753288269e-02 -7.189860194921493530e-02 9.036759287118911743e-02 -2.626009471714496613e-02 2.879105042666196823e-03 -4.764929786324501038e-02 1.035751178860664368e-01 -2.994672767817974091e-02 -6.505931913852691650e-02 1.875482127070426941e-02 -1.793467812240123749e-02 -5.509404465556144714e-02 -2.576151303946971893e-02 1.310104411095380783e-02 6.587507575750350952e-02 2.353888191282749176e-02 2.521076612174510956e-02 -1.874287240207195282e-02 -1.770089194178581238e-02 -4.807262495160102844e-02 -2.761361561715602875e-02 2.479739114642143250e-02 -2.158226259052753448e-02 -1.143112853169441223e-01 1.022870317101478577e-01 2.992749027907848358e-02 -8.436049334704875946e-03 2.670897869393229485e-03
-4.355389997363090515e-02 2.658954355865716934e-03 -4.917043447494506836e-02 -3.061576001346111298e-02 1.309069246053695679e-01 -6.675873696804046631e-02 1.051466241478919983e-01 -3.164698928594589233e-02 3.498573973774909973e-02 -4.171334207057952881e-02 1.286223679780960083e-01 -3.508020937442779541e-02 -7.773325592279434204e-02 6.452997680753469467e-03 -1.300942245870828629e-02 -1.583852805197238922e-02 -6.165432184934616089e-02 9.840214625000953674e-04 3.130969777703285217e-02 3.739871084690093994e-03 5.599172785878181458e-03 2.048602513968944550e-02 -3.378252685070037842e-02 -2.604357153177261353e-02 -8.575105108320713043e-03 6.226728111505508423e-02 4.406927898526191711e-02 -1.511698663234710693e-01 1.511228978633880615e-01 1.907222718000411987e-02 -3.136570565402507782e-03 -2.690559066832065582e-02
-6.076240539550781250e-02 -3.091011941432952881e-02 -6.377666443586349487e-02 -3.758772090077400208e-02 1.778670847415924072e-01 -8.048324845731258392e-03 5.963610857725143433e-02 -3.301650658249855042e-02 3.543791174888610840e-02 -1.115963910706341267e-03 1.314278990030288696e-01 -3.483712300658226013e-02 -4.870113357901573181e-02 -1.881936378777027130e-02 -1.177960541099309921e-02 1.028612814843654633e-02 -7.312531769275665283e-02 -4.492708947509527206e-03 -5.424948409199714661e-02 4.289675503969192505e-03 -2.601598389446735382e-02 3.840278461575508118e-02 -3.985112905502319336e-02 2.575644664466381073e-02 -1.501607708632946014e-03 1.383460462093353271e-01 4.523733630776405334e-02 -1.380532681941986084e-01 1.213876381516456604e-01 -8.305477909743785858e-03 1.486304495483636856e-02 -2.361227013170719147e-02
-7.336941361427307129e-02 -4.845457896590232849e-02 -4.909992218017578125e-02 -1.731193810701370239e-02 1.435139775276184082e-01 3.990885242819786072e-02 -1.281454926356673241e-03 -2.885453402996063232e-02 1.778870634734630585e-02 3.076342120766639709e-02 1.376282274723052979e-01 -1.659250073134899139e-02 6.235308479517698288e-03 -3.417519852519035339e-02 -1.031898614019155502e-02 2.215887233614921570e-02 -7.083965092897415161e-02 7.658496499061584473e-03 -1.057922393083572388e-01 1.026925258338451385e-02 -2.914443798363208771e-02 6.126387417316436768e-02 -2.986999228596687317e-02 2.863352932035923004e-02 1.606210321187973022e-02 1.609247326850891113e-01 2.036793343722820282e-02 -9.413561224937438965e-02 3.755593672394752502e-02 -1.017230097204446793e-02 9.128700010478496552e-03 -1.916934736073017120e-02
-4.536674171686172485e-02 -3.361712023615837097e-02 -3.169197961688041687e-02 7.295038085430860519e-03 4.770257323980331421e-02 8.154968917369842529e-02 -3.657230734825134277e-02 -2.245248854160308838e-02 1.313026435673236847e-02 3.888134285807609558e-02 1.019838526844978333e-01 -2.725258469581604004e-02 2.756451815366744995e-02 -2.528722584247589111e-02 -4.330610390752553940e-03 1.170498598366975784e-02 -7.291218638420104980e-02 2.183109335601329803e-02 -8.366275578737258911e-02 9.697021916508674622e-03 -2.662727050483226776e-02 4.674667865037918091e-02 8.707975503057241440e-04 3.676402196288108826e-02 -8.213352411985397339e-03 1.478782296180725098e-01 -1.600445620715618134e-02 -3.964354097843170166e-02 -2.644497714936733246e-02 -2.230810187757015228e-02 -3.028718754649162292e-03 -1.161245256662368774e-02
9.767232462763786316e-03 -3.048736602067947388e-02 9.562580846250057220e-03 -1.416109316051006317e-02 3.182858973741531372e-02 -5.837065353989601135e-02 7.735360413789749146e-02 -7.483448833227157593e-03 -1.792338676750659943e-02 -4.676107317209243774e-02 7.107126712799072266e-02 -4.864029120653867722e-03 -7.016598433256149292e-02 2.373663522303104401e-02 -1.022313907742500305e-02 -4.065361618995666504e-02 -1.467089168727397919e-02 2.984827850013971329e-03 3.236178681254386902e-02 5.240060854703187943e-03 -2.859855885617434978e-04 2.101101214066147804e-03 -2.123322628904134035e-04 -1.584087312221527100e-02 2.215928398072719574e-03 4.189933091402053833e-02 -1.554203499108552933e-02 -5.583177879452705383e-02 6.880409270524978638e-02 9.571336209774017334e-03 -1.073856931179761887e-02 5.413239821791648865e-02
-3.189653158187866211e-02 -7.679755985736846924e-02 6.285857874900102615e-03 -3.561512008309364319e-02 9.930137544870376587e-02 -5.887350067496299744e-02 8.404784649610519409e-02 -9.380434639751911163e-03 8.564988151192665100e-03 -5.942479148507118225e-02 9.339802712202072144e-02 7.460951339453458786e-03 -6.644108146429061890e-02 2.398044802248477936e-02 -1.550006959587335587e-02 -3.083808533847332001e-02 -4.937206208705902100e-02 -2.570545673370361328e-02 1.278386730700731277e-02 -2.749750157818198204e-03 -1.760503649711608887e-02 2.969964779913425446e-02 -1.236673910170793533e-02 9.541327133774757385e-03 -2.499365434050559998e-02 5.162764713168144226e-02 3.741569444537162781e-02 -7.827979326248168945e-02 1.331660002470016479e-01 1.857428229413926601e-03 -3.550295718014240265e-03 2.877926640212535858e-02
-7.278613746166229248e-02 -1.203915104269981384e-01 -1.746373018249869347e-03 -4.094627127051353455e-02 1.349158287048339844e-01 -2.145600691437721252e-02 5.166140198707580566e-02 3.600482596084475517e-03 2.468165941536426544e-02 -3.546382114291191101e-02 9.975625574588775635e-02 2.085828920826315880e-03 -4.372546821832656860e-02 4.349073395133018494e-03 -1.761323399841785431e-02 -2.322237566113471985e-02 -6.283151358366012573e-02 -3.309352695941925049e-02 -3.933877497911453247e-02 -5.490696057677268982e-03 -3.756973892450332642e-02 5.019472166895866394e-02 -1.304326206445693970e-02 5.350229144096374512e-02 -4.211763665080070496e-02 7.841116189956665039e-02 4.449597373604774475e-02 -5.184284225106239319e-02 1.357934921979904175e-01 -1.724677905440330505e-02 1.309467665851116180e-02 1.648520864546298981e-02
-8.846227824687957764e-02 -1.119273006916046143e-01 2.271410636603832245e-02 -2.180994488298892975e-02 9.004037082195281982e-02 1.177745312452316284e-02 1.084766117855906487e-03 3.675353946164250374e-03 1.977497525513172150e-02 -1.068926416337490082e-02 9.471741318702697754e-02 -1.077640149742364883e-02 -9.651903063058853149e-03 -1.531727332621812820e-02 -1.143214851617813110e-02 -4.986247513443231583e-03 -7.021581381559371948e-02 -3.588296473026275635e-02 -7.343731820583343506e-02 -7.010886445641517639e-03 -5.356181040406227112e-02 5.048371478915214539e-02 -2.270578034222126007e-02 4.621098563075065613e-02 -2.380024828016757965e-02 1.102975159883499146e-01 3.508056327700614929e-02 -1.837195456027984619e-02 6.769765913486480713e-02 -9.731922298669815063e-03 1.564206741750240326e-02 6.651596631854772568e-04
-7.580334693193435669e-02 -5.646041408181190491e-02 2.144197188317775726e-02 3.266720101237297058e-03 1.730449125170707703e-02 4.802207276225090027e-02 -2.554070018231868744e-02 -1.265385933220386505e-02 2.383513562381267548e-02 -3.407505806535482407e-03 7.749878615140914917e-02 -1.560206711292266846e-02 8.228534832596778870e-03 -2.195638604462146759e-02 -1.401593349874019623e-02 2.763164462521672249e-03 -7.056941837072372437e-02 -1.589829288423061371e-02 -6.466421484947204590e-02 4.745307378470897675e-03 -4.612842202186584473e-02 3.478291630744934082e-02 -4.471533466130495071e-03 2.867139130830764771e-02 -1.010152325034141541e-02 1.218356043100357056e-01 -2.211640402674674988e-02 1.750488393008708954e-02 9.886312298476696014e-03 -8.191047236323356628e-03 9.160998277366161346e-03 7.674126885831356049e-03
5.065774545073509216e-02 -2.820090390741825104e-02 5.996421445161104202e-03 -7.557493634521961212e-03 -5.282672122120857239e-03 -5.133100599050521851e-02 6.660725176334381104e-02 1.094710826873779297e-02 -3.286527097225189209e-02 -3.672493621706962585e-02 1.607535965740680695e-02 8.673306554555892944e-03 -6.833560764789581299e-02 5.866900552064180374e-03 1.689009927213191986e-02 9.881458245217800140e-03 -1.304414309561252594e-02 -5.722776986658573151e-04 2.969357371330261230e-02 -4.172685556113719940e-03 -1.764067262411117554e-02 9.852379560470581055e-03 -2.969510294497013092e-02 -1.080539915710687637e-02 5.746320635080337524e-02 1.945905387401580811e-02 -2.996375085785984993e-03 1.527108997106552124e-02 1.688763312995433807e-02 -2.648483030498027802e-03 -6.204750854521989822e-03 4.455086961388587952e-02
-6.459360476583242416e-03 -7.657056301832199097e-02 1.204110961407423019e-02 -2.555668540298938751e-02 4.335492849349975586e-02 -6.006162613630294800e-02 5.133408308029174805e-02 1.359708141535520554e-02 -1.437817327678203583e-02 -5.329173430800437927e-02 2.538892067968845367e-02 2.022113837301731110e-02 -3.966488316655158997e-02 2.902869693934917450e-02 1.349848508834838867e-02 9.405611082911491394e-03 -4.579317197203636169e-02 -3.894260153174400330e-02 3.214003890752792358e-02 -5.883981473743915558e-03 -2.357341162860393524e-02 2.671612799167633057e-02 -2.785941772162914276e-02 6.552329286932945251e-03 1.324922125786542892e-02 1.356930658221244812e-02 2.372749149799346924e-02 1.330821681767702103e-02 5.553172156214714050e-02 -6.965634413063526154e-03 2.991781802847981453e-03 2.819267474114894867e-02
-5.195754766464233398e-02 -9.322278946638107300e-02 2.078903838992118835e-02 -3.575541451573371887e-02 6.059287860989570618e-02 -4.384208098053932190e-02 2.647773362696170807e-02 1.550388894975185394e-02 8.900014683604240417e-03 -2.826235629618167877e-02 3.189744427800178528e-02 1.818428561091423035e-02 -1.980466581881046295e-02 1.763078197836875916e-02 1.507956534624099731e-03 1.550674438476562500e-02 -5.628475546836853027e-02 -4.492180049419403076e-02 1.248260028660297394e-03 -2.911967458203434944e-03 -3.822122141718864441e-02 3.530213236808776855e-02 -3.096080757677555084e-02 2.498821727931499481e-02 -2.861128933727741241e-02 1.875827834010124207e-02 3.143351525068283081e-02 2.718643657863140106e-02 9.305557608604431152e-02 -5.973989609628915787e-03 1.538693346083164215e-02 3.498716652393341064e-02
-8.020270615816116333e-02 -7.565783709287643433e-02 4.618037492036819458e-02 -2.558613568544387817e-02 2.198789268732070923e-02 -3.635309636592864990e-02 -1.074919849634170532e-02 1.271763537079095840e-02 8.687121793627738953e-03 -1.159650087356567383e-02 5.041937157511711121e-02 -3.427721327170729637e-03 2.996351337060332298e-03 4.014124628156423569e-03 5.464161746203899384e-03 2.365508303046226501e-02 -5.461472645401954651e-02 -3.410858660936355591e-02 -1.719730906188488007e-02 -4.400683566927909851e-03 -4.040817171335220337e-02 1.959410682320594788e-02 -4.268770664930343628e-02 -6.116250297054648399e-04 -1.151326671242713928e-02 2.395348250865936279e-02 3.484684601426124573e-02 3.164794668555259705e-02 7.230340689420700073e-02 4.915898200124502182e-03 1.672047190368175507e-02 1.566960476338863373e-02
-7.721318304538726807e-02 -1.143898908048868179e-02 5.597274377942085266e-02 -2.509195730090141296e-02 -2.755076251924037933e-02 -1.865448057651519775e-02 -2.319326065480709076e-02 -9.317602962255477905e-03 1.954895071685314178e-02 -1.196199562400579453e-02 6.024424359202384949e-02 -3.657396510243415833e-02 1.584088057279586792e-02 -9.272702969610691071e-03 -5.511870607733726501e-03 4.100307077169418335e-02 -5.846349149942398071e-02 -1.342899072915315628e-02 -1.665210165083408356e-02 2.380136400461196899e-02 -2.989939041435718536e-02 -3.618254326283931732e-03 -4.135742411017417908e-02 -3.072809241712093353e-02 1.279841735959053040e-02 5.805157497525215149e-02 -7.907663471996784210e-03 3.910314664244651794e-02 3.636999800801277161e-02 2.066534943878650665e-02 9.289044886827468872e-03 1.974092237651348114e-02
6.994053721427917480e-02 4.344147164374589920e-03 -5.859984550625085831e-03 2.537554502487182617e-02 -5.087221786379814148e-02 -3.897354751825332642e-02 5.532824620604515076e-02 -8.504655212163925171e-02 -1.086459755897521973e-01 -4.968766868114471436e-02 7.164667546749114990e-02 1.728517469018697739e-03 3.516950458288192749e-02 6.436302512884140015e-02 1.069074943661689758e-01 2.785322815179824829e-02 -1.758019067347049713e-02 3.109918907284736633e-02 2.314859628677368164e-02 6.445452105253934860e-03 1.897916384041309357e-02 4.603917524218559265e-02 -5.733393132686614990e-02 -3.744316473603248596e-02 2.949024178087711334e-02 5.389067903161048889e-02 -1.904107816517353058e-02 -4.429976269602775574e-02 -6.885857786983251572e-03 7.497367262840270996e-02 1.888304017484188080e-02 1.593320816755294800e-02
5.953297391533851624e-02 8.541654795408248901e-03 -5.925827845931053162e-02 6.098312884569168091e-02 -5.303081497550010681e-02 -1.404173858463764191e-02 4.190861806273460388e-02 -5.503828451037406921e-02 -7.065439224243164062e-02 -6.784249842166900635e-02 2.867357991635799408e-02 -4.493470862507820129e-02 -4.477536678314208984e-02 4.101382195949554443e-02 2.802415192127227783e-02 4.603404179215431213e-02 -4.065052780788391829e-04 -4.870896041393280029e-02 4.264701530337333679e-02 -3.306449577212333679e-02 7.060387730598449707e-02 4.806184396147727966e-02 -6.793662905693054199e-02 -9.606076776981353760e-02 3.555206581950187683e-02 1.309095323085784912e-02 -4.382541868835687637e-03 -1.799656450748443604e-02 2.835185080766677856e-02 1.136899814009666443e-01 3.404213860630989075e-02 -2.381317131221294403e-02
-6.268922705203294754e-03 2.798932371661067009e-03 -3.643330186605453491e-02 1.039865761995315552e-01 -2.168008685111999512e-02 2.480241237208247185e-03 5.044696480035781860e-02 -2.760373428463935852e-02 -4.242306202650070190e-02 -2.836786024272441864e-02 -5.985593050718307495e-02 -7.429085671901702881e-02 -3.978206589818000793e-02 -1.060540154576301575e-01 -3.096802905201911926e-02 4.611343890428543091e-02 2.008325234055519104e-02 1.810870878398418427e-02 3.332927823066711426e-02 -4.657834768295288086e-02 5.909801647067070007e-02 6.210383027791976929e-02 -4.673095792531967163e-02 -5.882732942700386047e-02 4.742947220802307129e-02 -1.663639955222606659e-02 2.641895227134227753e-02 -3.928093612194061279e-02 1.020305231213569641e-02 6.634385138750076294e-02 3.711798042058944702e-02 -4.724968224763870239e-02
-7.554083131253719330e-03 1.923370175063610077e-02 -1.844618655741214752e-02 4.972814023494720459e-02 -5.524726957082748413e-02 4.451116919517517090e-02 5.306246504187583923e-02 -6.980980746448040009e-03 2.923777699470520020e-02 1.909131067804992199e-03 -7.283154875040054321e-02 -9.887630492448806763e-02 -3.755339607596397400e-02 -1.358959823846817017e-01 3.549516201019287109e-02 3.104784898459911346e-02 7.858119159936904907e-02 1.325299404561519623e-02 1.813619630411267281e-03 -5.065987259149551392e-02 1.234468519687652588e-01 4.701303690671920776e-02 -4.431069362908601761e-03 1.129165757447481155e-02 3.967394307255744934e-02 -1.706217043101787567e-02 2.451679669320583344e-02 -3.734769672155380249e-02 2.039457112550735474e-02 6.420079618692398071e-02 -1.545177493244409561e-02 -1.029716581106185913e-01
-6.443914771080017090e-02 4.435684904456138611e-02 4.358235746622085571e-02 -2.322175540030002594e-02 -4.279948398470878601e-02 2.050234749913215637e-02 1.294618844985961914e-02 -1.408520620316267014e-02 5.817113071680068970e-02 -3.034140542149543762e-02 -6.423597782850265503e-02 -1.562181580811738968e-02 -4.723528865724802017e-03 -9.221924841403961182e-02 3.720733895897865295e-02 1.784916035830974579e-02 1.816273666918277740e-02 2.064165100455284119e-02 -1.301469374448060989e-02 -7.248038053512573242e-02 1.313988566398620605e-01 9.659917093813419342e-03 -1.356798596680164337e-02 1.123543009161949158e-01 4.378700628876686096e-02 -5.861819535493850708e-02 1.860722526907920837e-02 -1.513938605785369873e-02 5.250989645719528198e-02 4.601536318659782410e-02 -3.863690420985221863e-02 -9.654530882835388184e-02
1.938769035041332245e-02 3.554575517773628235e-02 9.163233451545238495e-03 2.528420882299542427e-03 -3.670861199498176575e-02 1.102502830326557159e-02 3.665594756603240967e-02 -7.082534581422805786e-02 -1.256254017353057861e-01 -7.776949554681777954e-02 2.855131216347217560e-02 7.683983445167541504e-02 1.900073140859603882e-02 3.987210243940353394e-02 7.713446021080017090e-02 7.508385181427001953e-02 -3.922030702233314514e-02 -6.592470407485961914e-02 5.345155671238899231e-02 1.986629515886306763e-02 -2.511453814804553986e-03 7.921203225851058960e-02 -2.789976820349693298e-02 -3.562442213296890259e-02 2.522876113653182983e-02 -2.195430919528007507e-02 6.783763412386178970e-03 5.264099221676588058e-03 1.693933643400669098e-02 1.139224767684936523e-01 1.851317100226879120e-02 -7.830253802239894867e-03
6.861807405948638916e-02 3.877931088209152222e-02 -5.632821470499038696e-02 2.630485408008098602e-02 -3.366325050592422485e-02 2.043582499027252197e-02 1.463106554001569748e-02 -5.887021496891975403e-02 -8.189041167497634888e-02 -5.690544843673706055e-02 8.925372734665870667e-03 -2.221699245274066925e-02 -9.627338498830795288e-02 4.931013286113739014e-02 -2.492613717913627625e-02 6.730013340711593628e-02 -3.598349168896675110e-02 -1.275870203971862793e-01 6.830719858407974243e-02 3.179193288087844849e-02 4.484605416655540466e-02 4.792835563421249390e-02 4.425181541591882706e-03 -8.462303131818771362e-02 5.540962517261505127e-02 -3.864063322544097900e-02 2.471140772104263306e-02 2.922855690121650696e-02 5.070696771144866943e-02 1.346653252840042114e-01 3.893119841814041138e-02 -3.161769732832908630e-02
2.226332016289234161e-02 5.300574004650115967e-02 -2.978266403079032898e-02 5.512736365199089050e-02 -4.053079709410667419e-02 3.257284313440322876e-02 -8.117107674479484558e-03 -3.465576469898223877e-02 -3.832482919096946716e-02 1.817833259701728821e-02 -5.526564642786979675e-02 -8.417753130197525024e-02 -5.037984624505043030e-02 -5.044845491647720337e-02 -7.612475752830505371e-02 6.216908246278762817e-02 -1.851497031748294830e-02 -5.973415449261665344e-02 2.015111036598682404e-02 1.806684210896492004e-02 5.377616267651319504e-03 2.891448326408863068e-02 3.922529285773634911e-04 -4.333409294486045837e-02 7.583069801330566406e-02 -3.961632028222084045e-02 3.508450835943222046e-02 4.973437171429395676e-03 1.853626593947410583e-02 1.030226349830627441e-01 3.963807970285415649e-02 -1.860511302947998047e-02
-4.760580603033304214e-03 3.880473598837852478e-02 -1.778298243880271912e-02 3.750458359718322754e-02 -8.050163835287094116e-02 7.611399143934249878e-02 1.153623312711715698e-02 1.064271572977304459e-02 4.423052817583084106e-02 2.301713824272155762e-02 -8.292496949434280396e-02 -1.225874125957489014e-01 -1.483039371669292450e-02 -6.547296792268753052e-02 -9.509257972240447998e-03 7.085429131984710693e-02 3.379557654261589050e-02 -2.497673407196998596e-02 -7.433396577835083008e-02 -1.562177017331123352e-02 7.282337546348571777e-02 -7.224013563245534897e-03 7.506259717047214508e-03 4.053787142038345337e-02 2.647024393081665039e-02 2.742931246757507324e-02 6.857772823423147202e-03 -8.898135274648666382e-04 5.175891891121864319e-02 8.668620139360427856e-02 8.132147602736949921e-03 -4.787262901663780212e-02
-1.114888265728950500e-01 2.912619709968566895e-02 4.536511376500129700e-02 3.650940209627151489e-02 -5.173033475875854492e-02 5.240238830447196960e-02 -6.418493576347827911e-03 2.036325074732303619e-02 9.661355614662170410e-02 -1.173200923949480057e-02 -6.620708107948303223e-02 -6.765830516815185547e-02 1.754361391067504883e-02 -8.086122572422027588e-02 2.137562632560729980e-02 4.871434718370437622e-02 -1.920633576810359955e-02 2.527565881609916687e-02 -5.049175024032592773e-02 -4.967137053608894348e-02 7.417009025812149048e-02 -5.904180184006690979e-02 -3.994922339916229248e-02 1.221354231238365173e-01 5.586997792124748230e-02 -1.942040771245956421e-02 1.509904954582452774e-02 5.597454495728015900e-03 6.230529770255088806e-02 9.267824143171310425e-02 -1.712442561984062195e-02 -3.784733265638351440e-02
3.937803208827972412e-02 3.351427614688873291e-02 2.564080059528350830e-02 -2.306558378040790558e-02 1.019535586237907410e-03 2.966870926320552826e-02 1.705601811408996582e-02 -2.936517260968685150e-02 -1.441887021064758301e-01 -6.958024948835372925e-02 1.008590124547481537e-02 9.544930607080459595e-02 -6.271284073591232300e-03 3.393519297242164612e-02 4.721191525459289551e-02 9.487465023994445801e-02 -4.476583003997802734e-02 -9.690506011247634888e-02 4.986837133765220642e-02 2.277229726314544678e-02 -4.431234300136566162e-02 2.210452407598495483e-02 1.093694381415843964e-02 1.182796340435743332e-02 -4.624502360820770264e-02 -3.333237022161483765e-02 1.946944184601306915e-02 3.380862995982170105e-02 3.254057466983795166e-02 6.563114374876022339e-02 3.144561871886253357e-02 1.393095310777425766e-02
1.130505725741386414e-01 1.935600675642490387e-02 -5.148313194513320923e-02 -1.542363781481981277e-03 2.455180138349533081e-02 8.192314207553863525e-02 1.426650118082761765e-02 -1.637616194784641266e-02 -1.109263375401496887e-01 -3.759441152215003967e-02 2.177411317825317383e-02 -1.692686416208744049e-02 -1.320967823266983032e-01 5.962445214390754700e-02 -4.190067574381828308e-02 7.743304967880249023e-02 -1.121381148695945740e-01 -1.315418481826782227e-01 5.518585443496704102e-02 4.982552677392959595e-02 6.273857317864894867e-03 -1.735941506922245026e-02 8.741273730993270874e-02 -3.910950943827629089e-02 -3.612910583615303040e-02 -3.480298444628715515e-02 3.626134619116783142e-02 3.953754901885986328e-02 7.948182523250579834e-02 7.684276252985000610e-02 5.143731087446212769e-02 2.447046525776386261e-02
8.044639974832534790e-02 -1.528108492493629456e-02 -1.910709217190742493e-02 8.735973387956619263e-03 7.436121348291635513e-03 8.477194607257843018e-02 -2.411620505154132843e-02 -4.126807674765586853e-03 -5.440065637230873108e-02 3.579748049378395081e-02 -1.186464354395866394e-02 -5.532332509756088257e-02 -4.428748041391372681e-02 1.957974024116992950e-02 -6.835754215717315674e-02 6.443961709737777710e-02 -7.053573429584503174e-02 -9.971462935209274292e-02 -5.255150608718395233e-03 3.241762146353721619e-02 -2.626857534050941467e-02 -1.898550312034785748e-03 7.016725093126296997e-02 -3.533850423991680145e-03 -2.447912096977233887e-02 -3.045189194381237030e-02 3.483058139681816101e-02 1.266985293477773666e-02 4.267179220914840698e-02 1.041073352098464966e-01 3.040990605950355530e-02 3.459188342094421387e-02
2.266043797135353088e-02 -2.362583391368389130e-02 5.954197142273187637e-03 1.889989152550697327e-02 -4.000693559646606445e-02 1.038585826754570007e-01 -1.548726018518209457e-02 2.148440480232238770e-02 4.021064564585685730e-02 4.595384746789932251e-02 -4.370094463229179382e-02 -7.269760966300964355e-02 2.818124368786811829e-02 3.573216497898101807e-03 -2.091849688440561295e-03 1.010965630412101746e-01 2.785446494817733765e-02 -2.757562510669231415e-02 -9.725280106067657471e-02 -3.476345166563987732e-02 1.739339530467987061e-02 -1.769627816975116730e-02 6.507494300603866577e-02 6.171240657567977905e-02 -7.749189436435699463e-02 2.314291894435882568e-02 -2.486459724605083466e-02 2.345647662878036499e-02 6.452073156833648682e-02 9.790231287479400635e-02 6.908499635756015778e-03 -5.838633514940738678e-03
-1.118486449122428894e-01 -2.630141191184520721e-02 4.189088940620422363e-02 4.397705942392349243e-02 -2.178359776735305786e-02 7.754087448120117188e-02 -2.710428275167942047e-02 4.762564599514007568e-02 8.543415367603302002e-02 4.563301056623458862e-02 -2.690104208886623383e-02 -5.548316612839698792e-02 6.636060774326324463e-02 -3.042904660105705261e-02 1.521664205938577652e-02 7.324428856372833252e-02 -1.281137857586145401e-02 5.310548841953277588e-02 -5.799962580204010010e-02 -5.579365417361259460e-02 1.780389994382858276e-02 -3.963442146778106689e-02 -2.065674960613250732e-02 8.408260345458984375e-02 -5.221004039049148560e-02 -2.928861184045672417e-03 -2.122827107086777687e-03 -1.694532460533082485e-03 5.551850423216819763e-02 6.801356375217437744e-02 -1.331782992929220200e-02 -2.362280711531639099e-02
5.595151800662279129e-03 -2.189238369464874268e-02 5.158074200153350830e-02 -3.738703951239585876e-02 -1.905484870076179504e-02 3.512735292315483093e-02 -6.324341986328363419e-03 3.253696113824844360e-02 -1.308333873748779297e-01 -2.953040041029453278e-02 -5.146449804306030273e-02 4.185614362359046936e-02 -2.049168944358825684e-02 3.755887970328330994e-02 7.681647688150405884e-02 4.877948760986328125e-02 -4.106178507208824158e-02 -1.127105504274368286e-01 4.786171391606330872e-02 2.149041509255766869e-03 -3.674925118684768677e-02 -1.198592782020568848e-02 4.417668282985687256e-02 5.807764455676078796e-02 -6.797482073307037354e-02 -1.507947687059640884e-02 5.765122547745704651e-02 3.137055784463882446e-02 4.503005370497703552e-02 -1.536311674863100052e-02 1.236974168568849564e-02 3.410798683762550354e-02
9.730520844459533691e-02 -6.028093397617340088e-02 8.404103107750415802e-03 -2.338836342096328735e-02 -4.175973590463399887e-03 1.065571382641792297e-01 -2.338411845266819000e-02 2.631308883428573608e-02 -1.065429896116256714e-01 -3.778126090764999390e-02 1.497641904279589653e-03 -2.005982957780361176e-02 -1.248031705617904663e-01 9.843201190233230591e-02 -3.081863746047019958e-02 2.455496415495872498e-02 -1.351127922534942627e-01 -1.267408430576324463e-01 5.758664757013320923e-02 3.191522881388664246e-02 2.228549122810363770e-02 -5.292602255940437317e-02 1.088387668132781982e-01 6.786380894482135773e-03 -8.359552919864654541e-02 -3.526089340448379517e-02 8.046676963567733765e-02 5.987513810396194458e-02 7.669616490602493286e-02 -1.776743680238723755e-02 4.134074598550796509e-02 3.114632144570350647e-02
7.403975725173950195e-02 -1.004978790879249573e-01 1.649064384400844574e-02 -6.166602019220590591e-03 -1.558430958539247513e-02 8.756092935800552368e-02 -5.154089629650115967e-02 -3.687612770590931177e-04 -5.318754166364669800e-02 7.936810143291950226e-03 1.938647031784057617e-02 -2.997548505663871765e-02 -2.944388054311275482e-02 9.013803303241729736e-02 -5.526018142700195312e-02 2.640348672866821289e-02 -9.945979714393615723e-02 -9.934486448764801025e-02 3.531790571287274361e-03 -4.305257927626371384e-03 3.096286440268158913e-03 -1.883739791810512543e-02 6.261676549911499023e-02 3.950135409832000732e-02 -5.894895270466804504e-02 -5.458014085888862610e-02 3.808216378092765808e-02 6.004036217927932739e-02 5.500964447855949402e-02 2.761358954012393951e-02 2.046050690114498138e-02 2.023621276021003723e-02
2.326063998043537140e-02 -1.022598445415496826e-01 4.546541720628738403e-02 -3.654013620689511299e-03 -4.639223590493202209e-02 8.012221753597259521e-02 -5.204466730356216431e-02 -3.535661846399307251e-02 3.571036271750926971e-03 2.408452518284320831e-02 -7.930033840239048004e-03 -7.404553238302469254e-03 4.040862619876861572e-02 7.087614387273788452e-02 -4.212412983179092407e-03 4.644730314612388611e-02 1.292636897414922714e-02 2.180663868784904480e-03 -6.921107321977615356e-02 -4.543261975049972534e-02 3.449389711022377014e-02 -1.660509034991264343e-02 5.768967419862747192e-02 2.759343944489955902e-02 -7.419241964817047119e-02 -1.304849423468112946e-02 -8.178022690117359161e-03 3.934148326516151428e-02 6.294694542884826660e-02 2.964897081255912781e-02 -3.616473404690623283e-03 5.033395253121852875e-03
-7.947970926761627197e-02 -7.271043211221694946e-02 5.342388898134231567e-02 1.956175640225410461e-02 -2.222555130720138550e-02 7.498612999916076660e-02 -5.327161028981208801e-02 1.205303892493247986e-02 4.154033958911895752e-02 5.993111059069633484e-02 2.216819487512111664e-02 1.429121568799018860e-02 8.543203026056289673e-02 4.211390018463134766e-02 2.215041592717170715e-02 2.095405943691730499e-02 -3.320754691958427429e-02 9.850775450468063354e-02 -4.455016180872917175e-02 -4.093097522854804993e-02 3.929397463798522949e-02 -2.029381878674030304e-02 -1.297225337475538254e-02 3.480355441570281982e-02 -4.804656282067298889e-02 -4.857718944549560547e-03 1.336012501269578934e-02 -1.881314627826213837e-02 1.268384791910648346e-02 -1.004169695079326630e-03 -1.236990001052618027e-02 -2.288821525871753693e-02
1.429548207670450211e-02 -1.626569963991641998e-02 1.478585507720708847e-02 -6.833452731370925903e-02 -6.627271324396133423e-02 -3.551688045263290405e-02 5.615942925214767456e-02 6.777118146419525146e-02 -8.586881309747695923e-02 3.914804756641387939e-02 -3.469631075859069824e-02 -3.124361485242843628e-02 -1.800787053070962429e-03 1.425054389983415604e-02 3.962947428226470947e-02 4.740497842431068420e-02 -4.102354496717453003e-02 -1.308079808950424194e-01 5.449241772294044495e-02 -1.476117223501205444e-02 -5.344507843255996704e-02 -3.938256204128265381e-02 3.398630023002624512e-02 1.664479449391365051e-02 2.833601087331771851e-03 2.346473559737205505e-02 4.551378265023231506e-02 9.431870654225349426e-03 1.890844665467739105e-02 -1.817448996007442474e-02 3.134306520223617554e-02 7.177896331995725632e-03
6.500322371721267700e-02 -4.371415078639984131e-02 -1.992689631879329681e-02 -4.947304725646972656e-02 -1.693252101540565491e-02 5.378933250904083252e-02 2.337371185421943665e-02 3.570362925529479980e-02 -4.388918727636337280e-02 -2.288154140114784241e-02 2.590432018041610718e-02 -2.752802334725856781e-02 -6.981388479471206665e-02 7.543051242828369141e-02 -4.081591963768005371e-02 2.431162446737289429e-02 -1.130257248878479004e-01 -1.297903507947921753e-01 7.820004224777221680e-02 -5.794796161353588104e-04 2.215483412146568298e-02 -7.779002934694290161e-02 5.627569183707237244e-02 -1.525877136737108231e-02 -2.877363003790378571e-02 2.679320052266120911e-03 7.199890166521072388e-02 4.513610899448394775e-02 1.240372378379106522e-02 -4.072226211428642273e-02 4.707443714141845703e-02 -5.323068471625447273e-04
5.424576997756958008e-02 -8.301473408937454224e-02 -2.558434847742319107e-03 1.044654101133346558e-02 -1.789191737771034241e-03 5.492130666971206665e-02 -2.358707040548324585e-02 -2.173778973519802094e-02 -3.320209309458732605e-02 -3.948444873094558716e-02 3.284314274787902832e-02 -6.697188131511211395e-03 -2.321220468729734421e-03 1.080726310610771179e-01 -4.947752878069877625e-02 2.317201346158981323e-02 -6.905923038721084595e-02 -6.885746121406555176e-02 5.893296375870704651e-02 -4.617739096283912659e-02 1.424284465610980988e-02 -2.072652429342269897e-02 -5.143192596733570099e-03 2.130105160176753998e-02 -1.315609924495220184e-02 -3.913020715117454529e-02 2.388332784175872803e-02 6.175950542092323303e-02 -4.934960976243019104e-03 -7.474575191736221313e-03 1.861195266246795654e-02 3.524645697325468063e-03
3.569594770669937134e-02 -7.952839136123657227e-02 2.719433419406414032e-02 2.373840287327766418e-02 -1.335489004850387573e-02 1.866009831428527832e-02 -4.242155328392982483e-02 -7.091715186834335327e-02 -1.672263070940971375e-02 -3.034062683582305908e-02 1.166739780455827713e-02 8.575357496738433838e-03 4.617683589458465576e-02 8.512225747108459473e-02 -4.014417063444852829e-03 1.527292281389236450e-02 5.755006894469261169e-02 1.617339625954627991e-02 3.269725712016224861e-03 -4.126499220728874207e-02 5.802929028868675232e-02 3.102131001651287079e-02 -2.044744230806827545e-02 6.627545692026615143e-03 -9.508075192570686340e-03 -1.156453415751457214e-02 -5.806506960652768612e-04 2.784371189773082733e-02 1.398139819502830505e-02 -1.399220200255513191e-03 -1.797441951930522919e-02 -2.102472446858882904e-02
-4.040964320302009583e-02 -3.123097307980060577e-02 3.033451922237873077e-02 4.837391898036003113e-03 -4.198353737592697144e-03 3.925657365471124649e-03 -6.491105258464813232e-02 -4.508318752050399780e-02 5.146888550370931625e-03 1.031214091926813126e-02 4.080861806869506836e-02 1.893429458141326904e-02 5.802005529403686523e-02 5.636547505855560303e-02 5.702925100922584534e-02 2.204286400228738785e-03 1.882584183476865292e-03 1.154933795332908630e-01 -4.141012951731681824e-02 -3.406363353133201599e-02 8.042532205581665039e-02 4.123640060424804688e-02 -5.743995681405067444e-02 1.028671767562627792e-02 4.369487613439559937e-02 7.344371639192104340e-03 7.392151746898889542e-03 -2.415453083813190460e-02 -4.652171581983566284e-02 -2.614178694784641266e-02 -1.843874715268611908e-02 -2.288698963820934296e-02
-3.924859315156936646e-02 3.068315982818603516e-02 -1.767267659306526184e-02 8.622854202985763550e-02 4.570790566504001617e-03 1.958145946264266968e-02 -3.326280415058135986e-02 -2.101054042577743530e-02 2.811623550951480865e-02 3.210717067122459412e-02 1.248377561569213867e-02 7.319495081901550293e-02 2.623083814978599548e-02 -3.625740110874176025e-02 7.829139381647109985e-02 9.664982557296752930e-03 1.987654715776443481e-02 1.778175705112516880e-03 -1.398127246648073196e-02 -1.869429089128971100e-02 5.556742846965789795e-02 -6.997973471879959106e-02 1.399184390902519226e-02 -4.595384001731872559e-02 9.251906536519527435e-03 -1.013451139442622662e-03 2.098018862307071686e-02 1.997106149792671204e-02 -4.754062369465827942e-02 -1.065270882099866867e-02 -4.873485490679740906e-02 -7.716224994510412216e-03
-2.253804728388786316e-02 2.739389799535274506e-02 -3.981465473771095276e-02 7.446476817131042480e-02 9.380308911204338074e-03 1.274168840609490871e-03 -1.317603420466184616e-02 -4.366730898618698120e-02 1.867994479835033417e-02 2.852480858564376831e-02 4.490378126502037048e-02 1.006461605429649353e-01 4.408685490489006042e-02 -3.372179344296455383e-02 8.658315986394882202e-02 4.929348453879356384e-02 3.366266563534736633e-02 4.647723957896232605e-02 -2.107644081115722656e-02 -5.321756377816200256e-02 2.152979187667369843e-02 -4.298966005444526672e-02 2.498875930905342102e-02 -4.709071666002273560e-02 3.866512700915336609e-02 4.175032489001750946e-03 1.211001444607973099e-02 -1.118071284145116806e-02 -6.063137575984001160e-02 -6.075308658182621002e-03 -4.711679369211196899e-02 -1.799889281392097473e-02
2.397790364921092987e-02 2.282656170427799225e-02 -4.437206313014030457e-02 4.383483156561851501e-02 2.153316140174865723e-02 -9.205761365592479706e-03 8.954005315899848938e-04 -5.800323933362960815e-02 -5.541085731238126755e-03 3.073268942534923553e-02 5.482529848814010620e-02 7.698900252580642700e-02 5.873748660087585449e-02 -2.261926606297492981e-02 7.033752650022506714e-02 8.361306041479110718e-02 4.870656505227088928e-02 8.758964389562606812e-02 -2.010075375437736511e-02 -7.767803221940994263e-02 2.882111445069313049e-02 -5.584361497312784195e-03 5.519039556384086609e-02 -5.118712410330772400e-02 5.419899150729179382e-02 3.714616643264889717e-03 -7.091137114912271500e-03 -2.427991852164268494e-02 -5.676234886050224304e-02 1.069871988147497177e-02 -3.359897062182426453e-02 2.340207574889063835e-03
5.709300190210342407e-02 -3.334494540467858315e-03 -4.255763068795204163e-02 3.581323474645614624e-02 2.542483434081077576e-02 -6.712277419865131378e-03 5.405066069215536118e-03 -5.362043902277946472e-02 -2.245303057134151459e-02 8.335216902196407318e-03 3.879976272583007812e-02 1.779073849320411682e-02 3.910660743713378906e-02 -2.826693933457136154e-03 3.794378042221069336e-02 8.220181614160537720e-02 4.461389407515525818e-02 6.493404507637023926e-02 3.983739763498306274e-03 -6.738451123237609863e-02 5.599094182252883911e-02 2.992261946201324463e-02 5.872097611427307129e-02 -5.136288702487945557e-02 6.218096613883972168e-02 -1.004365272819995880e-02 -1.827293261885643005e-02 -1.509664300829172134e-02 -5.338339135050773621e-02 2.888925746083259583e-02 -2.962738648056983948e-02 4.635142907500267029e-02
4.182107746601104736e-02 -3.657748550176620483e-02 -2.864187955856323242e-02 4.598115757107734680e-02 1.963012479245662689e-02 3.926827572286128998e-03 -1.335207722149789333e-03 -4.402624443173408508e-02 -2.893763966858386993e-02 -1.386520825326442719e-02 -1.762077794410288334e-03 -3.404705226421356201e-02 2.301688864827156067e-02 1.285535655915737152e-02 1.947660557925701141e-02 6.633811444044113159e-02 2.968410961329936981e-02 3.851238638162612915e-02 2.107888087630271912e-02 -3.538070991635322571e-02 8.178611099720001221e-02 3.435505554080009460e-02 5.447360500693321228e-02 -4.125395789742469788e-02 3.799125179648399353e-02 -2.534254640340805054e-02 -3.217784687876701355e-02 4.995381925255060196e-03 -4.558419436216354370e-02 3.555735945701599121e-02 -3.538125008344650269e-02 7.730714976787567139e-02
-5.073872953653335571e-02 4.320257809013128281e-03 -2.194297127425670624e-02 5.657820031046867371e-02 -2.404148131608963013e-02 -2.214271575212478638e-02 -7.116840779781341553e-02 -7.030049455352127552e-04 3.445963561534881592e-02 1.336320862174034119e-02 4.146607592701911926e-02 6.268380582332611084e-02 6.716793030500411987e-02 -2.540322765707969666e-02 5.508287623524665833e-02 -4.494159296154975891e-02 6.931769102811813354e-02 -4.758869763463735580e-03 2.151384204626083374e-02 -1.274356339126825333e-02 2.023527584969997406e-02 -5.887171998620033264e-02 -1.217791344970464706e-02 -1.927709579467773438e-02 -1.779419928789138794e-02 1.737426780164241791e-02 3.057471103966236115e-02 -4.449723288416862488e-02 -7.434966415166854858e-02 1.623414829373359680e-02 -6.762150675058364868e-02 -4.363090544939041138e-02
-4.586367681622505188e-02 -4.346521105617284775e-03 -3.170903027057647705e-02 3.286939486861228943e-02 -2.668736269697546959e-03 -4.950151219964027405e-02 -3.723191097378730774e-02 -2.591051347553730011e-02 3.187758848071098328e-02 1.398244872689247131e-03 7.337207347154617310e-02 7.533197849988937378e-02 7.766438275575637817e-02 -3.767579421401023865e-02 7.905630767345428467e-02 4.223783500492572784e-03 8.521959930658340454e-02 3.129378333687782288e-02 -1.371637731790542603e-02 -2.929737605154514313e-02 -3.409140976145863533e-03 -6.838401407003402710e-02 1.753037609159946442e-02 -2.593751923996023834e-05 4.235522821545600891e-03 3.389858081936836243e-02 2.039343863725662231e-02 -7.940890640020370483e-02 -8.660493046045303345e-02 -3.408245742321014404e-03 -6.787534058094024658e-02 -7.826537638902664185e-02
2.042209543287754059e-02 -1.078034192323684692e-02 -3.401929140090942383e-02 7.208967581391334534e-03 1.033560931682586670e-02 -6.440158188343048096e-02 -1.761002931743860245e-03 -4.775667563080787659e-02 1.564469374716281891e-02 3.054101718589663506e-03 9.306868910789489746e-02 5.254069715738296509e-02 7.409185916185379028e-02 -5.053850635886192322e-02 7.414869219064712524e-02 3.257249295711517334e-02 8.606344461441040039e-02 6.853757798671722412e-02 -2.194288559257984161e-02 -4.488463699817657471e-02 6.498327944427728653e-03 -4.036908596754074097e-02 4.781067743897438049e-02 1.073343373718671501e-04 2.278861589729785919e-02 4.928680509328842163e-02 -8.773761801421642303e-03 -8.625929802656173706e-02 -8.005447685718536377e-02 -2.154873684048652649e-02 -5.179461091756820679e-02 -6.726633757352828979e-02
9.786581993103027344e-02 -2.755494974553585052e-02 -3.218113631010055542e-02 1.586396596394479275e-03 -1.319859991781413555e-03 -4.273471981287002563e-02 2.210770733654499054e-02 -5.062640085816383362e-02 -4.431471694260835648e-03 -1.474466547369956970e-02 9.166485071182250977e-02 1.919250749051570892e-02 4.383486881852149963e-02 -3.861112520098686218e-02 4.314016550779342651e-02 2.996314875781536102e-02 6.752333045005798340e-02 5.633814260363578796e-02 -2.567688934504985809e-03 -4.974576458334922791e-02 3.214724734425544739e-02 3.112804610282182693e-03 5.260502919554710388e-02 -9.969078004360198975e-03 3.218777850270271301e-02 3.646821156144142151e-02 -2.341905236244201660e-02 -5.464653670787811279e-02 -6.928578764200210571e-02 -1.967868581414222717e-02 -4.588193818926811218e-02 -8.702310733497142792e-03
1.087923347949981689e-01 -4.504362866282463074e-02 -3.249033167958259583e-02 1.196222659200429916e-02 -2.431783825159072876e-02 -6.130503024905920029e-03 1.601325906813144684e-02 -3.414449468255043030e-02 -1.672898977994918823e-02 -2.418334223330020905e-02 4.708640649914741516e-02 -9.978174231946468353e-03 2.058941312134265900e-02 -6.838506553322076797e-03 1.676304452121257782e-02 2.113456837832927704e-02 4.728886857628822327e-02 2.173279225826263428e-02 2.373316511511802673e-02 -5.039716884493827820e-02 6.027131900191307068e-02 3.078670240938663483e-02 3.724996745586395264e-02 -2.801061235368251801e-02 2.564080525189638138e-03 1.719596236944198608e-02 -2.719853632152080536e-02 -2.049484755843877792e-03 -5.579429492354393005e-02 -5.690848454833030701e-03 -4.686203598976135254e-02 3.739115595817565918e-02
-2.479891665279865265e-02 2.420016005635261536e-02 1.237955316901206970e-02 6.014051381498575211e-03 -2.605859749019145966e-02 -5.791565403342247009e-02 -5.279530584812164307e-02 4.743837751448154449e-03 4.283966869115829468e-02 3.969786688685417175e-03 4.510071501135826111e-02 -3.028369881212711334e-02 3.725386783480644226e-02 -1.080007571727037430e-02 -2.836449258029460907e-02 -1.021272130310535431e-02 6.651341915130615234e-02 -7.303715683519840240e-03 1.683840900659561157e-02 1.099076680839061737e-02 4.934489727020263672e-02 -4.268915206193923950e-02 1.006703358143568039e-02 -3.583466634154319763e-02 -4.191067069768905640e-02 2.423105202615261078e-02 -4.305658489465713501e-02 -5.495418235659599304e-02 -5.949338898062705994e-02 6.594224274158477783e-02 -6.945001333951950073e-02 -3.797728195786476135e-02
-2.710805088281631470e-02 9.289650246500968933e-03 1.536579802632331848e-02 -3.305833414196968079e-02 -1.820247061550617218e-02 -7.220461964607238770e-02 -1.732019707560539246e-02 -6.091453135013580322e-03 4.727507755160331726e-02 -2.684856299310922623e-03 5.653631314635276794e-02 -2.809005975723266602e-02 4.857633635401725769e-02 -3.679489716887474060e-02 -7.854356081224977970e-04 4.205596819519996643e-02 8.309888839721679688e-02 1.160665228962898254e-02 -1.810011826455593109e-02 -3.546629566699266434e-03 2.884293720126152039e-02 -6.484399735927581787e-02 3.290538862347602844e-02 -1.826642267405986786e-02 -9.417456574738025665e-03 4.986345395445823669e-02 -5.786112695932388306e-02 -9.624308347702026367e-02 -7.242961227893829346e-02 2.817546948790550232e-02 -7.644166052341461182e-02 -6.535375118255615234e-02
9.110291488468647003e-03 -1.927503617480397224e-03 1.487457752227783203e-02 -4.920205101370811462e-02 -4.578898660838603973e-03 -7.310495525598526001e-02 2.736390754580497742e-02 -2.727019973099231720e-02 3.749951720237731934e-02 5.083723925054073334e-03 8.144199848175048828e-02 -2.406549826264381409e-02 4.931731894612312317e-02 -6.729038059711456299e-02 9.956243447959423065e-03 6.303621828556060791e-02 8.500145375728607178e-02 3.361621871590614319e-02 -3.132151439785957336e-02 -2.310756593942642212e-02 2.931752987205982208e-02 -5.913648754358291626e-02 4.288275539875030518e-02 -1.060831267386674881e-02 1.365537196397781372e-02 7.266461849212646484e-02 -5.736958980560302734e-02 -7.959366589784622192e-02 -7.407657057046890259e-02 3.577508905436843634e-04 -5.911405012011528015e-02 -5.075620859861373901e-02
7.131162285804748535e-02 -1.834191568195819855e-02 -4.256011452525854111e-04 -2.775512635707855225e-02 -2.086958661675453186e-02 -3.374322131276130676e-02 5.212223902344703674e-02 -4.541768878698348999e-02 6.464820355176925659e-03 -3.707617754116654396e-03 8.015000075101852417e-02 -2.284352295100688934e-02 3.048772551119327545e-02 -6.244580075144767761e-02 3.618873888626694679e-03 7.029704749584197998e-02 6.647242605686187744e-02 3.686728328466415405e-02 -1.884232088923454285e-02 -3.292909264564514160e-02 5.087599903345108032e-02 -1.513080950826406479e-02 3.791793063282966614e-02 -3.015916608273983002e-02 3.411709889769554138e-02 6.538534909486770630e-02 -4.495568946003913879e-02 -3.854082897305488586e-02 -5.863240733742713928e-02 -2.838889695703983307e-02 -4.893370345234870911e-02 2.950442256405949593e-03
9.957531839609146118e-02 -2.979039028286933899e-02 -7.325449958443641663e-03 -9.567210450768470764e-03 -3.367590904235839844e-02 1.761608012020587921e-02 3.010141663253307343e-02 -4.327604174613952637e-02 -1.077622454613447189e-02 -8.367421105504035950e-03 4.312426224350929260e-02 -1.192445121705532074e-02 1.772134378552436829e-02 -4.239757731556892395e-02 -1.527504250407218933e-02 5.784644559025764465e-02 4.495775327086448669e-02 1.030392386019229889e-02 1.097214408218860626e-02 -2.858659997582435608e-02 7.725474238395690918e-02 2.147656306624412537e-02 2.008922025561332703e-02 -6.080586090683937073e-02 2.484149299561977386e-02 4.774805530905723572e-02 -1.962660625576972961e-02 2.212365344166755676e-02 -5.877606198191642761e-02 -4.837738350033760071e-02 -5.136049911379814148e-02 5.358620733022689819e-02
-2.595945633947849274e-02 7.925047539174556732e-03 7.271616160869598389e-02 1.410462986677885056e-02 -5.431615561246871948e-02 -8.686117827892303467e-02 -5.665244907140731812e-02 1.927811093628406525e-02 -9.984526783227920532e-03 -2.115506678819656372e-03 9.544475935399532318e-03 -5.906777456402778625e-02 3.209457546472549438e-02 2.892103604972362518e-02 -5.074628815054893494e-02 -4.372259229421615601e-02 9.009017795324325562e-02 2.698710886761546135e-03 7.357535418123006821e-03 2.378952875733375549e-02 5.623935908079147339e-02 1.882576011121273041e-02 5.351018533110618591e-02 -4.239715635776519775e-02 -5.211755633354187012e-02 5.713762715458869934e-03 -3.053282573819160461e-02 -2.464040368795394897e-02 -4.514949768781661987e-02 4.193364456295967102e-02 -4.183331504464149475e-02 -1.722606085240840912e-02
-5.090087652206420898e-02 -3.579359874129295349e-02 9.255438297986984253e-02 -2.811679057776927948e-02 -4.293898865580558777e-02 -1.117113679647445679e-01 -3.625789424404501915e-03 2.462965250015258789e-02 1.498529128730297089e-02 -2.069383114576339722e-02 9.651868604123592377e-03 -5.493790283799171448e-02 4.963668435811996460e-02 1.006426382809877396e-02 -2.846806496381759644e-02 -1.698612794280052185e-02 1.070953160524368286e-01 1.683962903916835785e-02 4.641004372388124466e-03 1.740618795156478882e-02 4.846411198377609253e-02 -7.885792292654514313e-03 8.663238584995269775e-02 -2.519126236438751221e-02 -5.007565766572952271e-02 4.329850524663925171e-02 -4.145417362451553345e-02 -4.454829916357994080e-02 -4.507720097899436951e-02 2.752896957099437714e-02 -4.345058277249336243e-02 -1.999822258949279785e-02
-4.106129705905914307e-02 -7.634711265563964844e-02 9.140028059482574463e-02 -2.636853605508804321e-02 -4.049392789602279663e-02 -1.102840602397918701e-01 4.260729253292083740e-02 1.825783587992191315e-02 3.253115341067314148e-02 -2.316381223499774933e-02 1.372367329895496368e-02 -4.495121166110038757e-02 4.230828210711479187e-02 -2.880771830677986145e-02 -1.584752835333347321e-02 -9.748960845172405243e-03 1.021870821714401245e-01 3.571241348981857300e-02 1.483628060668706894e-02 4.086442291736602783e-03 4.767269641160964966e-02 -8.436027914285659790e-03 7.657290250062942505e-02 -5.486882291734218597e-04 -4.595099762082099915e-02 5.026539787650108337e-02 -1.694012060761451721e-02 -3.715480118989944458e-02 -4.682099074125289917e-02 4.008213058114051819e-03 -3.434807062149047852e-02 -8.962544612586498260e-03
3.102567279711365700e-04 -8.572362363338470459e-02 5.830966308712959290e-02 -1.338198431767523289e-03 -5.384538695216178894e-02 -6.834954023361206055e-02 6.325002014636993408e-02 -2.105045365169644356e-03 1.963425613939762115e-02 -3.646830096840858459e-02 1.773223467171192169e-02 -3.723954781889915466e-02 1.477643754333257675e-02 -6.125564873218536377e-02 -1.741763390600681305e-02 -4.064098000526428223e-03 6.309411674737930298e-02 3.743585199117660522e-02 2.571337483823299408e-02 -6.120065227150917053e-03 5.958333611488342285e-02 1.218833774328231812e-02 3.549677506089210510e-02 -1.796290092170238495e-02 -1.704385690391063690e-02 4.652484506368637085e-02 1.086775399744510651e-02 -6.462954450398683548e-03 -3.641197457909584045e-02 -1.004760246723890305e-02 -3.172168880701065063e-02 1.975147053599357605e-02
2.625564858317375183e-02 -7.212725281715393066e-02 1.008774805814027786e-02 2.011373266577720642e-02 -5.281821638345718384e-02 -1.023029442876577377e-02 5.350426957011222839e-02 -2.787271328270435333e-02 -4.872494173469021916e-05 -3.843659162521362305e-02 -1.056539267301559448e-02 -1.375389564782381058e-02 9.978333255276083946e-04 -6.480982154607772827e-02 -2.342535927891731262e-02 -1.625108707230538130e-04 3.112450614571571350e-02 1.356852240860462189e-02 3.434989601373672485e-02 -1.262610033154487610e-02 7.175087183713912964e-02 3.091141767799854279e-02 4.207616206258535385e-03 -5.190351977944374084e-02 8.061607368290424347e-03 3.187386691570281982e-02 3.969634324312210083e-02 2.720350399613380432e-02 -4.645398631691932678e-02 -1.933880150318145752e-02 -3.468481823801994324e-02 5.460913479328155518e-02
-1.776351965963840485e-02 2.754768170416355133e-02 1.302909012883901596e-02 -9.358474053442478180e-03 -5.579918995499610901e-02 -9.339905530214309692e-02 -3.798731043934822083e-02 -2.848644973710179329e-03 1.206718944013118744e-02 1.089177746325731277e-02 -1.426230557262897491e-02 -9.714637883007526398e-03 -1.056539919227361679e-02 3.788768127560615540e-02 -6.904634088277816772e-02 -2.545874007046222687e-02 6.747733056545257568e-02 -6.272449623793363571e-03 -3.173644095659255981e-02 1.088082790374755859e-02 2.202821336686611176e-02 8.775270543992519379e-03 4.667464271187782288e-02 -4.450320079922676086e-02 -1.286549121141433716e-02 -2.558840066194534302e-02 -3.480725735425949097e-02 -7.460164488293230534e-04 -2.513054385781288147e-02 1.994099281728267670e-02 -1.868819072842597961e-02 5.330000817775726318e-02
-4.679967090487480164e-02 -2.246474102139472961e-02 2.943503670394420624e-02 -3.381581231951713562e-02 -3.318921849131584167e-02 -1.188176870346069336e-01 9.929322637617588043e-03 1.575555419549345970e-03 3.026427887380123138e-02 1.780294813215732574e-03 -1.051658950746059418e-02 -1.078305300325155258e-02 1.241220254451036453e-02 3.333967551589012146e-02 -6.416440010070800781e-02 -1.429224666208028793e-02 7.354977726936340332e-02 2.069527981802821159e-03 -9.783608838915824890e-03 9.585438296198844910e-03 1.753677614033222198e-02 -9.635601192712783813e-03 6.399295479059219360e-02 -3.047865815460681915e-02 -2.583709917962551117e-02 1.844202727079391479e-02 -5.212433263659477234e-02 3.516766475513577461e-03 -1.415464654564857483e-02 1.471467316150665283e-02 -1.394816022366285324e-02 6.920286267995834351e-02
-5.239990353584289551e-02 -6.595814973115921021e-02 3.494872152805328369e-02 -1.666486449539661407e-02 -2.431514672935009003e-02 -1.116017103195190430e-01 4.678488522768020630e-02 -8.405455388128757477e-03 4.284529760479927063e-02 -7.663502357900142670e-03 1.036835368722677231e-02 -8.317620493471622467e-03 8.187270723283290863e-03 1.250766869634389877e-02 -5.590205267071723938e-02 -6.044798996299505234e-03 7.972063124179840088e-02 1.170193776488304138e-02 6.324335467070341110e-03 9.733443148434162140e-03 1.643862947821617126e-02 -2.393678762018680573e-02 5.045768618583679199e-02 -1.629347167909145355e-02 -3.108232095837593079e-02 3.305220231413841248e-02 -1.262282487004995346e-02 1.574870385229587555e-02 -1.402012165635824203e-02 1.002639904618263245e-02 -2.667945576831698418e-03 9.447147697210311890e-02
-3.604263067245483398e-02 -7.826916128396987915e-02 8.780714124441146851e-03 1.717649213969707489e-02 -2.894612029194831848e-02 -7.937227934598922729e-02 6.446232646703720093e-02 -2.243516966700553894e-02 2.929435670375823975e-02 -3.059377521276473999e-02 2.266216278076171875e-02 -1.154608745127916336e-02 -1.001750212162733078e-02 -1.584516465663909912e-02 -3.994288668036460876e-02 7.305073551833629608e-03 5.004954710602760315e-02 4.116812720894813538e-03 6.195940542966127396e-03 1.665745489299297333e-02 2.257855050265789032e-02 -1.277803815901279449e-02 1.773556880652904510e-02 -3.624046221375465393e-02 3.410804318264126778e-03 3.365001827478408813e-02 2.535186335444450378e-02 3.734871000051498413e-02 -1.033468451350927353e-02 1.390745770186185837e-02 -1.643034629523754120e-02 1.074352934956550598e-01
-3.360196948051452637e-02 -7.838866859674453735e-02 -2.505673468112945557e-02 3.954553976655006409e-02 -3.163129836320877075e-02 -5.197197943925857544e-02 4.437845945358276367e-02 -3.127769008278846741e-02 7.326248567551374435e-03 -4.386291652917861938e-02 5.261972080916166306e-03 -1.117722503840923309e-02 -3.335975110530853271e-02 -1.948156207799911499e-02 -1.609605178236961365e-02 1.006000768393278122e-02 1.524472236633300781e-02 -1.017674338072538376e-02 6.139545701444149017e-03 1.483184378594160080e-02 3.548333048820495605e-02 -1.706194318830966949e-02 -2.981856232509016991e-03 -5.702755972743034363e-02 3.186352550983428955e-02 2.209071442484855652e-02 5.386485531926155090e-02 5.437990278005599976e-02 -1.375428959727287292e-02 1.738693937659263611e-02 -3.184040635824203491e-02 1.035026535391807556e-01
-2.704554609954357147e-02 3.802958875894546509e-02 -4.945158585906028748e-02 -7.757780142128467560e-03 2.928675676230341196e-04 -2.401900105178356171e-02 -6.566994357854127884e-03 -1.994249969720840454e-02 -6.918083410710096359e-03 -4.071348160505294800e-02 3.889970853924751282e-02 1.975362747907638550e-02 -4.607089608907699585e-02 1.930421218276023865e-02 2.182640694081783295e-02 -1.884842850267887115e-02 -1.635336875915527344e-02 2.992280013859272003e-02 6.434673070907592773e-02 -5.510528013110160828e-02 4.683341458439826965e-02 5.197548493742942810e-02 1.486372016370296478e-02 2.027850039303302765e-02 2.528720349073410034e-02 -2.017819695174694061e-02 1.116107031702995300e-01 1.561906561255455017e-02 -1.133003924041986465e-02 -2.996600000187754631e-03 -7.580260746181011200e-03 -4.455126076936721802e-02
-2.371092140674591064e-02 5.258940160274505615e-02 -2.698346972465515137e-02 -4.384143743664026260e-03 -1.980540528893470764e-02 -6.624521221965551376e-03 -2.105463296175003052e-02 -2.197771705687046051e-02 -6.115074269473552704e-03 -3.484239801764488220e-02 3.582392819225788116e-04 2.071815915405750275e-02 -5.758116394281387329e-02 9.470162913203239441e-03 1.643029414117336273e-02 -1.649789325892925262e-02 -1.680529490113258362e-02 3.494111075997352600e-02 8.353631943464279175e-02 -7.603564858436584473e-02 1.866776123642921448e-02 1.790032349526882172e-02 1.707967370748519897e-02 6.454332172870635986e-02 3.904211148619651794e-02 -2.338557317852973938e-02 4.280470311641693115e-02 2.115780301392078400e-02 -3.713848814368247986e-02 9.630047716200351715e-03 -1.121902745217084885e-02 -2.842718362808227539e-02
-2.657183259725570679e-02 4.995924979448318481e-02 -2.770171966403722763e-03 -1.601645350456237793e-02 -2.114358358085155487e-02 2.935436740517616272e-02 -8.871452882885932922e-03 -8.895692415535449982e-03 -3.067888086661696434e-03 -2.438303828239440918e-02 -4.228532686829566956e-02 2.042462863028049469e-02 -5.355563014745712280e-02 1.540271844714879990e-02 1.155772432684898376e-02 -9.887483902275562286e-04 -2.719864947721362114e-03 3.389630466699600220e-02 6.518776714801788330e-02 -7.573715597391128540e-02 -2.129444107413291931e-02 -1.720112934708595276e-02 2.059416286647319794e-02 8.408285677433013916e-02 5.472018942236900330e-02 -8.832011371850967407e-03 -2.810325473546981812e-02 4.772756621241569519e-02 -6.224868074059486389e-02 1.757653616368770599e-02 -2.016847766935825348e-02 -2.647397667169570923e-02
-2.046100422739982605e-02 2.282417379319667816e-02 1.576159708201885223e-02 -2.539111860096454620e-02 -9.968562051653862000e-03 5.813938751816749573e-02 1.495317276567220688e-02 -1.596624380908906460e-03 -2.257784828543663025e-02 -8.020022884011268616e-03 -4.891662672162055969e-02 1.366787496954202652e-02 -4.458544775843620300e-02 2.942736074328422546e-02 6.430379115045070648e-03 1.957705803215503693e-02 -3.915820736438035965e-03 2.062750980257987976e-02 2.711917459964752197e-02 -5.832136422395706177e-02 -4.406931996345520020e-02 -4.190610721707344055e-02 2.296203933656215668e-02 7.281824946403503418e-02 5.620725452899932861e-02 6.603598129004240036e-03 -5.765343829989433289e-02 5.218699201941490173e-02 -7.334290444850921631e-02 1.420645508915185928e-02 -2.980689331889152527e-02 -3.811540082097053528e-02
-8.096780627965927124e-03 -9.944930206984281540e-05 3.274932503700256348e-02 -4.229789599776268005e-02 -8.289528079330921173e-03 4.305211082100868225e-02 1.042595598846673965e-02 9.027172927744686604e-04 -1.748291775584220886e-02 1.465748436748981476e-02 -4.719347134232521057e-02 1.105438265949487686e-02 -1.584423892199993134e-02 2.850156836211681366e-02 9.047955390997231007e-04 3.588945418596267700e-02 -1.652007736265659332e-02 7.985203526914119720e-03 -1.402150653302669525e-02 -4.601702094078063965e-02 -4.619246721267700195e-02 -5.015781894326210022e-02 2.457917109131813049e-02 4.833155125379562378e-02 5.938779562711715698e-02 1.717224158346652985e-02 -5.167048051953315735e-02 4.382610321044921875e-02 -7.362151890993118286e-02 8.197496645152568817e-03 -2.564412727952003479e-02 -4.360871389508247375e-02
-4.954183101654052734e-02 2.505330927670001984e-02 -1.281321980059146881e-02 -6.768554914742708206e-03 -1.317614875733852386e-02 -1.600771956145763397e-02 -3.259442746639251709e-02 -5.348115228116512299e-04 -3.173420205712318420e-03 -2.836207300424575806e-02 2.094392292201519012e-02 -1.659255847334861755e-02 -1.802279613912105560e-02 1.443968899548053741e-02 4.611648991703987122e-02 -5.310971289873123169e-02 1.431176159530878067e-02 3.930441662669181824e-02 8.225405216217041016e-02 -4.237904399633407593e-02 1.733815483748912811e-02 6.185542419552803040e-02 2.158508077263832092e-02 6.513463705778121948e-02 1.927718706429004669e-02 -3.443264588713645935e-02 1.258265525102615356e-01 3.739043325185775757e-02 -3.201899304986000061e-02 -3.152791643515229225e-03 -6.419132929295301437e-03 -3.799946233630180359e-02
-5.095540359616279602e-02 3.918563574552536011e-02 1.621439121663570404e-02 -5.271241068840026855e-03 -2.795589715242385864e-02 -8.481908589601516724e-03 -4.625634476542472839e-02 5.548334680497646332e-03 3.567932406440377235e-03 -2.916291169822216034e-02 -7.925435900688171387e-03 -2.933801151812076569e-02 -3.951036557555198669e-02 -2.988648484461009502e-04 3.100097551941871643e-02 -5.426885932683944702e-02 1.507760584354400635e-02 4.813271760940551758e-02 9.622795879840850830e-02 -5.385716259479522705e-02 -8.549445774406194687e-04 9.922608733177185059e-03 2.549905702471733093e-02 1.126338690519332886e-01 4.173854365944862366e-02 -3.166494518518447876e-02 6.241664662957191467e-02 3.698764741420745850e-02 -4.380178824067115784e-02 9.497715160250663757e-03 -9.822899475693702698e-03 -2.299020998179912567e-02
-4.858258739113807678e-02 3.875916078686714172e-02 3.648352622985839844e-02 -1.205504313111305237e-02 -2.716196700930595398e-02 1.752314530313014984e-02 -4.052065312862396240e-02 1.386589836329221725e-02 4.950599744915962219e-03 -2.346433140337467194e-02 -4.579002782702445984e-02 -3.024972602725028992e-02 -4.295812547206878662e-02 1.453745993785560131e-03 1.958942972123622894e-02 -3.588882833719253540e-02 2.705885097384452820e-02 4.100771993398666382e-02 5.897308140993118286e-02 -4.916254431009292603e-02 -2.894268371164798737e-02 -4.637099802494049072e-02 3.281995654106140137e-02 1.189185306429862976e-01 6.577226519584655762e-02 -1.260714977979660034e-02 -6.322346627712249756e-03 5.712899565696716309e-02 -4.562539607286453247e-02 1.505734212696552277e-02 -1.305506378412246704e-02 -1.815505512058734894e-02
-4.735768958926200867e-02 1.735708862543106079e-02 4.538735002279281616e-02 -9.127692319452762604e-03 -2.940995618700981140e-02 4.604272544384002686e-02 -1.908594369888305664e-02 1.498220581561326981e-02 -3.510569920763373375e-03 -1.518913172185420990e-02 -4.808406159281730652e-02 -3.018250502645969391e-02 -3.739145398139953613e-02 1.230536866933107376e-02 6.503511220216751099e-03 -5.323172546923160553e-03 1.713106967508792877e-02 1.698163896799087524e-02 1.455927849747240543e-03 -3.709727153182029724e-02 -3.522661328315734863e-02 -7.977637648582458496e-02 3.967237472534179688e-02 8.587576448917388916e-02 8.405473828315734863e-02 -1.150387804955244064e-03 -3.582882136106491089e-02 6.156021356582641602e-02 -4.041082412004470825e-02 1.402228791266679764e-02 -1.827612519264221191e-02 -2.824048511683940887e-02
-4.315535351634025574e-02 -2.374996896833181381e-03 4.637048766016960144e-02 -1.758486032485961914e-02 -3.897892683744430542e-02 3.537323325872421265e-02 -1.181556656956672668e-02 8.815799839794635773e-03 4.870347213000059128e-03 6.208439823240041733e-03 -4.212310165166854858e-02 -3.137345612049102783e-02 -1.419130340218544006e-02 1.526127103716135025e-02 -2.230420941486954689e-03 1.932365261018276215e-02 -1.003817422315478325e-03 -1.634169253520667553e-03 -3.891238942742347717e-02 -3.246670588850975037e-02 -3.099466487765312195e-02 -8.578024804592132568e-02 3.733866661787033081e-02 4.853845387697219849e-02 8.688658475875854492e-02 -1.789220958016812801e-03 -4.652475565671920776e-02 4.301101341843605042e-02 -3.643689304590225220e-02 1.461313758045434952e-02 -1.320925448089838028e-02 -2.535086870193481445e-02
-5.810365080833435059e-02 9.036710485816001892e-03 1.755761541426181793e-02 2.483707852661609650e-03 1.096823532134294510e-02 -1.049759332090616226e-02 -5.394470691680908203e-02 5.019212607294321060e-03 -1.347597921267151833e-03 -3.814507648348808289e-02 1.859635859727859497e-02 -3.270918875932693481e-02 -3.564626444131135941e-03 4.150398541241884232e-03 1.911744475364685059e-02 -4.662685468792915344e-02 1.715154759585857391e-02 3.198455646634101868e-02 8.747944980859756470e-02 -9.935136884450912476e-03 -3.047439968213438988e-03 4.844379052519798279e-02 7.869774475693702698e-03 4.053844138979911804e-02 3.392575774341821671e-03 -3.563551232218742371e-02 1.021609231829643250e-01 3.430439904332160950e-02 -2.325996942818164825e-02 2.008914249017834663e-03 -3.194983582943677902e-03 -1.877121068537235260e-02
-5.885161086916923523e-02 1.649988070130348206e-02 4.199598357081413269e-02 7.976252585649490356e-03 -4.780067829415202141e-04 -7.842185907065868378e-03 -7.656867802143096924e-02 1.215014513581991196e-02 -2.222426119260489941e-04 -4.654873535037040710e-02 -1.345143932849168777e-02 -4.973531514406204224e-02 -2.217137441039085388e-02 -1.596213318407535553e-02 3.821308491751551628e-03 -5.098826438188552856e-02 2.565940469503402710e-02 3.822376579046249390e-02 9.523300826549530029e-02 -1.116495672613382339e-02 -2.142826793715357780e-03 -1.046841498464345932e-02 1.837974414229393005e-02 7.068487256765365601e-02 1.857930794358253479e-02 -4.070197418332099915e-02 5.782731622457504272e-02 4.411499202251434326e-02 -1.744995079934597015e-02 8.470252156257629395e-03 -5.243112333118915558e-03 7.123359479010105133e-03
-4.900836944580078125e-02 2.025032043457031250e-02 5.371107161045074463e-02 8.662245236337184906e-03 -1.106223557144403458e-02 1.501487009227275848e-02 -7.280628383159637451e-02 1.605585962533950806e-02 -4.732198547571897507e-03 -4.535416141152381897e-02 -5.023933947086334229e-02 -4.648789390921592712e-02 -1.925654709339141846e-02 -1.992428302764892578e-02 -7.036437746137380600e-04 -2.746582031250000000e-02 3.972426429390907288e-02 1.854584738612174988e-02 3.865387290716171265e-02 -3.305029356852173805e-03 -1.004296354949474335e-02 -7.359536737203598022e-02 3.131058439612388611e-02 5.757703259587287903e-02 4.577266797423362732e-02 -3.139998763799667358e-02 -2.797699067741632462e-03 6.568231433629989624e-02 7.802015170454978943e-04 1.314594782888889313e-02 -3.596826922148466110e-03 2.772313356399536133e-02
-5.334370583295822144e-02 1.388136390596628189e-02 5.225977301597595215e-02 2.659264579415321350e-02 -2.378665469586849213e-02 4.135700315237045288e-02 -4.894612729549407959e-02 1.402735989540815353e-02 -6.563925184309482574e-03 -3.734197840094566345e-02 -4.514856263995170593e-02 -4.010542854666709900e-02 -1.132277306169271469e-02 -2.003834582865238190e-02 -7.796418387442827225e-03 4.420949611812829971e-03 2.737589552998542786e-02 -1.511502545326948166e-03 -2.757104486227035522e-02 -4.635753575712442398e-04 -6.175648421049118042e-03 -1.055102124810218811e-01 3.161820024251937866e-02 2.786715701222419739e-02 7.264734804630279541e-02 -3.041034936904907227e-02 -3.462561964988708496e-02 6.958353519439697266e-02 1.162048336118459702e-02 1.394356321543455124e-02 -4.717289004474878311e-03 2.378866821527481079e-02
-5.997190624475479126e-02 -3.233263734728097916e-03 4.078257456421852112e-02 2.365173399448394775e-02 -4.394202679395675659e-02 2.585402317345142365e-02 -3.017829358577728271e-02 6.546127609908580780e-03 5.635377019643783569e-03 -5.000875331461429596e-03 -3.803434967994689941e-02 -3.872913867235183716e-02 8.273420855402946472e-03 -2.200876735150814056e-02 -1.984258927404880524e-02 2.844854816794395447e-02 1.965232193470001221e-03 -1.092293392866849899e-02 -5.935631692409515381e-02 1.362077426165342331e-03 -2.791214734315872192e-03 -1.026011183857917786e-01 2.223829366266727448e-02 -1.049427082762122154e-03 8.973570913076400757e-02 -3.611657023429870605e-02 -4.756967350840568542e-02 3.882100060582160950e-02 4.560733679682016373e-03 7.342590484768152237e-03 -2.025042194873094559e-03 2.641875669360160828e-02
-5.797805637121200562e-02 5.494783632457256317e-03 1.624070852994918823e-02 3.250677138566970825e-02 1.348437182605266571e-02 -1.626811362802982330e-02 -6.578482687473297119e-02 1.040084660053253174e-02 -4.440659176907502115e-05 -4.526669159531593323e-02 1.188391819596290588e-02 -2.508779801428318024e-02 -2.254556398838758469e-03 1.373576559126377106e-02 -1.551092020235955715e-03 -5.892576277256011963e-02 1.669316925108432770e-02 1.428365148603916168e-02 7.383259385824203491e-02 9.842400439083576202e-03 1.371827675029635429e-03 3.093299642205238342e-02 -1.076491316780447960e-03 1.725928299129009247e-02 -1.323971059173345566e-02 -3.300900384783744812e-02 6.540282815694808960e-02 1.748648658394813538e-02 7.081600837409496307e-03 -6.680781487375497818e-03 -3.095784690231084824e-03 3.629538463428616524e-03
-5.076598376035690308e-02 7.591694011352956295e-04 3.436319530010223389e-02 3.150457888841629028e-02 3.306726866867393255e-04 -1.938743703067302704e-02 -8.501513302326202393e-02 1.380274724215269089e-02 -3.899791045114398003e-04 -5.556972324848175049e-02 -2.109855227172374725e-02 -3.665168210864067078e-02 -1.601507142186164856e-02 2.300187043147161603e-04 -1.247616484761238098e-02 -5.153832957148551941e-02 2.932469919323921204e-02 1.015161164104938507e-02 8.540228754281997681e-02 1.238977350294589996e-02 1.563342101871967316e-02 -1.799101382493972778e-02 1.133299898356199265e-02 2.657818421721458435e-02 1.994469901546835899e-03 -4.034502059221267700e-02 3.331786021590232849e-02 3.859327733516693115e-02 2.624319866299629211e-02 -1.338163623586297035e-03 -4.148527514189481735e-03 4.118984192609786987e-02
-3.454181179404258728e-02 1.019411347806453705e-02 4.585923254489898682e-02 3.462124243378639221e-02 -1.284502167254686356e-02 -7.171818055212497711e-03 -7.398720830678939819e-02 9.118240326642990112e-03 -2.470717066898941994e-03 -6.125644594430923462e-02 -5.767566338181495667e-02 -2.718563936650753021e-02 -7.967553101480007172e-03 -7.943914271891117096e-03 -1.673754863440990448e-02 -2.264796011149883270e-02 3.196155279874801636e-02 -5.116371903568506241e-03 3.083914890885353088e-02 1.680273003876209259e-02 2.399620600044727325e-02 -5.676119029521942139e-02 1.912792772054672241e-02 9.878091514110565186e-03 2.867205440998077393e-02 -3.645544499158859253e-02 -1.213359646499156952e-02 5.607681348919868469e-02 4.576390236616134644e-02 5.933140870183706284e-03 1.403845380991697311e-04 6.571632623672485352e-02
-3.462068364024162292e-02 2.990837208926677704e-03 3.456360101699829102e-02 5.560882389545440674e-02 -3.200250864028930664e-02 1.218780316412448883e-02 -5.009527876973152161e-02 -3.098284360021352768e-03 5.837107892148196697e-04 -4.915662854909896851e-02 -5.129648000001907349e-02 -1.700842566788196564e-02 2.771206432953476906e-03 -1.597135141491889954e-02 -2.301160246133804321e-02 -2.624015323817729950e-03 1.439688727259635925e-02 -1.568661257624626160e-02 -3.328954055905342102e-02 1.991210319101810455e-02 2.383011952042579651e-02 -7.248189300298690796e-02 1.635335013270378113e-02 -1.617225073277950287e-02 5.141876265406608582e-02 -4.342709854245185852e-02 -3.429050371050834656e-02 4.517703875899314880e-02 4.396892711520195007e-02 6.977908778935670853e-03 -4.116388969123363495e-03 6.476814299821853638e-02
-4.461935535073280334e-02 -1.670622080564498901e-02 1.618161052465438843e-02 5.883092805743217468e-02 -6.540740281343460083e-02 -5.798231577500700951e-04 -2.698036283254623413e-02 -1.209338288754224777e-02 2.963985782116651535e-03 -1.226297859102487564e-02 -4.744218662381172180e-02 -1.523360051214694977e-02 1.093789190053939819e-02 -2.496291883289813995e-02 -3.480635210871696472e-02 2.981514437124133110e-03 -1.302227005362510681e-02 -1.975421607494354248e-02 -5.679732933640480042e-02 1.945996843278408051e-02 2.066061273217201233e-02 -7.689934223890304565e-02 2.176873851567506790e-03 -2.932635508477687836e-02 6.490821391344070435e-02 -4.829241335391998291e-02 -4.049918428063392639e-02 8.228525519371032715e-03 1.620018295943737030e-02 2.780338982120156288e-04 7.891926215961575508e-04 6.507598608732223511e-02
-5.437796935439109802e-02 3.877904731780290604e-03 1.079919561743736267e-02 5.091932043433189392e-02 -3.249068977311253548e-03 -2.262907102704048157e-02 -5.629977211356163025e-02 1.749920658767223358e-02 9.371733292937278748e-03 -3.279397264122962952e-02 2.214518561959266663e-02 -8.883636444807052612e-03 -2.476177643984556198e-03 9.492916055023670197e-03 -3.744790330529212952e-02 -5.339454859495162964e-02 1.327801262959837914e-03 -1.128076482564210892e-02 6.033896282315254211e-02 1.888955011963844299e-02 -8.102072402834892273e-03 1.333850435912609100e-02 1.329559274017810822e-02 1.305130217224359512e-02 -2.201332151889801025e-02 -1.207229495048522949e-02 2.998312190175056458e-02 8.389260619878768921e-03 1.935419254004955292e-02 -1.158188655972480774e-02 -1.936285011470317841e-02 -5.031689535826444626e-03
-4.860115423798561096e-02 -8.519169874489307404e-03 2.058701217174530029e-02 4.867259413003921509e-02 -1.404996495693922043e-02 -3.784153237938880920e-02 -6.664379686117172241e-02 1.054052077233791351e-02 6.294469814747571945e-03 -4.682075604796409607e-02 -9.069914929568767548e-03 -1.053278055042028427e-02 -7.732106838375329971e-03 3.559035481885075569e-03 -4.280333593487739563e-02 -3.932469710707664490e-02 1.815941929817199707e-02 -2.160130068659782410e-02 6.990117579698562622e-02 2.371887862682342529e-02 4.276357125490903854e-03 -1.623072661459445953e-02 1.443386916071176529e-02 8.151632733643054962e-03 -1.503769215196371078e-02 -2.258212305605411530e-02 9.791195392608642578e-03 2.452185377478599548e-02 2.049808204174041748e-02 -6.719152443110942841e-03 -2.100637741386890411e-02 3.147973865270614624e-02
-3.680584579706192017e-02 -7.337699644267559052e-03 3.374805673956871033e-02 5.622578039765357971e-02 -2.780527435243129730e-02 -3.270938992500305176e-02 -5.526027455925941467e-02 1.372591214021667838e-04 1.082714647054672241e-03 -5.356206372380256653e-02 -3.885946050286293030e-02 -2.478846115991473198e-03 1.628140918910503387e-03 5.609064828604459763e-03 -4.518247768282890320e-02 -1.546923909336328506e-02 1.650315150618553162e-02 -2.409926243126392365e-02 2.215608768165111542e-02 2.686089463531970978e-02 6.630324292927980423e-03 -4.317289218306541443e-02 1.085032150149345398e-02 -7.329079322516918182e-03 8.601334877312183380e-03 -2.510483376681804657e-02 -8.876704610884189606e-03 3.647680580615997314e-02 2.345166169106960297e-02 3.253290895372629166e-03 -1.384879089891910553e-02 5.086398869752883911e-02
-2.700734324753284454e-02 -1.805796474218368530e-02 2.619443275034427643e-02 7.029859721660614014e-02 -4.804182425141334534e-02 -1.677026972174644470e-02 -3.928094357252120972e-02 -1.692698523402214050e-02 -1.432504388503730297e-03 -3.992519527673721313e-02 -3.652952611446380615e-02 2.210779930464923382e-04 9.473999962210655212e-03 3.330882173031568527e-03 -4.164034873247146606e-02 -1.878010458312928677e-03 -7.044107769615948200e-04 -2.408485859632492065e-02 -3.112670406699180603e-02 3.053820133209228516e-02 5.972656887024641037e-03 -5.166071653366088867e-02 -3.671439830213785172e-03 -2.933218330144882202e-02 2.334442175924777985e-02 -3.100028634071350098e-02 -2.035982161760330200e-02 2.910762466490268707e-02 1.770910248160362244e-02 4.431188106536865234e-03 -1.840011589229106903e-02 5.124861374497413635e-02
-2.943804115056991577e-02 -3.996817767620086670e-02 1.131819188594818115e-02 6.650532782077789307e-02 -7.729555666446685791e-02 -2.468638680875301361e-02 -2.291148528456687927e-02 -2.781757898628711700e-02 2.150441752746701241e-03 -7.522611878812313080e-03 -3.482878208160400391e-02 -8.158085867762565613e-03 9.683675132691860199e-03 -5.180821288377046585e-03 -4.279884323477745056e-02 -3.089302685111761093e-03 -1.578331552445888519e-02 -1.831076666712760925e-02 -4.904741793870925903e-02 2.511369064450263977e-02 9.082133881747722626e-03 -6.876127421855926514e-02 -2.060393989086151123e-02 -3.768301010131835938e-02 3.136172890663146973e-02 -3.109327889978885651e-02 -2.336148731410503387e-02 5.996395833790302277e-03 -1.103072054684162140e-02 5.284415557980537415e-03 -1.291803456842899323e-02 4.921115562319755554e-02
4.418129101395606995e-03 3.274441137909889221e-02 -2.484926080796867609e-04 -9.870829991996288300e-03 2.237847819924354553e-02 -3.362882137298583984e-02 6.693794392049312592e-03 -2.973482012748718262e-02 -1.721761561930179596e-02 -7.876582443714141846e-03 -8.603366091847419739e-03 -3.065755777060985565e-02 -2.886115759611129761e-02 -2.022021263837814331e-02 2.832728996872901917e-02 -1.631277613341808319e-02 1.670194044709205627e-02 1.204649731516838074e-02 1.574086584150791168e-02 6.545276846736669540e-03 -1.704906899249181151e-04 -2.130751311779022217e-02 -5.930886417627334595e-02 -2.479962818324565887e-02 -5.313218571245670319e-03 3.719689324498176575e-02 3.309803083539009094e-02 4.815489426255226135e-02 -6.528778374195098877e-02 1.780245080590248108e-02 4.193469416350126266e-03 -3.494407236576080322e-02
-3.322626464068889618e-03 4.860122874379158020e-02 -1.378425676375627518e-02 -5.520917940884828568e-03 3.185826167464256287e-02 -3.111268207430839539e-02 -2.149987034499645233e-02 -3.955512866377830505e-02 -1.782941631972789764e-02 -5.112577229738235474e-03 -2.870353683829307556e-02 -1.832784526050090790e-02 -3.869827464222908020e-02 -8.718070574104785919e-03 3.196491301059722900e-02 6.086650304496288300e-03 -5.968804005533456802e-03 7.492419797927141190e-03 7.440072949975728989e-03 -1.167530659586191177e-02 -1.144854445010423660e-02 -2.636977471411228180e-02 -6.540621072053909302e-02 -2.531089819967746735e-02 1.454846560955047607e-02 2.718241326510906219e-02 3.192858770489692688e-02 9.769569337368011475e-02 -5.779517814517021179e-02 2.543453685939311981e-02 -6.168473977595567703e-03 -3.364411741495132446e-02
-2.785132825374603271e-02 4.713885113596916199e-02 -3.118600510060787201e-02 7.253802847117185593e-03 2.610302530229091644e-02 -3.449625521898269653e-02 -4.861179739236831665e-02 -4.726652055978775024e-02 1.183508895337581635e-03 2.381004765629768372e-02 -3.526601567864418030e-02 -7.289895438589155674e-04 -4.485591500997543335e-02 -8.365646004676818848e-03 2.243253029882907867e-02 1.572145521640777588e-02 -1.718315668404102325e-02 4.959152545779943466e-03 -1.854187436401844025e-02 -2.715540491044521332e-02 -6.331717595458030701e-03 -2.627620846033096313e-02 -6.109455227851867676e-02 -2.809511311352252960e-02 4.504306614398956299e-02 3.083645552396774292e-02 -1.093581435270607471e-03 1.267589628696441650e-01 -3.566636145114898682e-02 1.871522143483161926e-02 5.182904191315174103e-03 -3.671717271208763123e-02
-4.596485570073127747e-02 2.911418303847312927e-02 -1.506020594388246536e-02 1.913939631776884198e-04 -1.981742121279239655e-02 -2.404647506773471832e-02 -2.733235619962215424e-02 -4.990746453404426575e-02 2.564538735896348953e-04 4.573022201657295227e-02 -3.132374957203865051e-02 3.025387180969119072e-03 -2.215594053268432617e-02 2.599954837933182716e-03 1.591214351356029510e-02 3.155604004859924316e-02 -2.860858291387557983e-02 -1.950519531965255737e-02 -4.766115173697471619e-02 -3.235483914613723755e-02 -8.988254703581333160e-03 -1.109473593533039093e-02 -4.703216999769210815e-02 -2.404140494763851166e-02 7.663902640342712402e-02 3.841424360871315002e-02 -3.502517193555831909e-02 9.726222604513168335e-02 -4.591941833496093750e-03 9.933571331202983856e-03 1.207659579813480377e-02 -3.122085332870483398e-02
-3.626364469528198242e-02 2.279295772314071655e-02 1.294013671576976776e-02 1.754459692165255547e-03 -5.600522458553314209e-02 -1.673587039113044739e-02 2.827190328389406204e-03 -4.825149476528167725e-02 -3.396284591872245073e-04 3.368497267365455627e-02 -1.679207198321819305e-02 -2.575753256678581238e-03 2.040385641157627106e-02 1.128370780497789383e-02 3.635502886027097702e-03 5.099460110068321228e-02 -3.514634445309638977e-02 -3.197683393955230713e-02 -4.202875867486000061e-02 -2.616660110652446747e-02 -9.060391224920749664e-03 -2.340509236091747880e-04 -3.782029822468757629e-02 -7.317113690078258514e-03 7.867088913917541504e-02 4.898526519536972046e-02 -3.302364423871040344e-02 3.911315277218818665e-02 1.677036285400390625e-02 -1.273406855762004852e-02 1.131258718669414520e-02 -1.525919977575540543e-02
9.967948310077190399e-03 3.847329318523406982e-02 -3.322111442685127258e-02 -9.928442537784576416e-03 4.199403151869773865e-02 9.931706823408603668e-03 -1.960571296513080597e-02 -2.522292919456958771e-02 -3.374180570244789124e-02 -1.804876327514648438e-02 -5.213260650634765625e-02 -1.830312423408031464e-02 -3.399907797574996948e-02 -1.150683127343654633e-02 1.482121180742979050e-02 -5.629472807049751282e-02 3.088166005909442902e-03 1.691453531384468079e-02 3.171098977327346802e-02 2.259145677089691162e-02 1.011106930673122406e-02 -7.824343629181385040e-03 -5.007444694638252258e-02 -3.262119740247726440e-02 -5.703631043434143066e-02 6.153888627886772156e-02 4.094154387712478638e-02 9.994925558567047119e-02 -6.919293850660324097e-02 8.613630197942256927e-03 -9.879858698695898056e-04 -4.172734543681144714e-02
5.950262770056724548e-03 6.329320371150970459e-02 -6.542804837226867676e-02 -6.659734994173049927e-03 8.934897184371948242e-02 1.148508954793214798e-02 -6.728263199329376221e-02 -3.059232607483863831e-02 -1.548452116549015045e-02 -1.568074338138103485e-02 -7.521769404411315918e-02 -2.472129091620445251e-02 -4.867714270949363708e-02 -6.485349964350461960e-03 1.977768912911415100e-02 -4.845049977302551270e-02 -2.679964713752269745e-02 1.398561056703329086e-02 1.575405709445476532e-02 4.649644717574119568e-03 -2.159692958230152726e-04 -4.189584869891405106e-03 -4.743403568863868713e-02 -1.463603507727384567e-02 -5.718917399644851685e-02 6.468746811151504517e-02 3.922003507614135742e-02 1.630351394414901733e-01 -5.941849574446678162e-02 1.703050918877124786e-02 -5.765445064753293991e-03 -4.545063525438308716e-02
-7.342687342315912247e-03 5.484864488244056702e-02 -6.395605206489562988e-02 4.774914123117923737e-03 1.012425273656845093e-01 -1.060374453663825989e-02 -8.828804641962051392e-02 -4.308382794260978699e-02 1.105201430618762970e-02 2.107067033648490906e-02 -8.157646656036376953e-02 -1.573405787348747253e-02 -5.474679544568061829e-02 -1.284013502299785614e-02 1.040608808398246765e-02 -4.259784147143363953e-02 -4.201265424489974976e-02 7.789483293890953064e-03 -2.806696854531764984e-02 -1.040880102664232254e-02 8.017912507057189941e-03 1.561888493597507477e-03 -4.000252112746238708e-02 -1.312951464205980301e-02 -2.541366405785083771e-02 8.200203627347946167e-02 -1.556468848139047623e-02 1.967315971851348877e-01 -3.251163288950920105e-02 1.403756625950336456e-02 2.436046954244375229e-03 -4.557210579514503479e-02
-2.542105130851268768e-02 4.833329468965530396e-02 -2.594693191349506378e-02 6.167126353830099106e-03 4.321172088384628296e-02 -2.758450433611869812e-02 -4.594405740499496460e-02 -5.354472249746322632e-02 2.025554142892360687e-02 4.952159896492958069e-02 -6.278722733259201050e-02 -1.438706927001476288e-02 -1.566226221621036530e-02 -1.233204267919063568e-02 -3.245297586545348167e-03 -2.584329806268215179e-02 -3.912148624658584595e-02 -6.737928837537765503e-03 -7.297281175851821899e-02 -1.893001049757003784e-02 9.172801859676837921e-03 1.968567259609699249e-02 -3.558276221156120300e-02 -2.649328298866748810e-02 3.054850175976753235e-02 8.345632255077362061e-02 -5.893580615520477295e-02 1.514608114957809448e-01 8.543327450752258301e-03 3.001609002240002155e-04 2.868204144760966301e-03 -1.900221779942512512e-02
-2.831197716295719147e-02 4.599732533097267151e-02 2.038190141320228577e-02 2.721142256632447243e-03 -2.140271477401256561e-02 -3.686264157295227051e-02 4.343830514699220657e-04 -4.833460599184036255e-02 1.501128077507019043e-02 3.637304157018661499e-02 -2.416796237230300903e-02 -1.057320274412631989e-02 4.732540994882583618e-02 2.234411193057894707e-03 -5.831169895827770233e-03 3.089350182563066483e-03 -3.791411966085433960e-02 -1.468999590724706650e-02 -6.948307901620864868e-02 -1.491643860936164856e-02 3.623805823735892773e-04 2.894051745533943176e-02 -2.892217226326465607e-02 -2.788633853197097778e-02 6.072104349732398987e-02 8.186572790145874023e-02 -5.933076888322830200e-02 8.072770386934280396e-02 3.192400932312011719e-02 -1.251158025115728378e-02 2.749305684119462967e-03 1.182403648272156715e-03
4.088263958692550659e-03 2.495410479605197906e-02 -2.092763781547546387e-02 -5.959916394203901291e-03 5.941880866885185242e-02 3.805222734808921814e-02 -3.971263021230697632e-02 -3.075733548030257225e-03 -3.846057876944541931e-02 -1.070356555283069611e-02 -5.947532132267951965e-02 -2.588308707345277071e-04 -4.226125031709671021e-02 -1.512999553233385086e-02 3.072981024160981178e-03 -7.474602758884429932e-02 -1.625341537874191999e-04 2.857071906328201294e-02 5.206618458032608032e-02 2.794831991195678711e-02 1.150672510266304016e-02 -1.607857411727309227e-03 -2.666986733675003052e-02 2.448681276291608810e-03 -1.005954816937446594e-01 7.006641477346420288e-02 4.150770977139472961e-02 1.020177751779556274e-01 -5.061315745115280151e-02 -7.024615770205855370e-04 -1.592322136275470257e-03 -3.222979605197906494e-02
1.222795899957418442e-02 2.606956474483013153e-02 -4.025943577289581299e-02 -2.306723268702626228e-03 1.265631020069122314e-01 2.532158605754375458e-02 -8.324927836656570435e-02 -1.119394507259130478e-02 -1.807845197618007660e-02 -4.077451769262552261e-03 -9.355461597442626953e-02 -1.855451986193656921e-02 -5.755341798067092896e-02 -1.217676978558301926e-02 1.173357386142015457e-02 -7.476375252008438110e-02 -4.387788102030754089e-02 1.293292641639709473e-02 2.777761965990066528e-02 7.093387190252542496e-03 1.059360522776842117e-02 2.519591944292187691e-03 -2.612643130123615265e-02 2.197070792317390442e-02 -1.248881593346595764e-01 8.895789086818695068e-02 3.043021820485591888e-02 1.631619930267333984e-01 -5.230901390314102173e-02 7.187032140791416168e-03 -3.791902563534677029e-04 -1.905314251780509949e-02
1.263225916773080826e-02 2.054596133530139923e-02 -3.286944702267646790e-02 6.003664340823888779e-03 1.435092091560363770e-01 -1.718747429549694061e-02 -8.813573420047760010e-02 -2.633629180490970612e-02 1.733334362506866455e-02 3.271354362368583679e-02 -9.614246338605880737e-02 -2.371380664408206940e-02 -5.613117292523384094e-02 -7.169338874518871307e-03 7.033862173557281494e-03 -6.134782731533050537e-02 -6.369212269783020020e-02 4.710358567535877228e-03 -2.592099644243717194e-02 5.095014348626136780e-03 1.891992054879665375e-02 2.021041326224803925e-02 -2.250175923109054565e-02 1.367305684834718704e-02 -1.132923737168312073e-01 1.141310110688209534e-01 -2.428979985415935516e-02 1.935928165912628174e-01 -1.736224628984928131e-02 6.564510520547628403e-03 5.029710475355386734e-03 -2.844516886398196220e-03
5.148922558873891830e-03 1.215215306729078293e-02 -1.714217662811279297e-02 5.060388706624507904e-03 8.759125322103500366e-02 -5.404106527566909790e-02 -4.856768995523452759e-02 -4.159198701381683350e-02 3.101086243987083435e-02 6.829186528921127319e-02 -6.054672226309776306e-02 -1.615550555288791656e-02 -7.991701364517211914e-03 -8.639960549771785736e-03 -2.256329869851469994e-03 -3.547529876232147217e-02 -4.468267783522605896e-02 -1.165408920496702194e-02 -7.712737470865249634e-02 -1.736676204018294811e-03 1.117210276424884796e-02 3.306743875145912170e-02 -2.938762120902538300e-02 -1.579191721975803375e-02 -5.787031725049018860e-02 1.112458035349845886e-01 -5.924695730209350586e-02 1.396587044000625610e-01 2.983534894883632660e-02 1.788427820429205894e-03 8.015114814043045044e-03 1.519205421209335327e-02
-1.227637752890586853e-02 1.945061422884464264e-02 1.210035290569067001e-02 3.423307556658983231e-03 1.387434918433427811e-02 -6.586684286594390869e-02 -8.528111502528190613e-03 -3.775584697723388672e-02 2.057660184800624847e-02 5.230357125401496887e-02 -1.406098250299692154e-02 -6.395131815224885941e-03 4.609760642051696777e-02 -1.693524536676704884e-04 -7.136671803891658783e-03 1.237541902810335159e-03 -3.344103693962097168e-02 -2.058761194348335266e-03 -6.749155372381210327e-02 -6.384789943695068359e-03 -3.348778933286666870e-03 4.189681261777877808e-02 -1.674659363925457001e-02 -3.887752816081047058e-02 -4.537510976660996675e-04 1.086890995502471924e-01 -5.376182124018669128e-02 7.681828737258911133e-02 4.810949787497520447e-02 -7.765921764075756073e-03 7.292537484318017960e-04 2.191684208810329437e-02
-1.802852563560009003e-02 -4.178375937044620514e-03 1.913022436201572418e-02 6.094652693718671799e-03 3.407907113432884216e-02 1.736458763480186462e-02 -2.366154827177524567e-02 1.577019877731800079e-02 -3.605926409363746643e-02 -2.974865026772022247e-03 -5.681722611188888550e-02 1.023101527243852615e-02 -4.604028165340423584e-02 -5.912908352911472321e-03 -7.458625826984643936e-03 -4.693601652979850769e-02 -1.256408728659152985e-02 2.425574883818626404e-02 4.624591395258903503e-02 1.541605964303016663e-02 1.094091590493917465e-02 -1.427362486720085144e-02 -2.171198651194572449e-02 3.309775516390800476e-02 -6.025246903300285339e-02 5.885885655879974365e-02 2.812616527080535889e-02 8.021711558103561401e-02 -1.908025518059730530e-02 -1.317265164107084274e-02 7.033126428723335266e-03 -1.607686653733253479e-02
-5.240222439169883728e-03 -1.562570035457611084e-02 1.015831902623176575e-02 -8.364022942259907722e-04 1.009646654129028320e-01 -4.968570079654455185e-03 -4.414159432053565979e-02 6.978692486882209778e-03 -2.738241665065288544e-02 3.060727380216121674e-03 -7.751224935054779053e-02 1.630766782909631729e-03 -5.400817096233367920e-02 -1.036330708302557468e-03 -2.085412153974175453e-03 -4.013619944453239441e-02 -4.805216193199157715e-02 1.615197397768497467e-04 2.838437445461750031e-02 -5.100795067846775055e-03 1.222140714526176453e-02 -1.172113884240388870e-02 -3.009429201483726501e-02 5.043933540582656860e-02 -1.058251261711120605e-01 8.055008202791213989e-02 1.143027190119028091e-02 1.241643056273460388e-01 -1.782395318150520325e-02 -4.544728901237249374e-03 5.009691230952739716e-03 1.477908343076705933e-02
1.230872422456741333e-02 -2.932402305305004120e-02 1.611289568245410919e-02 -2.082129940390586853e-03 1.330186277627944946e-01 -4.767035692930221558e-02 -5.591182783246040344e-02 -1.075044460594654083e-02 9.438864886760711670e-03 3.998137265443801880e-02 -6.915963441133499146e-02 -5.929339211434125900e-03 -4.881487041711807251e-02 -6.894015707075595856e-03 3.879138734191656113e-03 -2.090596407651901245e-02 -5.244772136211395264e-02 -1.375859882682561874e-02 -1.588905788958072662e-02 -4.627105314284563065e-03 1.752752438187599182e-02 1.374331954866647720e-02 -3.223239257931709290e-02 3.742049261927604675e-02 -1.219602599740028381e-01 9.563958644866943359e-02 -2.418348751962184906e-02 1.411415487527847290e-01 2.086215093731880188e-02 -3.335254499688744545e-03 1.065327227115631104e-02 3.332856670022010803e-02
1.619737595319747925e-02 -3.273178264498710632e-02 4.906755872070789337e-03 7.367620128206908703e-04 9.398102015256881714e-02 -8.167327195405960083e-02 -4.193264991044998169e-02 -2.813819795846939087e-02 2.857870981097221375e-02 5.694190412759780884e-02 -3.841077536344528198e-02 -2.479305258020758629e-03 -9.073522873222827911e-03 -6.554360501468181610e-03 4.334871657192707062e-03 3.327519865706562996e-03 -2.999761328101158142e-02 -1.690645515918731689e-02 -6.205093115568161011e-02 -1.127423997968435287e-02 1.023070234805345535e-02 3.170078247785568237e-02 -3.666678071022033691e-02 1.037085196003317833e-03 -8.829955011606216431e-02 9.876380860805511475e-02 -5.006743595004081726e-02 9.902986139059066772e-02 5.258902162313461304e-02 -3.764858236536383629e-03 9.117342531681060791e-03 4.171637818217277527e-02
4.843425005674362183e-03 -9.297869168221950531e-03 2.405652310699224472e-03 9.875630028545856476e-03 2.927533537149429321e-02 -8.689313381910324097e-02 -1.861458458006381989e-02 -2.754906378686428070e-02 2.527407184243202209e-02 3.746782615780830383e-02 -8.643185137771070004e-04 1.610576920211315155e-02 3.037269227206707001e-02 -8.027577772736549377e-03 -7.084147538989782333e-03 1.914898678660392761e-02 -1.877905800938606262e-02 -1.340209273621439934e-03 -5.337531492114067078e-02 -1.095670275390148163e-02 -1.325862854719161987e-02 3.558427467942237854e-02 -1.546760369092226028e-02 -2.600743621587753296e-02 -2.560891769826412201e-02 9.520568698644638062e-02 -4.033257439732551575e-02 5.385056883096694946e-02 5.715544149279594421e-02 -3.758363192901015282e-03 5.955793312750756741e-04 3.674918040633201599e-02
-2.673527784645557404e-02 -1.353334169834852219e-03 4.345573484897613525e-02 -2.314405282959342003e-03 6.764072924852371216e-03 -1.435768604278564453e-02 -1.918694004416465759e-03 1.129021309316158295e-02 -3.348605334758758545e-02 1.341954711824655533e-02 -3.679285198450088501e-02 1.561126206070184708e-02 -3.502627462148666382e-02 3.276175120845437050e-03 -2.591745741665363312e-02 2.185304416343569756e-03 -3.031084127724170685e-02 6.350364070385694504e-03 3.560633957386016846e-02 8.344378322362899780e-03 8.158021606504917145e-03 -3.327949345111846924e-02 -3.919284790754318237e-02 3.563620150089263916e-02 -7.008288986980915070e-03 3.196889907121658325e-02 1.454400550574064255e-02 6.002651154994964600e-02 2.292492426931858063e-02 -1.788825355470180511e-02 1.164157409220933914e-02 1.015383377671241760e-02
-9.711594320833683014e-03 -8.190806023776531219e-03 4.072750732302665710e-02 -1.123625505715608597e-02 5.656314268708229065e-02 -3.761947154998779297e-02 -1.288177911192178726e-02 1.375548425130546093e-03 -3.293053060770034790e-02 1.241198647767305374e-02 -3.146229311823844910e-02 1.668114960193634033e-02 -3.711273893713951111e-02 1.155760372057557106e-03 -1.434208825230598450e-02 2.323664724826812744e-02 -5.857212096452713013e-02 -2.312534488737583160e-02 1.971374638378620148e-02 -1.167846750468015671e-02 1.206397917121648788e-02 -3.357228264212608337e-02 -5.447873473167419434e-02 4.410757869482040405e-02 -5.093163624405860901e-02 3.589789941906929016e-02 1.313748396933078766e-02 7.724057137966156006e-02 3.151398524641990662e-02 -6.742102559655904770e-03 8.975409902632236481e-03 3.568496927618980408e-02
1.019439939409494400e-02 -2.029174938797950745e-02 2.122944779694080353e-02 -9.403392672538757324e-03 8.007713407278060913e-02 -6.588867306709289551e-02 -2.518859505653381348e-02 -1.371349301189184189e-02 2.604969195090234280e-04 3.421663865447044373e-02 -2.355019561946392059e-02 1.540907379239797592e-02 -3.254579380154609680e-02 -9.245425462722778320e-03 1.224279985763132572e-04 4.934516549110412598e-02 -4.958793893456459045e-02 -1.658251322805881500e-02 -3.981504589319229126e-03 -1.078587118536233902e-02 1.502514723688364029e-02 -1.510399673134088516e-02 -5.834751948714256287e-02 2.738909609615802765e-02 -8.479170501232147217e-02 4.569295793771743774e-02 -1.082990132272243500e-02 7.351569831371307373e-02 4.563397914171218872e-02 -2.846980700269341469e-03 1.651545986533164978e-02 5.426600575447082520e-02
2.200284600257873535e-02 -1.438118238002061844e-02 -2.128937281668186188e-03 -6.107609719038009644e-03 6.512247025966644287e-02 -8.110097050666809082e-02 -3.183160722255706787e-02 -2.298185043036937714e-02 3.154485300183296204e-02 4.037664085626602173e-02 -1.010106876492500305e-03 5.054992623627185822e-03 2.710626693442463875e-03 -1.468932442367076874e-02 -1.606774632818996906e-03 7.055190205574035645e-02 -3.720571100711822510e-02 -7.560204714536666870e-03 -3.049597889184951782e-02 -1.877935975790023804e-02 4.943298175930976868e-03 -2.890820382162928581e-03 -4.734230414032936096e-02 -5.380242146202363074e-05 -6.444060057401657104e-02 5.593471974134445190e-02 -2.610505931079387665e-02 4.480552673339843750e-02 5.401959270238876343e-02 -1.734398771077394485e-03 5.857162643224000931e-03 5.176863074302673340e-02
8.777213282883167267e-03 5.047950893640518188e-03 -1.384497061371803284e-02 3.153234254568815231e-03 2.312907576560974121e-02 -7.825443148612976074e-02 -3.016143850982189178e-02 -2.974494919180870056e-02 3.661307692527770996e-02 3.026312589645385742e-02 1.373931486159563065e-02 3.376620355993509293e-03 2.238118276000022888e-02 -1.409079320728778839e-02 -5.970329511910676956e-03 6.301520019769668579e-02 -2.638038992881774902e-02 6.884505506604909897e-03 -2.540620602667331696e-02 -1.007653772830963135e-02 -1.624123193323612213e-02 8.414668962359428406e-03 -2.399354428052902222e-02 -1.809556968510150909e-02 -2.073753066360950470e-02 5.966603010892868042e-02 -1.982928067445755005e-02 2.184933051466941833e-02 4.359542950987815857e-02 1.017361506819725037e-02 4.414093564264476299e-04 3.229556232690811157e-02
-5.768885090947151184e-02 2.446913160383701324e-02 -3.326003998517990112e-02 3.530412912368774414e-02 -4.636355116963386536e-02 -5.162907391786575317e-02 2.817343175411224365e-02 -5.608044937252998352e-02 3.399255871772766113e-02 1.294851116836071014e-02 7.552966475486755371e-02 2.384586445987224579e-02 -6.149283610284328461e-03 -3.745778696611523628e-03 5.043659731745719910e-02 -8.718122728168964386e-03 -2.295042760670185089e-02 -3.951956331729888916e-02 4.181467369198799133e-02 -6.621902575716376305e-04 1.740079745650291443e-02 -2.359705790877342224e-02 -1.778876222670078278e-02 -3.265780955553054810e-02 5.587542057037353516e-02 -1.362739596515893936e-02 8.031894452869892120e-03 -7.069245725870132446e-02 1.004399359226226807e-02 -9.037668816745281219e-03 -1.817073556594550610e-03 -7.744992524385452271e-02
-2.263601310551166534e-02 1.883398741483688354e-02 -5.788018554449081421e-02 2.748038992285728455e-02 -1.187887322157621384e-02 -4.728581011295318604e-02 5.388213321566581726e-02 -5.958875641226768494e-02 1.798860356211662292e-02 3.526617214083671570e-02 9.287910908460617065e-02 1.611337810754776001e-02 2.412165328860282898e-02 -8.497139438986778259e-03 7.083407044410705566e-02 3.235083073377609253e-02 -5.098741874098777771e-02 -1.823193579912185669e-02 -6.961986422538757324e-03 -3.263576328754425049e-02 1.201886497437953949e-02 -1.015953440219163895e-02 -3.094827383756637573e-02 -2.300346083939075470e-02 7.715482264757156372e-02 5.368157755583524704e-03 5.194786936044692993e-02 -9.002380073070526123e-02 -2.980619110167026520e-02 -1.256817579269409180e-02 1.547663938254117966e-02 -7.445090264081954956e-02
1.900208927690982819e-02 -3.512780647724866867e-03 -6.080260127782821655e-02 1.905182190239429474e-02 7.983170449733734131e-03 -7.345159072428941727e-03 4.256287589669227600e-02 -5.342694744467735291e-02 6.787591148167848587e-03 3.229400143027305603e-02 7.961348444223403931e-02 2.062659896910190582e-02 4.371717572212219238e-02 -2.634586021304130554e-02 7.294756174087524414e-02 5.980408564209938049e-02 -4.965316131711006165e-02 1.493335887789726257e-02 -3.746386617422103882e-02 -3.203782066702842712e-02 3.724846243858337402e-02 8.261944167315959930e-03 -4.035005718469619751e-02 -2.298961021006107330e-02 6.946225464344024658e-02 2.445425838232040405e-02 6.476932018995285034e-02 -9.140454977750778198e-02 -8.449254930019378662e-02 -2.808793075382709503e-02 2.458204515278339386e-02 -4.449843987822532654e-02
1.547188777476549149e-02 -2.311737649142742157e-02 -7.249264419078826904e-02 9.413816034793853760e-03 2.028108760714530945e-02 -1.103958231396973133e-03 5.446387827396392822e-02 -3.642035275697708130e-02 -1.533321291208267212e-02 3.694038372486829758e-03 7.844667881727218628e-02 7.544064894318580627e-03 4.167149588465690613e-02 -2.994068898260593414e-02 4.226576164364814758e-02 3.749462217092514038e-02 -3.337350860238075256e-02 3.036967851221561432e-02 -1.694435440003871918e-02 -2.544558793306350708e-02 6.158342584967613220e-02 1.940495334565639496e-02 -1.903972402215003967e-02 -6.872939877212047577e-03 4.975455999374389648e-02 2.291643992066383362e-03 3.436022624373435974e-02 -7.505030930042266846e-02 -1.089796125888824463e-01 -1.987491734325885773e-02 1.066253054887056351e-02 -2.491693757474422455e-02
6.823459989391267300e-04 -5.020796880125999451e-02 -6.316594034433364868e-02 1.105441898107528687e-02 4.994409624487161636e-03 2.808165922760963440e-02 2.621019259095191956e-02 -3.449219837784767151e-02 -1.725758798420429230e-02 -7.916977629065513611e-03 5.264826864004135132e-02 -3.625315148383378983e-03 3.037002123892307281e-02 -1.766086928546428680e-02 8.382671512663364410e-03 5.430442979559302330e-04 -3.636285662651062012e-02 2.711469307541847229e-02 1.032381132245063782e-02 -5.733371363021433353e-04 8.183804899454116821e-02 1.306888926774263382e-02 -5.572075489908456802e-03 -8.089367300271987915e-03 1.521623600274324417e-02 -1.557786297053098679e-02 9.449891746044158936e-03 -2.372018247842788696e-02 -8.760356158018112183e-02 -4.924038425087928772e-03 -5.705853924155235291e-03 -1.283617131412029266e-02
-6.881028413772583008e-02 9.288493543863296509e-03 7.901576347649097443e-03 -4.826147109270095825e-03 -3.040000982582569122e-02 -7.212125509977340698e-02 2.484926767647266388e-02 -4.295501485466957092e-02 3.098557144403457642e-02 -1.499726530164480209e-02 8.033999055624008179e-02 -7.133820094168186188e-03 8.975326083600521088e-03 1.361493207514286041e-02 3.455004096031188965e-02 1.383590046316385269e-02 -2.874088473618030548e-02 -4.923921823501586914e-02 5.918551236391067505e-02 2.187250554561614990e-02 2.648580260574817657e-02 -4.359004274010658264e-02 -1.900086738169193268e-02 -5.512923747301101685e-02 4.921164363622665405e-02 -1.377722620964050293e-02 2.294228039681911469e-02 -1.084601655602455139e-01 2.823011018335819244e-02 1.265201834030449390e-03 1.599273527972400188e-03 -9.562069922685623169e-02
-4.407820478081703186e-02 2.250866731628775597e-03 -2.244420908391475677e-02 -2.885848656296730042e-02 1.700978912413120270e-02 -5.063928291201591492e-02 6.186780706048011780e-02 -7.213399559259414673e-02 3.227786719799041748e-02 1.560476794838905334e-02 1.016052663326263428e-01 -1.310676243156194687e-02 1.194349024444818497e-02 -6.265849224291741848e-04 5.810355395078659058e-02 4.830507561564445496e-02 -5.372831970453262329e-02 -2.444744668900966644e-02 3.492204472422599792e-03 -1.141966693103313446e-02 4.679420962929725647e-03 -2.701052278280258179e-02 -1.680782064795494080e-02 -3.186734020709991455e-02 7.773628830909729004e-02 6.448134779930114746e-03 5.404368415474891663e-02 -1.403518766164779663e-01 9.049348533153533936e-03 -3.113430924713611603e-03 2.516162954270839691e-02 -9.065865725278854370e-02
2.303072437644004822e-02 -2.176501601934432983e-02 -4.058758541941642761e-02 -2.867604419589042664e-02 5.425001308321952820e-02 2.240158850327134132e-03 5.724710226058959961e-02 -7.642081379890441895e-02 2.143505960702896118e-02 3.279920294880867004e-02 1.036102771759033203e-01 2.568732248619198799e-03 3.360402956604957581e-02 -3.384251520037651062e-02 5.828808993101119995e-02 7.623822242021560669e-02 -5.192922800779342651e-02 1.583234220743179321e-02 -5.360331386327743530e-02 -1.558107975870370865e-02 6.064979359507560730e-03 -3.353904001414775848e-03 -3.237748891115188599e-02 -1.903999596834182739e-03 6.896878778934478760e-02 3.970903903245925903e-02 4.804290086030960083e-02 -1.236925199627876282e-01 -4.725629091262817383e-02 -1.273341197520494461e-02 3.974572196602821350e-02 -3.789678215980529785e-02
4.592177271842956543e-02 -3.022270649671554565e-02 -5.399406701326370239e-02 -7.937812246382236481e-03 4.389004781842231750e-02 3.911070525646209717e-02 4.984235018491744995e-02 -5.217200517654418945e-02 7.023843005299568176e-03 1.117117330431938171e-02 9.577467292547225952e-02 -4.821278154850006104e-03 2.872183173894882202e-02 -4.685797914862632751e-02 2.791960351169109344e-02 3.793688490986824036e-02 -5.658923462033271790e-02 2.453097514808177948e-02 -6.198703125119209290e-02 -1.336315367370843887e-02 2.440281584858894348e-02 1.909396052360534668e-02 -2.761518396437168121e-02 1.712517440319061279e-02 4.209139570593833923e-02 2.839268930256366730e-02 1.999826356768608093e-02 -8.177550137042999268e-02 -8.283812552690505981e-02 -9.191161952912807465e-03 1.998268812894821167e-02 -8.420691825449466705e-03
3.191772103309631348e-02 -4.127872735261917114e-02 -4.953570663928985596e-02 2.580546401441097260e-02 1.634051464498043060e-02 6.618738174438476562e-02 2.729561924934387207e-02 -3.097763285040855408e-02 5.551222246140241623e-03 -1.040920708328485489e-02 6.946803629398345947e-02 -1.936677657067775726e-02 8.806432015262544155e-04 -4.564730077981948853e-02 -2.323958324268460274e-03 -9.277321398258209229e-03 -6.301664561033248901e-02 1.603596657514572144e-02 -1.805621944367885590e-02 -1.355216256342828274e-03 5.013459175825119019e-02 1.776158250868320465e-02 -1.020556502044200897e-02 2.575092017650604248e-02 4.130304791033267975e-03 7.545472122728824615e-03 7.396914064884185791e-03 -1.566194556653499603e-02 -1.020935103297233582e-01 1.898472383618354797e-02 -1.066301949322223663e-02 2.151247672736644745e-02
-2.064432203769683838e-02 1.223134715110063553e-02 8.190520852804183960e-02 -1.703478954732418060e-02 -6.903517059981822968e-03 -7.730515301227569580e-02 1.773715391755104065e-02 -2.463991940021514893e-02 3.081742674112319946e-02 -7.345214486122131348e-03 6.715807318687438965e-02 -4.199186339974403381e-02 -5.331029649823904037e-03 4.402122274041175842e-02 -4.242858290672302246e-02 2.603515051305294037e-02 -3.841162892058491707e-03 -3.528484702110290527e-02 4.564258456230163574e-02 3.534252196550369263e-02 1.616204343736171722e-02 -3.327741473913192749e-02 5.020095501095056534e-03 -5.575488880276679993e-02 -2.902803383767604828e-02 -7.934864610433578491e-03 -1.967178471386432648e-02 -7.966247200965881348e-02 4.150321707129478455e-02 1.542492391308769584e-04 -1.484130881726741791e-02 -4.780934378504753113e-02
-3.872428834438323975e-02 -2.840572595596313477e-02 5.958476662635803223e-02 -3.920264914631843567e-02 4.435920342803001404e-02 -6.283017247915267944e-02 6.113079562783241272e-02 -4.909098148345947266e-02 3.552050516009330750e-02 7.211010437458753586e-03 8.579878509044647217e-02 -4.355999827384948730e-02 -7.883383892476558685e-03 3.587201237678527832e-02 -4.919761791825294495e-03 6.570629775524139404e-02 -4.314389824867248535e-02 -1.849120110273361206e-02 1.116412412375211716e-02 1.375350076705217361e-02 1.311119529418647289e-03 -2.112167514860630035e-02 1.004704972729086876e-03 -3.361627832055091858e-02 -1.236511301249265671e-02 9.247580543160438538e-03 9.487489238381385803e-03 -1.151366010308265686e-01 5.641772970557212830e-02 -4.831173573620617390e-04 1.468741986900568008e-02 -7.691419869661331177e-02
-1.964459568262100220e-02 -5.601252242922782898e-02 3.726391866803169250e-02 -4.821933805942535400e-02 7.229813933372497559e-02 -8.852714672684669495e-03 6.611895561218261719e-02 -6.029110401868820190e-02 2.653985284268856049e-02 3.358986228704452515e-02 8.071944117546081543e-02 -3.363641351461410522e-02 2.304790355265140533e-02 1.994875026866793633e-03 1.797414757311344147e-02 8.450633287429809570e-02 -4.189990833401679993e-02 5.284503102302551270e-03 -3.527248650789260864e-02 -2.948421984910964966e-03 -1.263250783085823059e-02 -7.561723759863525629e-05 -1.323072798550128937e-02 6.415001582354307175e-03 -3.419915214180946350e-03 4.425352439284324646e-02 4.481450188905000687e-03 -9.941159188747406006e-02 9.194132871925830841e-03 -1.257659401744604111e-02 2.976990304887294769e-02 -3.726473078131675720e-02
1.147895492613315582e-02 -6.756474077701568604e-02 2.227158099412918091e-02 -2.293876558542251587e-02 6.268724799156188965e-02 5.560132861137390137e-02 5.217054858803749084e-02 -4.683464765548706055e-02 2.419549413025379181e-02 1.768531091511249542e-02 8.382342755794525146e-02 -2.569364942610263824e-02 1.345822215080261230e-02 -3.026228025555610657e-02 2.618010342121124268e-02 6.134660914540290833e-02 -5.824024975299835205e-02 1.539591612527146935e-04 -5.446817353367805481e-02 -1.212775800377130508e-02 -2.794871339574456215e-03 4.081660136580467224e-02 -2.344796806573867798e-02 2.274245768785476685e-02 -6.318855099380016327e-03 5.188003927469253540e-02 -2.166381105780601501e-02 -5.445537343621253967e-02 -5.343202501535415649e-02 -7.400780916213989258e-03 1.211499981582164764e-02 -2.532944548875093460e-03
2.322422899305820465e-02 -4.133477061986923218e-02 -1.886809128336608410e-03 1.620181463658809662e-02 1.967663131654262543e-02 1.102882474660873413e-01 2.711554989218711853e-02 -3.075742907822132111e-02 1.813344098627567291e-02 1.196453720331192017e-02 5.265147611498832703e-02 -4.063148424029350281e-02 -6.773414555937051773e-03 -3.640607744455337524e-02 3.183519933372735977e-03 2.002478577196598053e-02 -5.318641662597656250e-02 -4.112930037081241608e-03 -1.687191613018512726e-02 -1.832813955843448639e-02 1.476792339235544205e-02 3.723452612757682800e-02 -1.229025423526763916e-02 2.723877504467964172e-02 -3.790760785341262817e-02 4.068908840417861938e-02 -1.798345148563385010e-02 3.127855248749256134e-03 -7.826930284500122070e-02 8.600877597928047180e-03 -1.295947190374135971e-02 1.870393380522727966e-02
1.383277773857116699e-02 -2.042431198060512543e-02 8.005327731370925903e-02 -2.318693697452545166e-02 5.854422692209482193e-03 -7.907501608133316040e-02 2.856758609414100647e-02 -2.615047153085470200e-03 1.426141988486051559e-02 -6.311462260782718658e-03 2.791434153914451599e-02 -3.716610372066497803e-02 -4.982982762157917023e-03 2.834558859467506409e-02 -2.584449015557765961e-02 5.407304037362337112e-03 8.086840622127056122e-03 -1.028807274997234344e-02 -1.273866044357419014e-03 2.433627657592296600e-02 2.756495773792266846e-02 -1.490686368197202682e-02 5.790756270289421082e-02 -4.279174283146858215e-02 -3.045075386762619019e-02 3.417879575863480568e-03 -1.700219884514808655e-02 -2.979414351284503937e-02 3.803855925798416138e-02 -7.967240177094936371e-03 -7.164681795984506607e-03 1.168748363852500916e-02
-2.567987702786922455e-02 -7.636758685111999512e-02 8.500136435031890869e-02 -4.151391610503196716e-02 5.148852616548538208e-02 -8.702740818262100220e-02 5.891259387135505676e-02 -1.389986183494329453e-02 3.034674748778343201e-02 3.561750054359436035e-04 2.275332063436508179e-02 -2.061720378696918488e-02 2.264656126499176025e-03 4.205397516489028931e-02 -9.724896401166915894e-03 1.219662465155124664e-02 -1.932287961244583130e-02 -6.846560281701385975e-04 -4.674039315432310104e-03 9.018340148031711578e-03 1.805737800896167755e-02 -7.035537273623049259e-04 5.891439318656921387e-02 -1.746405847370624542e-02 -4.202750697731971741e-02 3.634346066974103451e-04 1.247282233089208603e-02 -4.254247620701789856e-02 5.846349522471427917e-02 -7.703248411417007446e-03 2.189328148961067200e-02 -1.230123825371265411e-02
-3.524515032768249512e-02 -1.122381463646888733e-01 8.227391541004180908e-02 -4.180308058857917786e-02 7.422925531864166260e-02 -4.547416418790817261e-02 7.275239378213882446e-02 -1.992735266685485840e-02 3.014112636446952820e-02 2.248605899512767792e-02 1.658348739147186279e-02 -1.591284945607185364e-02 3.332568565383553505e-03 2.174767851829528809e-02 1.258668117225170135e-02 2.287042513489723206e-02 -2.418534085154533386e-02 6.704850587993860245e-03 -2.331375144422054291e-02 1.034472230821847916e-02 4.106394480913877487e-04 1.637623645365238190e-02 2.578947506844997406e-02 2.157835848629474640e-02 -3.607043996453285217e-02 1.354734413325786591e-02 2.391133271157741547e-02 -2.655350789427757263e-02 3.548588231205940247e-02 -1.496510766446590424e-02 3.601690381765365601e-02 9.844793006777763367e-03
-2.846061624586582184e-02 -1.013002991676330566e-01 6.410688161849975586e-02 -1.450437214225530624e-02 6.229624152183532715e-02 -7.055168040096759796e-03 5.781399831175804138e-02 -2.789816260337829590e-02 2.194741182029247284e-02 9.487295523285865784e-03 2.061832882463932037e-02 -1.441521290689706802e-02 -1.325370091944932938e-02 1.124819507822394371e-03 2.238172665238380432e-02 -1.518476055935025215e-03 -2.663050033152103424e-02 -1.069337688386440277e-02 -3.160111978650093079e-02 -2.180847339332103729e-03 -2.342252759262919426e-03 2.501200512051582336e-02 -5.609521176666021347e-03 2.561965398490428925e-02 -1.678868383169174194e-02 2.451572939753532410e-02 6.760016083717346191e-03 6.410743575543165207e-03 -1.200115121901035309e-02 -1.697371155023574829e-02 2.697512693703174591e-02 1.102372538298368454e-02
-1.570555754005908966e-02 -4.429500177502632141e-02 3.041759692132472992e-02 1.188777294009923935e-02 2.201076038181781769e-02 5.019333586096763611e-02 3.216172009706497192e-02 -2.007306739687919617e-02 1.651555299758911133e-02 -2.122883452102541924e-03 3.102949820458889008e-02 -1.935565844178199768e-02 -1.237072143703699112e-02 -9.343592450022697449e-03 2.572490833699703217e-03 -1.045093685388565063e-02 -1.854095421731472015e-02 -1.577342487871646881e-02 -9.177536703646183014e-03 -1.152376551181077957e-02 1.564113236963748932e-02 7.103859912604093552e-03 -4.483174998313188553e-03 5.028492305427789688e-03 -2.621749043464660645e-02 4.117367044091224670e-02 -1.610605232417583466e-02 3.308925032615661621e-02 -3.385753184556961060e-02 -1.089275628328323364e-02 2.141923177987337112e-03 1.782039180397987366e-02
5.530440434813499451e-02 -4.117192327976226807e-02 3.154820576310157776e-02 -6.730773020535707474e-04 -5.694876890629529953e-03 -8.707392215728759766e-02 2.577610500156879425e-02 8.215549401938915253e-03 1.015473995357751846e-02 -2.889900468289852142e-03 -2.675441280007362366e-02 -2.983821742236614227e-02 -1.537481322884559631e-02 -1.696200482547283173e-02 -7.367951795458793640e-03 3.274307772517204285e-02 -3.919740673154592514e-03 -1.263537257909774780e-02 -1.117004361003637314e-02 8.679863996803760529e-03 2.203880250453948975e-02 -1.821309328079223633e-02 4.036078602075576782e-02 -2.934397011995315552e-02 2.663206122815608978e-02 -2.004065923392772675e-02 -2.887308131903409958e-03 3.249370679259300232e-02 1.347089745104312897e-02 -2.242130140075460076e-04 1.268869731575250626e-02 3.654044866561889648e-02
1.509713567793369293e-02 -6.936170160770416260e-02 4.568199068307876587e-02 -9.039708413183689117e-03 3.217517957091331482e-02 -1.041885167360305786e-01 3.843811899423599243e-02 -6.992687005549669266e-03 3.326098248362541199e-02 -1.162848551757633686e-03 -1.619819179177284241e-02 7.723502349108457565e-03 4.122159443795681000e-03 1.140186470001935959e-02 1.034532859921455383e-02 3.605892881751060486e-02 -2.276721969246864319e-02 -5.503450520336627960e-03 2.010798780247569084e-03 5.509033333510160446e-03 1.697908155620098114e-02 -3.569706808775663376e-03 3.313563019037246704e-02 -1.162346918135881424e-02 -3.090825630351901054e-03 -8.529989980161190033e-03 6.862287875264883041e-03 2.671928144991397858e-02 1.894741691648960114e-02 -7.015318144112825394e-03 2.456128597259521484e-02 4.466352239251136780e-02
-1.292160153388977051e-02 -8.829771727323532104e-02 5.076612159609794617e-02 -1.009555906057357788e-02 4.499695822596549988e-02 -9.825656563043594360e-02 4.469916224479675293e-02 -8.115905337035655975e-03 4.272371530532836914e-02 2.183041162788867950e-02 -1.583601161837577820e-02 8.679862134158611298e-03 1.097499206662178040e-02 1.340232323855161667e-02 2.769286744296550751e-02 1.339379604905843735e-02 -1.963233202695846558e-02 4.913229029625654221e-03 4.094875475857406855e-04 7.098789792507886887e-03 8.502597920596599579e-03 1.461621955968439579e-03 7.917579263448715210e-03 5.525470245629549026e-03 -2.708230726420879364e-02 -2.744830586016178131e-02 3.648587688803672791e-02 3.300147876143455505e-02 3.162957727909088135e-02 -1.279851980507373810e-02 3.522071242332458496e-02 4.023648798465728760e-02
-1.571244187653064728e-02 -7.008795440196990967e-02 5.189866200089454651e-02 -1.699834689497947693e-02 3.379682824015617371e-02 -7.902132719755172729e-02 2.399657294154167175e-02 -1.035242434591054916e-02 3.054821491241455078e-02 5.945364013314247131e-03 -3.458867548033595085e-03 1.041427138261497021e-03 7.543874671682715416e-04 -2.791579812765121460e-03 3.523876518011093140e-02 3.644397715106606483e-03 -1.842738687992095947e-02 -4.294079728424549103e-03 -1.976209878921508789e-02 1.190824620425701141e-02 1.506540272384881973e-02 1.965089701116085052e-02 -1.399253122508525848e-02 -9.335312992334365845e-03 -7.104038260877132416e-03 -2.740396000444889069e-02 3.041876479983329773e-02 4.208923131227493286e-02 1.856886036694049835e-02 -1.203388534486293793e-02 2.940501645207405090e-02 3.238939121365547180e-02
-2.710626274347305298e-02 -2.641524001955986023e-02 2.357840165495872498e-02 -8.531929925084114075e-03 6.293351761996746063e-03 -2.968521788716316223e-02 1.901305839419364929e-02 -1.260747015476226807e-02 2.480174414813518524e-02 -1.830495521426200867e-02 1.428917236626148224e-02 4.285843111574649811e-03 -8.653644181322306395e-05 -2.384648844599723816e-02 1.431131921708583832e-02 1.790957641787827015e-03 -1.707099936902523041e-02 -1.792790368199348450e-03 -7.382030133157968521e-03 1.207349915057420731e-02 2.636551484465599060e-02 -5.252893082797527313e-03 -1.131273061037063599e-02 -3.699498996138572693e-02 1.230530720204114914e-02 -2.999345073476433754e-03 -9.373961947858333588e-03 4.434302821755409241e-02 2.255830913782119751e-02 -1.242626272141933441e-02 1.577039621770381927e-02 2.771924249827861786e-02
2.808306366205215454e-02 3.458346426486968994e-02 -2.234642207622528076e-02 -1.065749675035476685e-03 -2.990232780575752258e-02 -1.306703221052885056e-02 -1.284509338438510895e-02 -8.908064104616641998e-03 -3.198986407369375229e-03 -4.367280751466751099e-03 -1.141409948468208313e-02 3.888844698667526245e-02 4.591312725096940994e-03 -2.836379222571849823e-02 4.348414391279220581e-02 2.104758098721504211e-02 -2.693313173949718475e-02 1.151857804507017136e-02 5.526917427778244019e-02 -4.162594676017761230e-02 -4.970552399754524231e-02 7.450526952743530273e-02 -1.237720157951116562e-02 2.105557732284069061e-02 4.537559580057859421e-03 2.153229154646396637e-02 -2.457448653876781464e-02 4.410925786942243576e-03 -5.888347048312425613e-03 -2.705796249210834503e-02 1.112699392251670361e-04 -1.875249668955802917e-02
4.019187763333320618e-03 3.462732583284378052e-02 -2.237507328391075134e-02 -1.029250584542751312e-02 -2.405266277492046356e-02 -4.405717365443706512e-03 -5.860137753188610077e-03 -8.450031280517578125e-03 1.974744955077767372e-03 6.048508919775485992e-03 -5.397777538746595383e-03 3.691665083169937134e-02 4.631934687495231628e-03 -1.768422313034534454e-02 3.574006259441375732e-02 1.773483678698539734e-02 -1.821634918451309204e-02 -5.680582486093044281e-03 3.345089778304100037e-02 -2.472506090998649597e-02 -6.246743723750114441e-02 6.673472933471202850e-03 -3.130700439214706421e-02 5.180854350328445435e-02 1.410818006843328476e-02 7.443309761583805084e-03 -3.268915414810180664e-02 1.961880922317504883e-02 -4.695363342761993408e-03 -1.681288704276084900e-02 1.169656030833721161e-02 -3.036963986232876778e-03
-1.771547272801399231e-02 2.376135997474193573e-02 -2.303072065114974976e-02 -2.499518543481826782e-02 -9.847897104918956757e-03 1.220946386456489563e-02 8.659537881612777710e-03 -6.241616792976856232e-03 -9.840734855970367789e-05 9.094800800085067749e-03 6.430032197386026382e-03 1.194199267774820328e-02 -3.309926483780145645e-03 -4.616527352482080460e-03 1.346263568848371506e-02 1.202680170536041260e-02 -1.206811796873807907e-02 -2.655447460711002350e-03 -1.118094753473997116e-02 -4.264358896762132645e-03 -5.815466493368148804e-02 -4.649407789111137390e-02 -4.406668990850448608e-02 5.514488369226455688e-02 2.043672464787960052e-02 -8.477626251988112926e-04 -8.794479072093963623e-03 2.144487760961055756e-02 5.248526111245155334e-03 3.007289022207260132e-03 1.813610270619392395e-02 1.144468039274215698e-02
-2.630907483398914337e-02 -4.253629595041275024e-03 -2.632094547152519226e-02 -4.620489105582237244e-02 -5.165151087567210197e-04 -9.556933306157588959e-03 6.700648460537195206e-03 -1.579190231859683990e-02 7.251625414937734604e-03 2.239488624036312103e-02 1.010337844491004944e-02 -1.505398936569690704e-02 -1.464137900620698929e-02 -1.476378552615642548e-02 -1.084149931557476521e-03 8.689901791512966156e-03 -1.586383022367954254e-02 -5.005712155252695084e-03 -2.388272248208522797e-02 4.591649398207664490e-03 -2.923221513628959656e-02 -6.645914912223815918e-02 -5.383392423391342163e-02 5.569581408053636551e-03 1.605877652764320374e-03 -5.544441286474466324e-03 1.391794811934232712e-02 4.176942631602287292e-03 5.170487798750400543e-03 1.972174644470214844e-02 2.158805727958679199e-02 -7.605389226227998734e-03
-3.326323255896568298e-02 -1.439690962433815002e-02 -1.671474426984786987e-02 -5.768934264779090881e-02 -3.209437010809779167e-03 -3.523097187280654907e-02 -6.362397689372301102e-03 -1.918557658791542053e-02 1.712080463767051697e-02 2.589606866240501404e-02 5.940319504588842392e-03 -2.884220518171787262e-02 -2.365981973707675934e-02 -2.362476475536823273e-02 3.778629761654883623e-04 1.381993666291236877e-02 -6.848986260592937469e-03 5.087192635983228683e-03 -2.241739630699157715e-02 6.381934043020009995e-03 1.868990994989871979e-02 -6.972012668848037720e-02 -7.628735899925231934e-02 -3.423204645514488220e-02 -1.086238399147987366e-02 -3.886271733790636063e-03 8.309637196362018585e-03 -2.319187857210636139e-03 -1.282089296728372574e-02 2.713026665151119232e-02 1.382019370794296265e-02 -4.954317118972539902e-03
1.133252587169408798e-02 1.287002488970756531e-02 -2.056622318923473358e-02 1.404155604541301727e-02 3.330238629132509232e-03 1.761066494509577751e-03 -8.879196830093860626e-04 4.522853996604681015e-03 -1.221167389303445816e-02 -1.598777621984481812e-02 9.805559180676937103e-03 4.791099950671195984e-02 1.693505421280860901e-02 -2.240092121064662933e-02 -2.604027977213263512e-04 1.201198901981115341e-02 -9.691653773188591003e-03 8.245949633419513702e-03 6.723169982433319092e-02 4.629692528396844864e-03 -5.064469575881958008e-02 8.520463854074478149e-02 -6.924874614924192429e-03 1.903209462761878967e-02 -4.591160919517278671e-03 1.732112094759941101e-02 -2.152702584862709045e-02 -2.888990566134452820e-03 -4.805391654372215271e-03 -2.263908274471759796e-02 -1.177920680493116379e-02 -2.330907247960567474e-02
-8.000600151717662811e-03 5.431343335658311844e-03 -2.623141743242740631e-02 1.221735775470733643e-02 9.748348034918308258e-03 1.481053605675697327e-02 -3.749936353415250778e-03 8.180968463420867920e-03 -9.256569668650627136e-03 -1.364942453801631927e-02 5.173450801521539688e-03 5.015751719474792480e-02 2.024813555181026459e-02 -1.299204118549823761e-02 -1.988064125180244446e-02 1.252491772174835205e-02 -7.376920431852340698e-03 -9.518838487565517426e-03 3.566941618919372559e-02 3.099968098104000092e-02 -5.653911456465721130e-02 1.192726101726293564e-02 -1.671214960515499115e-02 3.917360678315162659e-02 4.002355039119720459e-03 -5.700844340026378632e-04 -2.328744344413280487e-02 1.901559904217720032e-02 -2.099191537126898766e-03 -1.395285408943891525e-02 -1.997718820348381996e-03 -1.653302647173404694e-02
-1.832243427634239197e-02 -1.415813690982758999e-03 -2.797296829521656036e-02 2.071474445983767509e-03 1.678378321230411530e-02 3.975657373666763306e-02 7.326868828386068344e-03 9.449764154851436615e-03 -1.563366316258907318e-02 -1.096200384199619293e-02 5.722788162529468536e-03 2.757585979998111725e-02 1.241137739270925522e-02 -2.881124615669250488e-03 -3.615765273571014404e-02 1.204063277691602707e-02 -1.149283442646265030e-02 -5.705028772354125977e-03 -2.567659504711627960e-02 5.334017053246498108e-02 -5.277831852436065674e-02 -6.080323085188865662e-02 -1.762045174837112427e-02 4.096620529890060425e-02 7.866106927394866943e-03 -1.108025759458541870e-02 7.854889845475554466e-04 2.223065868020057678e-02 8.956030360423028469e-04 7.675677072256803513e-03 5.317009985446929932e-03 2.249499520985409617e-04
-1.277376059442758560e-02 -1.525380369275808334e-02 -3.071390651166439056e-02 -1.688534393906593323e-02 1.178081147372722626e-02 1.831580512225627899e-02 1.327485777437686920e-02 -2.989497501403093338e-03 -1.282392907887697220e-02 8.575535379350185394e-03 7.059492054395377636e-04 -4.281533882021903992e-03 2.558365231379866600e-03 -9.494968689978122711e-03 -3.372117877006530762e-02 1.120919268578290939e-02 -1.982786133885383606e-02 -6.119667086750268936e-03 -5.123029276728630066e-02 5.023176223039627075e-02 -2.770463004708290100e-02 -8.225162327289581299e-02 -2.390140481293201447e-02 9.118270827457308769e-04 -4.250046797096729279e-03 -2.727201394736766815e-02 1.868369802832603455e-02 7.667417638003826141e-03 2.183751435950398445e-03 2.289252914488315582e-02 1.150391995906829834e-02 -3.280387027189135551e-03
-1.477933675050735474e-02 -2.103276737034320831e-02 -1.988298818469047546e-02 -3.762763738632202148e-02 -2.046588109806180000e-03 -7.243404164910316467e-03 1.867003855295479298e-03 -1.115278899669647217e-02 -8.433285169303417206e-03 2.050588093698024750e-02 -5.223674234002828598e-03 -2.160193212330341339e-02 -1.044577267020940781e-02 -1.491278316825628281e-02 -2.027333527803421021e-02 1.449383981525897980e-02 -6.925377063453197479e-03 2.459643175825476646e-03 -4.974913597106933594e-02 3.702936694025993347e-02 1.195068378001451492e-02 -8.506067097187042236e-02 -5.046512186527252197e-02 -2.256867662072181702e-02 -1.696737669408321381e-02 -2.869345247745513916e-02 1.744866743683815002e-02 2.375463373027741909e-04 -8.976710960268974304e-03 3.219708427786827087e-02 8.404961787164211273e-03 1.159507781267166138e-02
1.081177871674299240e-02 1.547077856957912445e-02 -2.642061002552509308e-02 2.889326401054859161e-02 3.283267840743064880e-02 -1.341548515483736992e-03 -3.082547802478075027e-03 1.660667732357978821e-02 -1.122070197016000748e-02 -2.607250958681106567e-02 9.412012062966823578e-03 3.007971867918968201e-02 1.764486357569694519e-02 -1.511598005890846252e-02 -2.442668564617633820e-02 9.007493034005165100e-03 7.864004001021385193e-03 2.477367175742983818e-03 8.400843292474746704e-02 4.135727509856224060e-02 -3.858580067753791809e-02 7.222615182399749756e-02 -1.591220498085021973e-02 8.306743577122688293e-03 -1.604279689490795135e-02 1.507605426013469696e-02 -5.711600184440612793e-03 -8.130532689392566681e-03 9.382020682096481323e-03 -4.622062202543020248e-03 -1.635225303471088409e-02 -1.488716341555118561e-02
7.746408809907734394e-04 9.242777712643146515e-03 -2.813051082193851471e-02 3.483373299241065979e-02 3.831868991255760193e-02 1.528440415859222412e-02 -7.429625373333692551e-03 2.322493679821491241e-02 -1.118775643408298492e-02 -2.661572024226188660e-02 -2.686409978196024895e-03 3.878847509622573853e-02 2.054108679294586182e-02 -4.311571363359689713e-03 -4.632510244846343994e-02 1.688636280596256256e-02 5.614778492599725723e-03 -9.973698295652866364e-03 4.326608031988143921e-02 7.424930483102798462e-02 -3.381424024701118469e-02 3.662506351247429848e-03 -1.513663958758115768e-02 1.480596885085105896e-02 -1.469812355935573578e-02 -5.180979496799409389e-04 -9.032664820551872253e-03 1.802439801394939423e-02 5.594295915216207504e-03 -5.851791705936193466e-03 -8.171741850674152374e-03 -1.607842557132244110e-02
-1.238312572240829468e-03 -5.110515048727393150e-04 -3.153747320175170898e-02 3.532122820615768433e-02 3.910108283162117004e-02 4.613583162426948547e-02 1.573225366882979870e-03 2.240522764623165131e-02 -2.219252288341522217e-02 -1.538919284939765930e-02 -5.368321202695369720e-03 2.316880412399768829e-02 1.787713728845119476e-02 4.738806746900081635e-03 -5.497967451810836792e-02 2.235469222068786621e-02 -5.401974543929100037e-03 -1.178057747893035412e-03 -2.531752735376358032e-02 9.675662964582443237e-02 -3.050670213997364044e-02 -5.882018059492111206e-02 -1.223608944565057755e-02 1.060264930129051208e-02 -1.149171497672796249e-02 -1.316973660141229630e-02 1.188427302986383438e-02 2.079714275896549225e-02 3.328036982566118240e-03 5.599144380539655685e-03 -2.038402948528528214e-03 -1.752495183609426022e-03
7.412257138639688492e-03 -1.294347457587718964e-02 -3.826867789030075073e-02 1.429687626659870148e-02 2.218547835946083069e-02 3.475596010684967041e-02 9.894674643874168396e-03 6.581847090274095535e-03 -2.469028905034065247e-02 1.230938546359539032e-02 -2.407445339486002922e-03 -3.501420840620994568e-03 9.976942092180252075e-03 3.680889727547764778e-03 -4.111643135547637939e-02 2.579213120043277740e-02 -1.968617923557758331e-02 1.366290380246937275e-03 -5.606176331639289856e-02 8.725084364414215088e-02 -1.117620430886745453e-02 -6.937912851572036743e-02 -1.690375991165637970e-02 -1.767878979444503784e-02 -1.871536672115325928e-02 -3.100404143333435059e-02 2.655284665524959564e-02 8.458129130303859711e-03 -5.326886312104761600e-04 1.319741830229759216e-02 2.329079870833083987e-04 1.572756678797304630e-03
1.283746398985385895e-02 -1.998818665742874146e-02 -2.132824249565601349e-02 -1.608293130993843079e-02 2.640097634866833687e-03 1.513410266488790512e-02 2.363564213737845421e-03 -8.462298661470413208e-03 -2.771170996129512787e-02 3.249507397413253784e-02 -1.783327432349324226e-03 -1.249727141112089157e-02 -1.477706828154623508e-03 5.705810617655515671e-03 -1.555560063570737839e-02 2.829831093549728394e-02 -1.837675576098263264e-03 3.979980014264583588e-03 -5.812236294150352478e-02 6.497658789157867432e-02 1.637861505150794983e-02 -7.036852091550827026e-02 -4.216011613607406616e-02 -2.645356394350528717e-02 -2.367621473968029022e-02 -3.713392466306686401e-02 2.709546685218811035e-02 6.296308711171150208e-03 -1.536205224692821503e-02 1.579175330698490143e-02 3.635709435911849141e-05 2.518382482230663300e-02
1.140478160232305527e-02 3.205626830458641052e-02 -1.812612451612949371e-02 1.119091734290122986e-02 2.134023234248161316e-02 -3.332773223519325256e-02 -4.840887151658535004e-03 2.407882548868656158e-02 -4.311554599553346634e-03 -3.216233104467391968e-02 9.066970087587833405e-03 6.479176692664623260e-03 2.212586253881454468e-02 -2.150099165737628937e-02 -2.118228562176227570e-02 -5.925421603024005890e-03 1.561108883470296860e-02 -1.126585435122251511e-02 7.962410151958465576e-02 3.048767335712909698e-02 -2.960911020636558533e-02 4.578886553645133972e-02 4.362648469395935535e-04 1.655822433531284332e-02 5.189069081097841263e-03 2.311736345291137695e-02 -4.632759373635053635e-03 -3.397139161825180054e-02 1.845615729689598083e-02 1.539548044092953205e-03 -2.475838549435138702e-02 -1.548710861243307590e-03
8.404697291553020477e-03 2.629882842302322388e-02 -1.100940071046352386e-02 2.806965261697769165e-02 3.197851032018661499e-02 -2.266674116253852844e-02 -3.939095884561538696e-03 3.069755621254444122e-02 -3.979978151619434357e-03 -3.373887017369270325e-02 -1.021915487945079803e-02 1.651017740368843079e-02 2.136401645839214325e-02 -7.329470477998256683e-03 -4.627685621380805969e-02 -2.603096654638648033e-03 1.427839323878288269e-02 -1.059025339782238007e-02 4.319360479712486267e-02 6.730606406927108765e-02 -2.491331845521926880e-02 -7.885445840656757355e-03 2.382036618655547500e-04 1.531851571053266525e-02 4.830849822610616684e-03 1.307148858904838562e-02 -9.872630238533020020e-03 -5.432861857116222382e-03 9.319106116890907288e-03 -1.802375190891325474e-03 -1.635867357254028320e-02 5.716943414881825447e-04
1.308910921216011047e-02 1.688348688185214996e-02 -1.216409355401992798e-02 2.977066487073898315e-02 3.048625960946083069e-02 6.219083908945322037e-03 2.320426981896162033e-03 2.744459547102451324e-02 -9.874152019619941711e-03 -2.371178939938545227e-02 -1.603755541145801544e-02 1.235975231975317001e-02 1.655936241149902344e-02 7.776194252073764801e-03 -5.867363885045051575e-02 2.720724092796444893e-03 5.397150758653879166e-03 6.867530290037393570e-03 -2.032657153904438019e-02 8.875843137502670288e-02 -2.154745534062385559e-02 -5.698190256953239441e-02 2.197415451519191265e-04 1.016574166715145111e-02 8.510854095220565796e-03 3.867009945679455996e-04 1.975439954549074173e-03 7.426840253174304962e-03 6.895009428262710571e-03 2.542839618399739265e-03 -1.091772783547639847e-02 1.592955552041530609e-02
2.348461374640464783e-02 -7.301212754100561142e-04 -1.948866620659828186e-02 7.959946058690547943e-03 1.219331752508878708e-02 3.903626464307308197e-03 7.000514771789312363e-03 8.277133107185363770e-03 -1.935932226479053497e-02 7.634456735104322433e-03 -5.394080188125371933e-03 -2.833669073879718781e-03 7.458102423697710037e-03 1.082735415548086166e-02 -3.958811610937118530e-02 2.224407857283949852e-03 -1.286444626748561859e-02 8.996685035526752472e-03 -4.717643931508064270e-02 8.178751170635223389e-02 -6.756422575563192368e-03 -6.116336956620216370e-02 -1.078770495951175690e-02 -3.953573293983936310e-03 9.001957252621650696e-03 -1.713600941002368927e-02 1.865670457482337952e-02 4.430490080267190933e-03 -1.538898330181837082e-03 5.006878171116113663e-03 -9.270549751818180084e-03 1.634284853935241699e-02
3.220722451806068420e-02 -1.323518715798854828e-02 -4.007247276604175568e-03 -3.322320431470870972e-02 -3.621128853410482407e-03 -4.488094244152307510e-03 8.502349257469177246e-03 -1.200689189136028290e-02 -3.077523596584796906e-02 3.289391845464706421e-02 -1.031509891618043184e-04 -5.723369307816028595e-03 -3.028602804988622665e-04 2.012232691049575806e-02 -3.291042055934667587e-03 1.155305188149213791e-03 1.108096446841955185e-02 1.041926909238100052e-02 -4.765286669135093689e-02 6.358028948307037354e-02 1.096826791763305664e-02 -6.080569326877593994e-02 -3.496470302343368530e-02 -5.112495739012956619e-03 7.372316438704729080e-03 -2.323587797582149506e-02 1.981030218303203583e-02 6.695669610053300858e-03 -1.853961683809757233e-02 2.162738528568297625e-04 -9.442655369639396667e-03 3.753910213708877563e-02
2.386407554149627686e-02 3.501758351922035217e-02 -2.456510812044143677e-02 -2.820926159620285034e-02 -1.054648403078317642e-02 -7.097512483596801758e-02 2.621788065880537033e-03 1.386373676359653473e-02 6.428963039070367813e-03 -1.479003485292196274e-02 1.363363931886851788e-03 -1.448060944676399231e-02 2.262466214597225189e-02 -1.510136667639017105e-02 3.584987483918666840e-03 -2.432782202959060669e-03 2.583050355315208435e-02 -4.919002763926982880e-03 6.297142803668975830e-02 9.779185988008975983e-03 -2.735826186835765839e-02 3.536906838417053223e-02 1.326595339924097061e-02 1.177345402538776398e-02 8.093342185020446777e-03 3.850844129920005798e-02 -2.347658202052116394e-02 -5.032041296362876892e-02 1.383627578616142273e-02 -7.390391547232866287e-03 -4.704699292778968811e-02 -2.469103550538420677e-03
2.388900145888328552e-02 3.036612272262573242e-02 -7.016876712441444397e-03 -6.543932948261499405e-03 -4.029024392366409302e-03 -6.583082675933837891e-02 9.658537805080413818e-03 1.876348815858364105e-02 8.295498788356781006e-03 -9.173310361802577972e-03 -1.943595521152019501e-02 -1.376337930560112000e-02 2.107902988791465759e-02 1.960735302418470383e-03 -1.612241752445697784e-02 -3.717117244377732277e-03 2.010750584304332733e-02 4.677291493862867355e-03 3.814160078763961792e-02 3.830564767122268677e-02 -2.841478399932384491e-02 -1.772027098922990263e-05 6.284592673182487488e-03 -6.517198053188621998e-04 7.274986710399389267e-03 3.585710749030113220e-02 -1.970570348203182220e-02 -2.725852094590663910e-02 -7.192596967797726393e-05 -1.192912366241216660e-02 -3.485051915049552917e-02 -2.015903359279036522e-03
2.747339755296707153e-02 1.617902144789695740e-02 5.069057922810316086e-03 2.088883193209767342e-03 -6.604266818612813950e-03 -3.715498745441436768e-02 1.099801063537597656e-02 1.537730265408754349e-02 5.624718032777309418e-03 7.168126292526721954e-03 -2.862383797764778137e-02 -1.408298686146736145e-02 1.223041489720344543e-02 1.817946322262287140e-02 -2.622928470373153687e-02 -5.334665183909237385e-04 1.495780609548091888e-02 2.153893746435642242e-02 -5.990423262119293213e-03 5.478313937783241272e-02 -2.817386016249656677e-02 -3.956464305520057678e-02 -1.742099062539637089e-03 -1.316132489591836929e-02 1.421262416988611221e-02 2.731749415397644043e-02 -1.305723469704389572e-02 -5.448653362691402435e-03 3.310646396130323410e-03 -1.183872483670711517e-02 -2.283377014100551605e-02 1.399599481374025345e-02
3.328863531351089478e-02 -1.079671736806631088e-02 6.224104203283786774e-03 -1.600411906838417053e-02 -2.044079825282096863e-02 -3.428293392062187195e-02 1.193322334438562393e-02 -1.469246577471494675e-03 -7.355658803135156631e-03 3.294038400053977966e-02 -1.180173829197883606e-02 -2.055607736110687256e-02 5.959784146398305893e-03 2.332910336554050446e-02 -7.433625403791666031e-03 -1.799787278287112713e-03 -3.434689482674002647e-03 2.269637398421764374e-02 -2.639171481132507324e-02 4.997659102082252502e-02 -1.582738384604454041e-02 -4.084052145481109619e-02 -1.312479004263877869e-02 -2.343280985951423645e-02 2.177671529352664948e-02 1.001202315092086792e-02 2.364544896408915520e-03 7.525972905568778515e-04 -1.103271264582872391e-03 -7.941916584968566895e-03 -1.887966692447662354e-02 1.841980032622814178e-02
4.061610251665115356e-02 -2.367090061306953430e-02 2.675698883831501007e-02 -5.861250683665275574e-02 -2.660703659057617188e-02 -3.485023602843284607e-02 1.818164624273777008e-02 -2.123858779668807983e-02 -2.066265977919101715e-02 4.709364473819732666e-02 -1.743348548188805580e-03 -1.856498233973979950e-02 -1.840775948949158192e-03 3.311783447861671448e-02 2.814306505024433136e-02 -3.175305202603340149e-03 1.338735688477754593e-02 2.118181437253952026e-02 -2.546143718063831329e-02 4.306128993630409241e-02 -4.054646939039230347e-03 -3.846950083971023560e-02 -3.165579959750175476e-02 -1.999305188655853271e-02 2.297528460621833801e-02 2.660175552591681480e-03 3.581300145015120506e-03 3.082215087488293648e-03 -1.490997709333896637e-02 -1.160618476569652557e-02 -2.199458517134189606e-02 3.890245407819747925e-02
6.800017505884170532e-02 7.201301865279674530e-03 7.749529089778661728e-03 -2.978841075673699379e-04 -7.336440961807966232e-03 -5.672662705183029175e-02 1.943990774452686310e-02 -1.025290135294198990e-02 -6.843496114015579224e-03 -3.339635580778121948e-02 4.106670618057250977e-02 -3.045158833265304565e-02 -2.460474520921707153e-02 -1.314151007682085037e-02 3.369744122028350830e-02 1.496160030364990234e-02 -7.728784345090389252e-03 3.804409131407737732e-02 2.810638211667537689e-02 -1.631351001560688019e-02 3.354512527585029602e-02 -2.179877134039998055e-03 -2.114413864910602570e-02 1.762738451361656189e-02 -2.307638712227344513e-02 2.892654016613960266e-02 5.408262833952903748e-02 -3.768853843212127686e-02 -4.495234414935112000e-02 -2.261489629745483398e-02 1.863932423293590546e-02 -3.261474147439002991e-02
7.267797738313674927e-02 4.503553360700607300e-02 -2.898929454386234283e-02 2.786696702241897583e-02 -1.563070982228964567e-04 -1.645138859748840332e-02 -4.806973505765199661e-03 -3.297780826687812805e-02 2.183758094906806946e-02 -8.845226839184761047e-03 1.867224089801311493e-02 1.887632533907890320e-02 -3.106695227324962616e-02 -1.428945455700159073e-03 4.651912674307823181e-02 4.211705178022384644e-02 -5.278116837143898010e-02 4.049689695239067078e-02 3.014267794787883759e-02 -2.670592069625854492e-02 1.160012092441320419e-02 -2.425244078040122986e-02 -2.298486605286598206e-02 1.901115663349628448e-02 -3.612730186432600021e-03 1.967911981046199799e-02 5.190759524703025818e-02 1.024563517421483994e-02 -6.808666139841079712e-02 -9.696990251541137695e-03 1.452672202140092850e-02 -3.574738651514053345e-02
2.198593877255916595e-02 7.959865033626556396e-02 -5.919809639453887939e-02 4.316220059990882874e-02 4.490622784942388535e-03 2.960221469402313232e-02 -4.583205282688140869e-02 -4.007020592689514160e-02 3.663924708962440491e-02 -1.638796553015708923e-02 -1.985658891499042511e-02 5.651365220546722412e-02 -5.155070871114730835e-02 -1.486480049788951874e-02 5.292359367012977600e-02 6.144991517066955566e-02 -8.215051889419555664e-02 7.971792668104171753e-02 2.060029283165931702e-02 -3.738858178257942200e-02 -2.339954662602394819e-04 -1.779009029269218445e-02 8.596310392022132874e-03 2.640325948596000671e-02 2.132413443177938461e-03 -1.987746730446815491e-02 2.378113754093647003e-02 3.305307030677795410e-02 -2.937792241573333740e-02 1.375984307378530502e-02 3.901641815900802612e-02 -5.842865258455276489e-02
-1.283467374742031097e-02 7.018785178661346436e-02 -3.786011785268783569e-02 1.658098027110099792e-02 -2.984566800296306610e-02 5.318861454725265503e-02 -3.951949253678321838e-02 -4.889756813645362854e-02 1.703421701677143574e-03 2.209368348121643066e-02 -4.353706911206245422e-02 3.729697316884994507e-02 -4.887310415506362915e-02 5.168442614376544952e-03 3.504610061645507812e-02 6.536257266998291016e-02 -8.975388109683990479e-02 5.106829479336738586e-02 -1.763892546296119690e-02 -5.127892643213272095e-02 -1.076076086610555649e-02 2.392802387475967407e-02 1.586435362696647644e-03 4.166175797581672668e-02 3.705637902021408081e-02 -1.418277621269226074e-03 -9.277035482227802277e-03 2.040149085223674774e-02 -8.128648623824119568e-03 -1.494533848017454147e-03 3.514828905463218689e-02 -8.285627514123916626e-02
-3.289048094302415848e-03 6.103483960032463074e-02 1.779326051473617554e-02 -2.026797272264957428e-02 -5.005957931280136108e-02 4.121721908450126648e-02 -1.987799070775508881e-02 -5.403581634163856506e-02 -1.410980056971311569e-02 2.501590736210346222e-02 -5.790109932422637939e-02 9.262253530323505402e-03 -1.218495890498161316e-02 8.523684926331043243e-03 1.791701652109622955e-02 6.478530913591384888e-02 -1.012411788105964661e-01 1.659227418713271618e-03 -5.353470519185066223e-02 -5.086319521069526672e-02 1.373040210455656052e-02 6.069331616163253784e-02 -3.067529201507568359e-02 4.291229695081710815e-02 2.221856079995632172e-02 -3.172552958130836487e-02 -2.119215391576290131e-02 -2.186151035130023956e-02 1.064021978527307510e-02 -4.070148989558219910e-02 3.196752816438674927e-02 -6.696934998035430908e-02
6.859935820102691650e-02 6.351064145565032959e-02 -1.759770512580871582e-02 -5.026874714531004429e-04 -3.367410600185394287e-02 2.555656246840953827e-02 3.299552947282791138e-02 -1.722435466945171356e-02 -3.926860168576240540e-02 -5.334927514195442200e-02 -2.043629623949527740e-02 -2.945281378924846649e-02 9.977808222174644470e-04 -8.559072390198707581e-03 1.505966950207948685e-02 4.754151217639446259e-03 -6.911166012287139893e-02 6.973187625408172607e-02 5.151284858584403992e-02 -9.518888778984546661e-03 2.896185033023357391e-02 2.307310700416564941e-03 -3.634747816249728203e-03 1.009905990213155746e-02 -3.194471821188926697e-02 2.150053530931472778e-02 8.398336917161941528e-02 3.166223689913749695e-02 -8.348362892866134644e-02 -9.397247806191444397e-03 2.339479885995388031e-02 -1.518482156097888947e-02
6.144244596362113953e-02 1.023555845022201538e-01 -5.577242746949195862e-02 5.705693736672401428e-03 1.604072190821170807e-02 3.324791789054870605e-02 -3.898224234580993652e-02 -3.346502780914306641e-02 8.216415299102663994e-04 -3.572005033493041992e-02 -6.832078844308853149e-02 -6.788103841245174408e-03 -2.281288616359233856e-02 -7.907724939286708832e-03 3.676928207278251648e-02 9.774071164429187775e-03 -1.009285375475883484e-01 6.776853650808334351e-02 6.694124639034271240e-02 -2.904688939452171326e-02 2.192848362028598785e-02 -3.444355679675936699e-03 -1.991174928843975067e-02 1.965232938528060913e-02 -2.527210302650928497e-02 -8.486184291541576385e-03 6.990684568881988525e-02 1.157477125525474548e-01 -7.748802751302719116e-02 3.297611325979232788e-02 1.254490576684474945e-02 -5.477272719144821167e-02
3.912702202796936035e-02 1.197756305336952209e-01 -6.931362301111221313e-02 5.913290078751742840e-04 4.686953872442245483e-02 5.014567449688911438e-02 -8.125673234462738037e-02 -3.439403697848320007e-02 5.298633873462677002e-02 -1.572001352906227112e-02 -8.203741908073425293e-02 -4.775032866746187210e-03 -6.627329438924789429e-02 -2.528947219252586365e-02 4.042284563183784485e-02 7.509767543524503708e-03 -1.220417991280555725e-01 5.858001857995986938e-02 2.834609337151050568e-02 -1.060205139219760895e-02 2.424000576138496399e-02 2.014147175941616297e-04 -7.147281430661678314e-03 3.175123035907745361e-02 1.653620391152799129e-03 -3.392513096332550049e-02 2.651587873697280884e-02 1.432449966669082642e-01 -3.826816752552986145e-02 4.638722166419029236e-02 3.366097435355186462e-02 -8.561740815639495850e-02
5.409159348346292973e-04 1.168097183108329773e-01 -2.541991323232650757e-02 -6.506606470793485641e-03 1.310897059738636017e-02 3.119910135865211487e-02 -4.641402512788772583e-02 -3.012256883084774017e-02 4.324639961123466492e-02 3.789757192134857178e-02 -8.325954526662826538e-02 -1.612238213419914246e-02 -5.729855597019195557e-02 -3.122923523187637329e-02 2.381372079253196716e-02 1.170965656638145447e-02 -1.210076063871383667e-01 1.118372473865747452e-02 -3.590326756238937378e-02 -9.698127396404743195e-03 2.038247138261795044e-02 6.548007484525442123e-03 -9.925925172865390778e-03 4.247131198644638062e-02 4.241694509983062744e-02 -2.099376916885375977e-02 -2.276822738349437714e-02 1.044327765703201294e-01 8.818586502457037568e-05 1.849455013871192932e-02 3.257216885685920715e-02 -9.170620888471603394e-02
-1.768709393218159676e-03 1.273774206638336182e-01 3.994552418589591980e-02 -6.773866713047027588e-03 -2.968536317348480225e-02 -3.705407725647091866e-03 4.297830164432525635e-03 -2.947781980037689209e-02 1.658848300576210022e-02 3.883727639913558960e-02 -6.495455652475357056e-02 -3.531982749700546265e-02 1.510823704302310944e-02 -2.404404431581497192e-02 2.278689667582511902e-02 2.818395756185054779e-02 -1.165796890854835510e-01 -3.364809602499008179e-02 -7.944618910551071167e-02 -1.560717634856700897e-02 4.344216361641883850e-02 2.279221266508102417e-02 -1.343383640050888062e-02 2.756491303443908691e-02 6.320532411336898804e-02 -2.864414639770984650e-02 -4.634433612227439880e-02 2.578387595713138580e-02 2.019842527806758881e-02 -2.242762967944145203e-02 1.621203683316707611e-02 -6.239503622055053711e-02
4.790307208895683289e-02 6.883117556571960449e-02 -1.308328704908490181e-03 -8.043941343203186989e-04 -3.922959044575691223e-02 6.512173265218734741e-02 3.860956057906150818e-03 -3.608022583648562431e-03 -4.224159568548202515e-02 -6.635480374097824097e-02 -5.257781222462654114e-02 -1.881165429949760437e-02 -1.680425740778446198e-02 7.706142496317625046e-03 -2.370976656675338745e-02 -1.407226547598838806e-02 -7.422894984483718872e-02 7.146321237087249756e-02 3.594385460019111633e-02 8.024062030017375946e-03 9.322561323642730713e-03 4.664029926061630249e-02 1.991831883788108826e-02 9.680697694420814514e-03 -6.070245802402496338e-02 3.391443192958831787e-02 7.341069728136062622e-02 8.064817637205123901e-02 -7.318056374788284302e-02 1.045536529272794724e-02 2.326662838459014893e-02 -4.238844383507966995e-03
4.684319347143173218e-02 9.939594566822052002e-02 -2.288890257477760315e-02 -7.758240215480327606e-03 2.539416775107383728e-02 4.186977446079254150e-02 -4.898599907755851746e-02 -1.010308787226676941e-02 3.101463662460446358e-03 -3.715726733207702637e-02 -8.142502605915069580e-02 -5.509014800190925598e-02 -5.968730896711349487e-02 -1.041517686098814011e-02 -1.373309921473264694e-02 -2.208467572927474976e-02 -1.198214590549468994e-01 4.220061376690864563e-02 8.809334784746170044e-02 -1.406251732259988785e-02 5.198272410780191422e-03 2.746553905308246613e-02 1.811547949910163879e-02 1.812070235610008240e-02 -7.083661109209060669e-02 -3.067205194383859634e-03 7.865772396326065063e-02 1.460477411746978760e-01 -6.571435928344726562e-02 5.221441760659217834e-02 1.313053537160158157e-02 -3.538651764392852783e-02
5.176829546689987183e-02 9.686201065778732300e-02 -2.018736302852630615e-02 -6.312835961580276489e-03 5.128204822540283203e-02 2.929826267063617706e-02 -6.474512070417404175e-02 1.083685201592743397e-03 5.777027830481529236e-02 7.066173013299703598e-03 -8.970714360475540161e-02 -7.188703864812850952e-02 -9.073970466852188110e-02 -2.662096172571182251e-02 1.077022030949592590e-02 -1.810809969902038574e-02 -1.261411756277084351e-01 1.243903581053018570e-02 3.598180413246154785e-02 1.990634948015213013e-02 1.813389733433723450e-02 2.077172510325908661e-02 1.192738767713308334e-02 2.778973802924156189e-02 -4.471899569034576416e-02 -5.743321031332015991e-03 3.052122704684734344e-02 1.495550423860549927e-01 -4.164421930909156799e-02 6.108990311622619629e-02 1.943163573741912842e-02 -4.431619495153427124e-02
2.958266623318195343e-02 7.818398624658584595e-02 -9.171133860945701599e-03 -5.765872541815042496e-03 1.251234114170074463e-02 5.105100572109222412e-03 -3.788708150386810303e-02 1.887715421617031097e-03 5.337586626410484314e-02 4.797498509287834167e-02 -6.773167103528976440e-02 -6.934496760368347168e-02 -2.833591960370540619e-02 -3.747739270329475403e-02 1.029472984373569489e-02 -1.019955705851316452e-02 -1.101891025900840759e-01 -3.077751956880092621e-02 -3.991067036986351013e-02 -3.864553757011890411e-03 1.666729710996150970e-02 1.676905713975429535e-02 -3.859465243294835091e-03 2.431133016943931580e-02 -1.396680995821952820e-02 -2.192361466586589813e-02 -2.499202266335487366e-02 9.781518578529357910e-02 8.392490446567535400e-03 4.752259328961372375e-02 8.868704549968242645e-03 -3.520115464925765991e-02
9.193659760057926178e-03 9.412111341953277588e-02 3.376569971442222595e-02 -8.744183927774429321e-03 -3.092735260725021362e-02 -5.709710530936717987e-03 -3.532084170728921890e-03 4.170095082372426987e-03 4.335044696927070618e-02 3.769391775131225586e-02 -3.191827610135078430e-02 -6.391032785177230835e-02 4.049617424607276917e-02 -4.138123989105224609e-02 4.440869018435478210e-02 4.097502306103706360e-02 -8.597820997238159180e-02 -5.098137632012367249e-02 -7.236795872449874878e-02 1.827265441534109414e-05 2.254505455493927002e-02 1.114622410386800766e-02 -5.635559093207120895e-03 1.725131459534168243e-02 5.709805991500616074e-03 -1.985705085098743439e-02 -4.153158515691757202e-02 2.096488140523433685e-02 2.832821011543273926e-02 5.359733849763870239e-02 -1.085756439715623856e-02 -2.637765556573867798e-02
6.165205501019954681e-03 3.177206590771675110e-02 2.469575777649879456e-02 -3.864703932777047157e-03 -4.625732451677322388e-02 1.634361781179904938e-02 -1.108652539551258087e-02 1.119288709014654160e-02 -3.816319629549980164e-02 -4.088160395622253418e-02 -6.651136279106140137e-02 9.395917877554893494e-03 -4.501148685812950134e-02 1.518275495618581772e-02 -1.429562643170356750e-02 -2.133651636540889740e-02 -7.454840838909149170e-02 4.915172979235649109e-02 3.785215318202972412e-02 -1.656724512577056885e-02 6.069194059818983078e-04 3.335813432931900024e-02 3.187282010912895203e-02 2.591490745544433594e-02 1.518086064606904984e-03 1.623841747641563416e-02 5.458528921008110046e-02 5.250512808561325073e-02 -4.655864462256431580e-02 2.332005649805068970e-03 1.922673359513282776e-02 1.480999682098627090e-02
1.284438837319612503e-02 3.234151378273963928e-02 2.527858503162860870e-02 -2.281720563769340515e-02 1.485045906156301498e-02 -9.659397415816783905e-03 -1.080837845802307129e-02 1.611492224037647247e-02 -2.780918963253498077e-02 -7.822060026228427887e-03 -9.287440031766891479e-02 -4.029125347733497620e-02 -6.825135648250579834e-02 -6.107441615313291550e-03 -1.069577643647789955e-03 -3.022454492747783661e-02 -1.217072531580924988e-01 2.759664785116910934e-03 8.197154104709625244e-02 -2.554481849074363708e-02 4.688296001404523849e-03 2.912943623960018158e-02 4.745714738965034485e-02 2.930594794452190399e-02 -4.391968995332717896e-02 -1.969614531844854355e-03 5.481904372572898865e-02 9.327466785907745361e-02 -3.624228760600090027e-02 2.593420818448066711e-02 1.008387841284275055e-02 7.503039203584194183e-03
2.886329032480716705e-02 1.307559292763471603e-02 2.825560048222541809e-02 -2.404712513089179993e-02 4.032495245337486267e-02 -4.428511857986450195e-02 -2.567092888057231903e-02 2.354570664465427399e-02 2.625618875026702881e-02 2.899882383644580841e-02 -7.583697140216827393e-02 -6.820787489414215088e-02 -6.855629384517669678e-02 -1.568642095662653446e-03 3.296631947159767151e-02 -4.653755575418472290e-03 -1.039756536483764648e-01 -3.953278064727783203e-02 4.011578485369682312e-02 6.243179552257061005e-03 1.774863898754119873e-02 3.728770837187767029e-02 5.502967536449432373e-02 2.933333814144134521e-02 -6.148964539170265198e-02 -1.165513694286346436e-02 3.293119743466377258e-02 5.831788480281829834e-02 -2.854825742542743683e-02 5.746483802795410156e-02 1.134029030799865723e-02 2.094274386763572693e-02
2.855251356959342957e-02 1.015094481408596039e-02 5.168870557099580765e-03 -2.234300225973129272e-02 4.360602423548698425e-02 -4.923643171787261963e-02 -2.476605772972106934e-02 2.642465010285377502e-02 5.187650397419929504e-02 3.624499589204788208e-02 -2.755727432668209076e-02 -5.292042344808578491e-02 -7.594895432703197002e-04 3.557885065674781799e-03 3.636329621076583862e-02 3.883116319775581360e-02 -5.478461831808090210e-02 -8.539048582315444946e-02 -3.421790525317192078e-02 -7.654009852558374405e-03 2.798537164926528931e-02 3.524003177881240845e-02 2.808553539216518402e-02 5.317633505910634995e-03 -4.317454993724822998e-02 -1.789706945419311523e-02 -1.607433147728443146e-02 3.506441786885261536e-02 1.984047330915927887e-02 4.931385815143585205e-02 -5.399513524025678635e-03 1.279866788536310196e-02
-1.734176091849803925e-02 3.058202937245368958e-02 2.174513787031173706e-02 -5.481472704559564590e-03 -1.016706321388483047e-02 -3.269053995609283447e-02 -1.122934184968471527e-02 1.225799228996038437e-02 5.182073637843132019e-02 1.388558372855186462e-02 -6.643840577453374863e-03 -3.781604766845703125e-02 5.891190469264984131e-02 -1.502551045268774033e-02 6.337942183017730713e-02 5.951929092407226562e-02 -5.358089506626129150e-02 -5.634197965264320374e-02 -4.614880681037902832e-02 5.786903668195009232e-03 2.085382863879203796e-02 -1.755045843310654163e-03 3.997234255075454712e-02 -9.718564338982105255e-03 -2.038498967885971069e-02 -2.683579176664352417e-02 2.381738042458891869e-03 -1.558225229382514954e-02 1.701391674578189850e-02 4.453788697719573975e-02 -2.521809935569763184e-02 1.405793009325861931e-03
-1.570994593203067780e-02 4.365750774741172791e-02 3.376063704490661621e-02 -1.528438180685043335e-02 -2.550715021789073944e-02 -4.345913603901863098e-02 8.581811562180519104e-03 1.951714861206710339e-03 -2.078767307102680206e-02 -6.683568935841321945e-03 -5.836651846766471863e-02 1.232994813472032547e-02 -5.132505670189857483e-02 1.007990445941686630e-02 7.148674922063946724e-04 -3.883871249854564667e-04 -4.954829066991806030e-02 -1.087208045646548271e-03 2.625428326427936554e-02 -3.348350524902343750e-02 4.664376378059387207e-03 4.377214703708887100e-03 4.526504129171371460e-02 4.348464682698249817e-02 5.888242647051811218e-02 5.064394325017929077e-03 1.805441640317440033e-02 9.836615063250064850e-03 -2.877294272184371948e-02 -1.800363697111606598e-02 -3.293673042207956314e-03 4.242692142724990845e-02
-1.747644389979541302e-03 1.971073262393474579e-02 4.604203626513481140e-02 -2.971527725458145142e-02 8.484339341521263123e-03 -6.933572143316268921e-02 2.294860966503620148e-02 2.382274344563484192e-02 -8.469589985907077789e-03 1.692460291087627411e-02 -4.067276790738105774e-02 -1.416016835719347000e-02 -6.103593856096267700e-02 7.004453800618648529e-05 1.474344637244939804e-03 1.368647720664739609e-02 -8.804952353239059448e-02 -4.887893423438072205e-02 5.488714575767517090e-02 -3.337822109460830688e-02 -5.206509493291378021e-03 3.217247501015663147e-02 3.534502163529396057e-02 4.307175055146217346e-02 1.458502840250730515e-02 -2.313372492790222168e-02 4.362390935420989990e-02 5.661431932821869850e-04 1.459190249443054199e-02 -6.850230856798589230e-04 1.030575716868042946e-03 4.048381745815277100e-02
3.371900320053100586e-02 -1.506129978224635124e-03 2.158720418810844421e-02 -4.258875548839569092e-02 4.973667860031127930e-02 -8.448030054569244385e-02 -6.061145104467868805e-04 3.177952021360397339e-02 1.338258292526006699e-02 2.790905535221099854e-02 -1.940243877470493317e-02 -2.843597345054149628e-02 -5.469880998134613037e-02 -1.964270882308483124e-02 4.863012582063674927e-02 5.277142301201820374e-02 -7.051165401935577393e-02 -6.642144173383712769e-02 3.387228772044181824e-02 2.005341695621609688e-03 1.233525946736335754e-02 3.457230329513549805e-02 2.212635986506938934e-02 4.160229116678237915e-02 -3.374018147587776184e-02 -3.582919761538505554e-02 3.220158442854881287e-02 -3.606078028678894043e-02 2.340987697243690491e-02 2.787057496607303619e-02 7.585523650050163269e-03 5.269168317317962646e-02
3.912234306335449219e-02 2.252473961561918259e-03 -7.989522069692611694e-03 -2.016975916922092438e-02 4.388769716024398804e-02 -6.363674998283386230e-02 -2.694279327988624573e-02 1.259971596300601959e-02 4.694264382123947144e-02 -1.188544183969497681e-02 2.775799110531806946e-02 -2.530978806316852570e-02 5.493727978318929672e-03 -1.385688316076993942e-02 3.546767309308052063e-02 6.980338692665100098e-02 -6.049001961946487427e-02 -7.133232802152633667e-02 9.418640285730361938e-03 -5.901875905692577362e-03 3.484673798084259033e-03 3.621135605499148369e-03 1.337715797126293182e-02 9.604596532881259918e-03 -1.625826209783554077e-02 -4.138254001736640930e-02 6.529832724481821060e-03 -3.543297201395034790e-02 3.408802673220634460e-02 1.968051679432392120e-02 -3.402676666155457497e-03 2.832062356173992157e-02
1.255618035793304443e-02 1.026030257344245911e-02 -1.509136985987424850e-02 2.273280872032046318e-03 -7.649191655218601227e-03 -3.761864081025123596e-02 -2.397533692419528961e-02 -1.396121364086866379e-02 5.100108310580253601e-02 -9.181053377687931061e-03 2.278066985309123993e-02 -1.615212112665176392e-02 6.724498420953750610e-02 -7.290320470929145813e-03 4.628318548202514648e-02 7.576659321784973145e-02 -5.100221186876296997e-02 -3.696600720286369324e-02 -8.924332447350025177e-03 2.010718733072280884e-02 -5.347227212041616440e-03 -3.682789206504821777e-02 1.851612888276576996e-02 -1.730311848223209381e-02 1.333179231733083725e-02 -2.864533662796020508e-02 2.116494067013263702e-02 -3.723978251218795776e-02 -5.863097030669450760e-03 2.072840556502342224e-02 -1.512905769050121307e-02 1.500709913671016693e-02
-3.063092753291130066e-02 -8.273075218312442303e-04 6.089819222688674927e-02 -1.296128891408443451e-02 -5.991148576140403748e-02 1.091046351939439774e-02 2.700650133192539215e-02 7.609609514474868774e-03 -3.956966102123260498e-02 -2.079305984079837799e-02 2.581002190709114075e-02 6.648315489292144775e-02 -3.672778606414794922e-02 -3.639272600412368774e-02 -7.161509990692138672e-02 -2.297474443912506104e-02 -3.278608899563550949e-03 -2.001387067139148712e-03 -2.560612186789512634e-02 -2.143948152661323547e-02 -1.559124421328306198e-02 1.115972758270800114e-03 -3.228075802326202393e-02 -6.471183896064758301e-02 1.842116378247737885e-02 1.365319639444351196e-01 2.787196822464466095e-02 2.076580189168453217e-02 4.970882833003997803e-02 -1.562761701643466949e-02 -5.550483986735343933e-02 -4.083204641938209534e-02
-5.062966048717498779e-02 -2.975053526461124420e-02 3.575180098414421082e-02 -1.285543851554393768e-02 -1.091297995299100876e-02 1.805086620151996613e-02 4.265910387039184570e-02 -7.431897334754467010e-03 -4.212515056133270264e-02 7.092891726642847061e-03 9.495953097939491272e-03 1.159238591790199280e-01 1.065769101842306554e-04 -3.150780126452445984e-02 -2.054392918944358826e-02 -2.221872471272945404e-02 5.336262285709381104e-03 7.739888969808816910e-03 -2.230160869657993317e-02 -4.996640607714653015e-02 -1.287372503429651260e-02 2.616291306912899017e-02 -4.157226067036390305e-03 -2.312328852713108063e-02 -6.274563260376453400e-03 1.185231879353523254e-01 1.685147359967231750e-02 2.830109558999538422e-02 4.904149100184440613e-02 -4.262691829353570938e-03 -5.678844824433326721e-02 -7.243729382753372192e-02
-2.490681968629360199e-02 -3.036782145500183105e-02 2.835733443498611450e-02 -1.284996047616004944e-02 3.325854241847991943e-02 2.708530239760875702e-02 4.995635524392127991e-02 -2.655347622931003571e-02 -4.220794886350631714e-02 4.329217225313186646e-02 -8.610975928604602814e-03 9.230396896600723267e-02 7.732770871371030807e-03 -1.617011055350303650e-02 -1.011829916387796402e-02 -2.344869822263717651e-02 4.106383305042982101e-03 3.336185961961746216e-02 -1.994110085070133209e-02 -6.735546141862869263e-02 -1.582560129463672638e-02 5.824568867683410645e-02 3.273757174611091614e-02 3.270304575562477112e-02 -3.929432481527328491e-02 1.076812446117401123e-01 -4.628309980034828186e-02 2.851411327719688416e-02 2.789211459457874298e-02 1.872839406132698059e-02 -4.927717521786689758e-02 -8.521822839975357056e-02
1.637589558959007263e-02 -3.355565667152404785e-02 1.607267931103706360e-02 -1.598805934190750122e-02 3.791364282369613647e-02 1.490563806146383286e-02 6.249697506427764893e-02 -4.450741037726402283e-02 -3.826599568128585815e-02 6.995037943124771118e-02 -2.072780951857566833e-02 2.751194499433040619e-02 1.471658609807491302e-02 1.336645707488059998e-02 -1.257504709064960480e-02 -1.266944501549005508e-02 -1.302743516862392426e-02 4.196214955300092697e-03 3.874649992212653160e-03 -6.579940766096115112e-02 5.378621630370616913e-03 7.521707564592361450e-02 2.733687870204448700e-02 4.266989603638648987e-02 -3.231288865208625793e-02 7.130358368158340454e-02 -8.802679181098937988e-02 8.422593586146831512e-03 8.407652494497597218e-04 3.083613701164722443e-02 -5.108003318309783936e-02 -5.625949800014495850e-02
1.259868219494819641e-02 -3.569144010543823242e-02 8.889669552445411682e-03 3.314777091145515442e-02 2.007590234279632568e-02 7.131089922040700912e-03 6.246054917573928833e-02 -4.526598006486892700e-02 -1.843276247382164001e-02 7.591094076633453369e-02 -3.287659212946891785e-02 -4.583516716957092285e-02 2.496631816029548645e-02 2.940458618104457855e-02 -2.828829549252986908e-02 -3.234205022454261780e-02 -3.155352547764778137e-02 -3.187255933880805969e-02 -1.442864304408431053e-03 -5.092680454254150391e-02 3.399779275059700012e-02 6.279513239860534668e-02 4.689108580350875854e-03 1.806482113897800446e-02 -3.384705260396003723e-02 5.108898505568504333e-02 -6.775680929422378540e-02 6.177179981023073196e-03 -1.234906353056430817e-02 5.594665929675102234e-02 -5.791580677032470703e-02 -2.664714865386486053e-02
-5.370508879423141479e-02 1.689480990171432495e-02 3.817839175462722778e-02 -3.555515781044960022e-02 -6.352264434099197388e-02 1.448424346745014191e-02 -1.551143173128366470e-02 5.358037352561950684e-02 -3.289854153990745544e-02 -2.775375358760356903e-02 5.233898758888244629e-02 1.049849018454551697e-02 -3.385512158274650574e-02 -5.230202898383140564e-02 -5.911644175648689270e-02 -1.794806867837905884e-02 -6.059522740542888641e-03 -4.589856043457984924e-02 3.634088672697544098e-03 -1.080813817679882050e-02 -1.257163751870393753e-02 4.272161517292261124e-03 -7.705097645521163940e-02 -1.716155558824539185e-02 -3.885344043374061584e-02 8.420254290103912354e-02 1.076521817594766617e-02 1.517739519476890564e-02 2.471915446221828461e-02 4.887699335813522339e-02 -4.382548108696937561e-02 -7.605961710214614868e-02
-6.988063454627990723e-02 6.544438190758228302e-03 2.752901241183280945e-02 -4.504225403070449829e-02 -2.128186263144016266e-02 2.052799239754676819e-02 1.880591548979282379e-02 6.107723712921142578e-02 -1.789041422307491302e-02 -7.107184268534183502e-03 1.660925336182117462e-02 3.961818292737007141e-02 -1.231018267571926117e-02 -6.171234324574470520e-02 -2.146160975098609924e-02 2.346422756090760231e-03 -1.103166304528713226e-02 -4.643495380878448486e-02 -6.264952477067708969e-03 -1.182002760469913483e-02 -7.064783945679664612e-03 -1.544557325541973114e-02 -1.439890917390584946e-02 3.786986693739891052e-02 -5.526763945817947388e-02 7.153949886560440063e-02 -3.426124807447195053e-03 1.710661500692367554e-02 2.228872105479240417e-02 2.876334451138973236e-02 -3.417210653424263000e-02 -1.239440590143203735e-01
-3.799102827906608582e-02 3.577887546271085739e-03 2.810513228178024292e-02 -5.269380286335945129e-02 1.486944267526268959e-03 2.709069475531578064e-02 5.257485061883926392e-02 4.094744846224784851e-02 -2.919785305857658386e-02 3.120077401399612427e-02 -1.045181974768638611e-02 1.749868504703044891e-02 -9.287094697356224060e-03 -5.277329683303833008e-02 -3.543039783835411072e-04 -2.853100653737783432e-03 -1.524143293499946594e-02 -3.639341518282890320e-02 -1.662378571927547455e-02 -4.173398017883300781e-03 -6.890774966450408101e-05 -1.455311290919780731e-02 3.652748838067054749e-02 8.921434730291366577e-02 -7.177888602018356323e-02 7.340122014284133911e-02 -5.033668130636215210e-02 2.719452232122421265e-02 1.021169777959585190e-02 1.538530644029378891e-02 -2.371485531330108643e-02 -1.440478712320327759e-01
2.517750672996044159e-02 -1.721499860286712646e-02 9.008945897221565247e-03 -4.499756917357444763e-02 -1.278664451092481613e-02 2.120160497725009918e-02 7.744423300027847290e-02 1.501700561493635178e-02 -2.540864609181880951e-02 5.247092247009277344e-02 -9.239803068339824677e-03 -1.826802268624305725e-02 -1.681607402861118317e-02 -1.385697070509195328e-02 7.972949533723294735e-04 -5.522246006876230240e-03 -3.088412247598171234e-02 -5.107288435101509094e-02 -7.814683951437473297e-03 -4.195427172817289829e-04 7.728696335107088089e-03 2.939691534265875816e-03 3.499057516455650330e-02 8.056651800870895386e-02 -5.358078703284263611e-02 5.459416285157203674e-02 -8.783625811338424683e-02 3.273767977952957153e-02 2.553889527916908264e-03 1.057677343487739563e-02 -3.614693135023117065e-02 -1.000443920493125916e-01
4.196475073695182800e-02 -3.335559368133544922e-02 6.036852486431598663e-03 -3.283180529251694679e-03 -2.192843891680240631e-02 2.819294109940528870e-02 7.166182994842529297e-02 6.431575864553451538e-03 -1.711215451359748840e-02 5.005868524312973022e-02 -4.315745551139116287e-03 -5.494879558682441711e-02 -2.445495873689651489e-02 2.095497027039527893e-02 -2.522794902324676514e-02 -3.487028181552886963e-02 -3.821571916341781616e-02 -7.200551778078079224e-02 -3.927766345441341400e-03 -2.899494953453540802e-03 1.876581460237503052e-02 1.952348649501800537e-02 1.074480731040239334e-02 3.482303395867347717e-02 -4.227790609002113342e-02 3.826068341732025146e-02 -7.496752589941024780e-02 3.535053133964538574e-02 -3.558367025107145309e-03 1.407159492373466492e-02 -5.359180644154548645e-02 -6.184880062937736511e-02
-5.434269830584526062e-02 4.449610412120819092e-02 3.005598299205303192e-02 -4.840668663382530212e-02 -6.699353456497192383e-03 1.784193515777587891e-02 -2.255245111882686615e-02 8.789418637752532959e-02 -3.697883710265159607e-02 -2.295465767383575439e-02 5.012045800685882568e-02 -3.635529428720474243e-02 -2.200720459222793579e-02 -3.165675327181816101e-02 -5.891587585210800171e-02 -1.933361776173114777e-02 -1.141393650323152542e-02 -3.288006037473678589e-02 3.074757568538188934e-02 1.192456763237714767e-02 2.335542067885398865e-02 -5.122375674545764923e-03 -4.855951666831970215e-02 -1.769318245351314545e-02 -1.198033522814512253e-02 1.354476064443588257e-02 -3.179619554430246353e-03 3.367435187101364136e-02 1.761156134307384491e-02 6.671089679002761841e-02 -2.279084362089633942e-02 -5.307193472981452942e-02
-6.407780945301055908e-02 5.022830143570899963e-02 2.420464530587196350e-02 -5.930838361382484436e-02 1.541092246770858765e-02 3.047472424805164337e-02 2.281763963401317596e-02 1.152758821845054626e-01 -1.351523306220769882e-02 -1.593687757849693298e-02 5.331145133823156357e-03 -3.708581253886222839e-02 -7.037452422082424164e-03 -4.129176586866378784e-02 -2.183389477431774139e-02 -6.401319522410631180e-03 -2.540024742484092712e-02 -4.397006705403327942e-02 1.315230876207351685e-02 -3.040834795683622360e-03 1.376617886126041412e-02 -5.282728374004364014e-02 -7.387709338217973709e-03 2.698552235960960388e-02 -2.743069455027580261e-02 1.849262788891792297e-02 -6.458685267716646194e-03 3.053398802876472473e-02 4.458390921354293823e-02 3.020741604268550873e-02 -2.641722559928894043e-02 -6.969086825847625732e-02
-1.985028386116027832e-02 4.571538418531417847e-02 2.218189090490341187e-02 -6.417803466320037842e-02 3.205804154276847839e-02 3.075994364917278290e-02 5.922213941812515259e-02 1.180038452148437500e-01 -7.777138613164424896e-03 7.982916198670864105e-03 -1.947377808392047882e-02 -4.108640924096107483e-02 -5.583660677075386047e-03 -5.351957678794860840e-02 -3.931691870093345642e-03 1.749582006596028805e-03 -2.477253600955009460e-02 -3.891127556562423706e-02 -2.684592641890048981e-02 -1.948161516338586807e-04 1.840953901410102844e-02 -6.515650451183319092e-02 -1.574651221744716167e-03 7.367344200611114502e-02 -2.991751953959465027e-02 3.796185925602912903e-02 -4.015570878982543945e-02 3.433703631162643433e-02 3.873273730278015137e-02 5.876207724213600159e-03 -1.833942905068397522e-02 -6.915237754583358765e-02
4.194656386971473694e-02 2.410543337464332581e-02 -4.538727924227714539e-03 -4.874914512038230896e-02 1.967386715114116669e-02 3.343468531966209412e-02 8.148620277643203735e-02 7.835324108600616455e-02 6.016745232045650482e-03 6.341638509184122086e-03 -1.477247755974531174e-02 -4.619382321834564209e-02 -1.627354882657527924e-03 -4.433870315551757812e-02 3.632637672126293182e-03 1.016218680888414383e-02 -3.555611893534660339e-02 -4.765232279896736145e-02 -2.896132133901119232e-02 -5.010195076465606689e-03 3.010731376707553864e-02 -4.028870910406112671e-02 -2.143802680075168610e-02 7.200582325458526611e-02 -5.599757190793752670e-03 2.661004662513732910e-02 -6.457304954528808594e-02 3.257774189114570618e-02 1.308367121964693069e-02 -2.379052340984344482e-02 -1.659566536545753479e-02 -3.021631576120853424e-02
6.523236632347106934e-02 2.644750289618968964e-03 -7.443014532327651978e-03 -9.946946986019611359e-03 8.550820872187614441e-03 3.946918994188308716e-02 6.349302828311920166e-02 3.843891993165016174e-02 -8.438664488494396210e-03 -4.877208266407251358e-04 5.271517205983400345e-03 -3.103777766227722168e-02 1.148475916124880314e-03 -1.998553983867168427e-02 -4.707431793212890625e-02 -2.978515345603227615e-03 -3.763623908162117004e-02 -5.872783437371253967e-02 -2.347985282540321350e-02 1.128228940069675446e-02 3.698562085628509521e-02 -8.356458856724202633e-04 -4.079641401767730713e-02 1.872761361300945282e-02 7.113337516784667969e-03 1.980412378907203674e-02 -4.815340787172317505e-02 2.913439273834228516e-02 -1.048823073506355286e-02 -5.994945764541625977e-02 -3.356678783893585205e-02 -7.032073568552732468e-03
-5.190739780664443970e-02 6.523141264915466309e-02 -6.214117631316184998e-03 -1.336577720940113068e-02 -9.752907790243625641e-03 -5.608662497252225876e-03 -7.017505168914794922e-02 3.504985570907592773e-02 -3.422925248742103577e-02 2.758480608463287354e-02 -1.725812908262014389e-03 -5.060593411326408386e-02 -7.440569810569286346e-03 4.609457217156887054e-03 -4.995704162865877151e-03 -9.615341201424598694e-03 4.302935674786567688e-03 -4.063894227147102356e-02 1.529590971767902374e-02 2.311214338988065720e-03 5.615676566958427429e-02 -6.029420532286167145e-03 -3.380686789751052856e-02 -7.566948886960744858e-03 3.175875917077064514e-02 -2.090372145175933838e-02 -3.800827544182538986e-04 5.194157827645540237e-03 -3.555909730494022369e-03 3.326761350035667419e-02 -3.962249308824539185e-02 -1.572480797767639160e-02
-5.181194469332695007e-02 5.524109303951263428e-02 1.519767101854085922e-02 -2.281450852751731873e-02 -2.574554877355694771e-03 1.765491324476897717e-03 -1.442837435752153397e-02 7.130219042301177979e-02 -5.295397713780403137e-03 1.527829095721244812e-02 -1.766955107450485229e-02 -5.433553457260131836e-02 2.835074905306100845e-03 -5.041544791311025620e-03 2.469994500279426575e-02 1.926651783287525177e-02 -8.320231921970844269e-03 -5.458339303731918335e-02 1.186279300600290298e-02 6.195480003952980042e-03 4.778628423810005188e-02 -3.921753168106079102e-02 -5.411380436271429062e-03 -1.062068436294794083e-02 5.334766115993261337e-03 2.584226895123720169e-03 -2.523482311517000198e-03 7.522597443312406540e-03 2.943681180477142334e-02 1.348267309367656708e-02 -3.655458986759185791e-02 -2.378004044294357300e-02
-3.452892974019050598e-02 3.357764706015586853e-02 2.734376676380634308e-02 -2.139104157686233521e-02 3.631614614278078079e-03 1.693007163703441620e-02 3.116822056472301483e-02 7.190932333469390869e-02 2.803373336791992188e-02 8.341057226061820984e-03 -1.860188506543636322e-02 -4.591810703277587891e-02 -6.437052070396021008e-05 -2.892466075718402863e-02 4.517275840044021606e-02 5.800265446305274963e-02 -4.153678310103714466e-04 -4.912398010492324829e-02 -1.135482266545295715e-02 8.594125509262084961e-03 3.808373585343360901e-02 -5.099213495850563049e-02 3.356970380991697311e-03 2.829637937247753143e-02 -1.017005182802677155e-02 1.099979877471923828e-02 -2.282670885324478149e-02 3.844062564894556999e-03 3.468738123774528503e-02 -8.211237378418445587e-03 -2.617573924362659454e-02 -5.257614888250827789e-03
-2.617001766338944435e-03 -4.293756559491157532e-03 1.029430888593196869e-02 3.699495922774076462e-03 -1.281127426773309708e-02 2.373304031789302826e-02 6.730259209871292114e-02 3.751792758703231812e-02 4.188076406717300415e-02 -2.607551403343677521e-03 -3.704201197251677513e-03 -3.508890420198440552e-02 -1.215719152241945267e-02 -4.403618723154067993e-02 2.452385798096656799e-02 5.876456946134567261e-02 -2.160824090242385864e-02 -4.095824435353279114e-02 -2.748393081128597260e-02 2.021433599293231964e-02 3.387112542986869812e-02 -3.489179909229278564e-02 -1.675591431558132172e-02 3.181186318397521973e-02 1.019565574824810028e-02 -4.046079237014055252e-03 -2.285860106348991394e-02 -1.471105031669139862e-03 1.593117974698543549e-02 -3.328600525856018066e-02 -2.710415422916412354e-02 2.103924006223678589e-02
1.868630386888980865e-02 -3.189632669091224670e-02 -1.553512644022703171e-02 2.675662375986576080e-02 -2.024319022893905640e-02 3.773681074380874634e-02 6.449186056852340698e-02 3.896315814927220345e-03 2.505830116569995880e-02 -1.163635868579149246e-02 7.604243699461221695e-03 -2.294499427080154419e-03 -2.909516729414463043e-02 -4.017103835940361023e-02 -2.290093526244163513e-02 4.593394696712493896e-02 -3.687477484345436096e-02 -4.252166673541069031e-02 -3.198254108428955078e-02 3.810744732618331909e-02 3.218076750636100769e-02 -3.251288319006562233e-03 -3.084176219999790192e-02 1.174169965088367462e-02 2.528397925198078156e-02 -3.934437874704599380e-03 5.300362594425678253e-03 -2.057680161669850349e-03 -1.318393368273973465e-02 -6.100953370332717896e-02 -3.228969871997833252e-02 3.090168535709381104e-02
-3.039855696260929108e-02 6.082694604992866516e-02 1.887511648237705231e-02 3.192444518208503723e-02 -3.544414043426513672e-02 -3.762249648571014404e-02 -2.455459907650947571e-02 -1.451524440199136734e-02 -2.352129854261875153e-02 2.952315658330917358e-02 -3.320707008242607117e-03 -1.191858854144811630e-02 -2.709516324102878571e-03 3.609998384490609169e-03 -5.109667032957077026e-02 -2.695436775684356689e-02 3.301027044653892517e-02 -1.826289854943752289e-02 -2.088447101414203644e-02 -3.004200197756290436e-02 -3.222661558538675308e-03 3.769364580512046814e-02 -1.273334771394729614e-02 -1.080053113400936127e-02 1.022294070571660995e-02 -4.496242478489875793e-02 -2.580461837351322174e-02 4.276702180504798889e-03 5.927645135670900345e-03 4.319394938647747040e-03 -7.028318941593170166e-02 -3.813204821199178696e-03
-2.855844795703887939e-02 1.870759204030036926e-02 1.610568352043628693e-02 2.146173501387238503e-03 -3.028554096817970276e-02 -3.258205950260162354e-02 1.235108356922864914e-02 1.856495160609483719e-03 2.022105501964688301e-03 1.281337719410657883e-02 -4.119497258216142654e-03 -8.696814067661762238e-03 7.947421632707118988e-03 -5.646226927638053894e-03 -2.575180726125836372e-03 -6.011141464114189148e-03 -1.233809976838529110e-03 -3.622520342469215393e-02 -3.744679037481546402e-03 -2.885416336357593536e-02 -2.236556028947234154e-03 1.407989580184221268e-02 -8.214637637138366699e-03 -3.107881732285022736e-02 -6.932503078132867813e-03 7.224265136756002903e-04 -4.356024414300918579e-02 8.634538389742374420e-03 6.023168191313743591e-02 1.190937776118516922e-02 -6.329664587974548340e-02 -5.609760060906410217e-03
-1.930150762200355530e-02 -1.810028217732906342e-02 1.383677218109369278e-02 9.229436516761779785e-03 -3.767143562436103821e-02 -4.775082226842641830e-03 5.081793665885925293e-02 7.734696380794048309e-03 2.769476920366287231e-02 4.361748695373535156e-03 1.586292125284671783e-02 5.990668432787060738e-04 1.495463075116276741e-03 -4.771530162543058395e-03 1.617987081408500671e-02 1.505672838538885117e-02 9.481199085712432861e-04 -3.296088427305221558e-02 -6.417000200599431992e-03 -5.302802659571170807e-03 -4.728885367512702942e-03 -2.212919853627681732e-02 4.961329977959394455e-03 -3.554794192314147949e-02 -1.017001830041408539e-02 1.955186575651168823e-02 -4.293273016810417175e-02 1.816481538116931915e-02 5.679171532392501831e-02 1.451939251273870468e-02 -4.719770699739456177e-02 2.705948986113071442e-02
-1.209520362317562103e-02 -5.669927224516868591e-02 5.002499558031558990e-03 3.464261814951896667e-02 -3.657940030097961426e-02 2.598098665475845337e-02 7.541470974683761597e-02 5.757752805948257446e-04 3.359567001461982727e-02 -1.096592005342245102e-02 3.933420032262802124e-02 -1.600031554698944092e-02 -3.148930845782160759e-03 1.616058172658085823e-03 1.375478599220514297e-02 3.140826523303985596e-02 -1.242163032293319702e-02 -2.999259345233440399e-02 -1.967203058302402496e-02 9.623886086046695709e-03 1.143151242285966873e-02 -4.653428867459297180e-02 -1.136436220258474350e-02 -4.724067822098731995e-02 3.349299076944589615e-03 3.972734510898590088e-02 1.393527025356888771e-03 4.455628804862499237e-03 1.403478346765041351e-02 9.076471440494060516e-03 -4.965110495686531067e-02 2.679367735981941223e-02
-1.552750170230865479e-02 -7.764237374067306519e-02 1.882368931546807289e-03 5.936127528548240662e-02 -4.738513752818107605e-02 3.702857345342636108e-02 6.491833180189132690e-02 -4.506566096097230911e-03 3.495920076966285706e-02 -2.227989211678504944e-02 5.485663935542106628e-02 -2.681065164506435394e-02 -2.957364544272422791e-02 6.716365925967693329e-03 -9.310196153819561005e-03 3.857598081231117249e-02 -1.135842781513929367e-02 -4.116509482264518738e-02 -2.146040648221969604e-02 1.935717090964317322e-02 2.245847694575786591e-02 -5.995636060833930969e-02 -1.595177315175533295e-02 -5.263155326247215271e-02 6.339963525533676147e-03 3.378489241003990173e-02 4.028430208563804626e-02 -2.558511681854724884e-03 -1.926612108945846558e-02 7.590472698211669922e-03 -5.847736820578575134e-02 1.509963069111108780e-02
2.605620399117469788e-02 2.504733204841613770e-02 -1.416162028908729553e-02 -1.990427263081073761e-02 -5.810436978936195374e-02 -4.304772987961769104e-02 -3.883891180157661438e-02 -2.470611035823822021e-02 1.287494972348213196e-02 -2.316588303074240685e-03 -2.914243005216121674e-02 -8.510739542543888092e-03 1.941361278295516968e-02 -8.598668500781059265e-03 6.843172758817672729e-02 -2.036471478641033173e-02 1.410540565848350525e-02 -1.473467703908681870e-02 7.758288830518722534e-02 -7.696764171123504639e-02 1.599007658660411835e-02 5.868627876043319702e-02 -1.512473821640014648e-02 8.373642340302467346e-03 -2.775965817272663116e-02 -1.361573394387960434e-02 -1.560836192220449448e-02 -3.666658326983451843e-02 -8.155403658747673035e-03 2.786803059279918671e-02 -8.684522472321987152e-03 1.615812815725803375e-02
-8.551181294023990631e-03 2.542601339519023895e-02 2.428652253001928329e-03 -3.339825430884957314e-03 -3.864454850554466248e-02 -1.874099113047122955e-02 9.885155595839023590e-03 -3.966480027884244919e-03 3.135257214307785034e-02 5.044868681579828262e-03 -3.066818229854106903e-02 -1.109021063894033432e-02 4.209904372692108154e-02 -4.056422039866447449e-02 5.876301974058151245e-02 -4.807922523468732834e-03 4.092946276068687439e-02 -1.026877481490373611e-02 2.893073670566082001e-02 -6.476221978664398193e-02 -3.442052006721496582e-02 -1.654614321887493134e-02 -2.809982979670166969e-03 3.673056140542030334e-02 -3.471479285508394241e-03 -4.273068532347679138e-02 -8.081672713160514832e-03 -3.756994381546974182e-02 -1.104665454477071762e-02 1.506601739674806595e-02 -6.742624565958976746e-03 4.485017433762550354e-02
-3.607038408517837524e-02 2.736221440136432648e-02 2.310805208981037140e-02 -6.914313416928052902e-03 -5.465527530759572983e-03 2.378917299211025238e-02 4.159872606396675110e-02 3.857733681797981262e-03 3.800524026155471802e-02 2.034400962293148041e-02 -2.823811396956443787e-02 -1.095282565802335739e-02 3.495281189680099487e-02 -5.075838789343833923e-02 5.986132845282554626e-02 1.994946226477622986e-02 6.652820855379104614e-02 5.381458904594182968e-03 -1.218401361256837845e-02 -4.643433913588523865e-02 -5.413980782032012939e-02 -9.659352898597717285e-02 -2.246945630759000778e-03 3.532723337411880493e-02 -4.113879986107349396e-04 -2.719311974942684174e-02 6.646138615906238556e-03 -1.921953447163105011e-02 -1.703482866287231445e-02 4.248522687703371048e-03 -1.060076523572206497e-02 3.655563667416572571e-02
-3.909198939800262451e-02 3.108973801136016846e-02 2.219663560390472412e-02 -4.587206244468688965e-02 1.479700952768325806e-02 1.543750148266553879e-02 4.141952097415924072e-02 -8.163210935890674591e-03 2.170144766569137573e-02 1.725040748715400696e-02 3.679223591461777687e-03 -2.382706105709075928e-02 1.810985058546066284e-02 -3.324501588940620422e-02 6.325374543666839600e-02 1.731382310390472412e-02 4.211681336164474487e-02 2.450234815478324890e-02 -1.214093435555696487e-02 -2.949718944728374481e-02 -3.164085745811462402e-02 -1.062332540750503540e-01 6.711284164339303970e-03 2.879711240530014038e-02 1.444877870380878448e-02 -3.210454806685447693e-02 2.168873883783817291e-02 -1.347207347862422466e-03 -3.842684254050254822e-02 -5.131144076585769653e-03 -1.443174481391906738e-02 4.750672262161970139e-03
-1.024863403290510178e-02 6.006930489093065262e-04 1.515411864966154099e-02 -4.538865014910697937e-02 -8.189362473785877228e-03 -1.887411437928676605e-02 8.085975423455238342e-03 -8.026918396353721619e-03 1.426349021494388580e-02 2.541174553334712982e-02 1.455171592533588409e-02 -2.719443477690219879e-02 9.521625936031341553e-03 -1.762961409986019135e-02 2.269728668034076691e-02 2.696787565946578979e-02 1.752902194857597351e-02 4.634290188550949097e-02 -1.547579467296600342e-02 -1.194261107593774796e-02 -1.587308011949062347e-02 -5.825872346758842468e-02 -1.300015207380056381e-02 1.637161336839199066e-02 2.756050089374184608e-03 -2.781830355525016785e-02 1.130104716867208481e-02 -7.617468945682048798e-03 -4.760931432247161865e-02 -1.448170561343431473e-02 -1.537908427417278290e-02 4.803493153303861618e-03
3.018096648156642914e-02 5.536135286092758179e-03 -5.248369649052619934e-03 -1.891183055704459548e-04 -1.823347061872482300e-02 -2.772005647420883179e-02 -4.808484017848968506e-02 -1.126843318343162537e-02 2.660606754943728447e-03 -2.665147557854652405e-02 -1.415988616645336151e-02 1.388674974441528320e-02 2.374784089624881744e-02 7.308900821954011917e-03 4.278426989912986755e-02 -1.322684809565544128e-02 2.127078175544738770e-02 -1.524281315505504608e-02 7.810886949300765991e-02 -5.388723686337471008e-02 1.163470651954412460e-02 6.227481365203857422e-02 -6.980525329709053040e-03 1.363744609989225864e-03 -1.749753765761852264e-02 -2.081890963017940521e-02 -4.735111817717552185e-02 -3.120139241218566895e-02 -9.508679620921611786e-03 2.264350838959217072e-02 -1.619317568838596344e-02 5.094995140098035336e-04
9.288560599088668823e-03 -5.888473708182573318e-03 -3.240637248381972313e-03 9.327662177383899689e-03 2.682693069800734520e-03 -1.868235063739120960e-03 -1.153047941625118256e-02 1.414489373564720154e-02 2.227407880127429962e-02 -3.634861484169960022e-02 -2.193615585565567017e-02 1.196711789816617966e-02 4.856931790709495544e-02 -8.590942248702049255e-03 3.506835550069808960e-02 -1.270154677331447601e-02 4.498955607414245605e-02 -1.144752372056245804e-03 2.999309636652469635e-02 -3.015330620110034943e-02 -3.937777131795883179e-02 -1.998340152204036713e-02 1.384654827415943146e-02 2.227436006069183350e-02 3.060607472434639931e-03 -3.473103791475296021e-02 -2.493885532021522522e-02 -2.530464716255664825e-02 -1.209164597094058990e-02 1.340401545166969299e-02 -1.849609427154064178e-02 4.451134428381919861e-02
-1.422362122684717178e-02 -1.349865924566984177e-02 5.225690547376871109e-03 1.813247054815292358e-02 2.249419130384922028e-02 3.526854142546653748e-02 1.533216703683137894e-02 2.103728987276554108e-02 4.418640583753585815e-02 -2.040104009211063385e-02 -2.411409094929695129e-02 1.242432743310928345e-02 4.467352479696273804e-02 -2.605580352246761322e-02 3.053946234285831451e-02 3.126311581581830978e-03 6.925567984580993652e-02 6.294364109635353088e-03 -3.316778689622879028e-02 -1.287272665649652481e-02 -4.970263317227363586e-02 -1.105861067771911621e-01 1.111555006355047226e-02 1.666598021984100342e-02 -4.160398151725530624e-03 -2.522903494536876678e-02 -1.043884363025426865e-02 1.061464077793061733e-03 -1.932088052853941917e-03 -2.580708824098110199e-03 -8.391365408897399902e-03 4.041891172528266907e-02
-3.880142793059349060e-02 -2.843828173354268074e-03 3.531085792928934097e-03 -2.110144682228565216e-02 1.828857511281967163e-02 1.733878627419471741e-02 1.652992516756057739e-02 7.111724116839468479e-04 3.152265399694442749e-02 -1.654894091188907623e-02 -7.089417893439531326e-03 -4.736810456961393356e-03 3.333244100213050842e-02 -3.114309348165988922e-02 4.694325104355812073e-02 8.436312200501561165e-04 4.406758770346641541e-02 2.987088821828365326e-02 -4.348060488700866699e-02 -2.891779178753495216e-03 -2.907327748835086823e-02 -1.379728764295578003e-01 1.999742351472377777e-02 1.104524452239274979e-02 -3.313255961984395981e-03 -3.600400313735008240e-02 1.607153192162513733e-02 1.797540299594402313e-02 -1.403483934700489044e-02 -7.737943436950445175e-03 -2.003936795517802238e-03 2.342244843021035194e-03
-1.722902432084083557e-02 -2.749839052557945251e-02 1.149516738951206207e-02 -2.661880291998386383e-02 -9.310823865234851837e-03 -2.422234788537025452e-02 -8.335486054420471191e-04 -6.117083597928285599e-03 1.310263480991125107e-02 -6.122461636550724506e-04 -4.583670757710933685e-03 -1.929593831300735474e-02 2.387868799269199371e-02 -2.331033721566200256e-02 1.794639602303504944e-02 1.060928776860237122e-02 2.150821499526500702e-02 4.902103915810585022e-02 -4.036837816238403320e-02 6.625099573284387589e-03 -8.794421330094337463e-03 -7.923461496829986572e-02 -6.819950882345438004e-03 -1.303643337450921535e-03 -1.328528975136578083e-03 -3.330144658684730530e-02 1.085335016250610352e-02 5.713526159524917603e-03 -2.639636769890785217e-02 -2.014898508787155151e-02 -2.917728153988718987e-03 1.095269713550806046e-02
4.352534189820289612e-02 -1.150637035607360303e-04 -1.198952086269855499e-03 2.975761145353317261e-02 2.543133869767189026e-02 -9.694083593785762787e-03 -3.990186005830764771e-02 1.987846801057457924e-03 -1.881905272603034973e-02 -8.317174762487411499e-02 2.560029737651348114e-03 1.243416499346494675e-02 1.789442449808120728e-02 4.643137007951736450e-02 2.581658074632287025e-03 -1.705160248093307018e-03 1.490376424044370651e-02 -1.409625075757503510e-02 7.386993616819381714e-02 -2.805239520967006683e-02 1.011829823255538940e-02 5.109947919845581055e-02 1.914312504231929779e-02 -9.331528097391128540e-03 -2.703127264976501465e-02 -1.990963704884052277e-02 -5.015767738223075867e-02 -3.233356028795242310e-02 1.686085388064384460e-02 7.165546994656324387e-03 -4.810863174498081207e-03 6.636556354351341724e-04
3.899656981229782104e-02 -3.177868574857711792e-02 -4.100129473954439163e-03 3.669508546590805054e-02 4.303982853889465332e-02 1.712410524487495422e-02 -2.100990898907184601e-02 1.983437128365039825e-02 -4.864135757088661194e-03 -9.461843222379684448e-02 -1.024680491536855698e-02 1.895499788224697113e-02 4.408740997314453125e-02 3.110291063785552979e-02 -1.054572314023971558e-02 -8.981567807495594025e-03 3.205105662345886230e-02 -1.415007375180721283e-02 4.029387235641479492e-02 -2.350979484617710114e-04 -2.268964052200317383e-02 -2.562409080564975739e-02 4.329625889658927917e-02 4.249784979037940502e-04 -9.411247447133064270e-03 -4.648955911397933960e-02 -2.594595775008201599e-02 -1.141921151429414749e-02 8.105807006359100342e-03 1.327220071107149124e-02 -6.425052881240844727e-03 4.890705272555351257e-02
2.107128128409385681e-02 -4.827876389026641846e-02 8.370574563741683960e-03 5.468766391277313232e-02 5.591646954417228699e-02 5.311387777328491211e-02 -9.180492721498012543e-03 1.673490926623344421e-02 2.911455743014812469e-02 -7.639889419078826904e-02 -1.070217322558164597e-02 2.968948520720005035e-02 4.134447500109672546e-02 1.192318182438611984e-02 -5.017898976802825928e-03 1.310135889798402786e-02 5.388960242271423340e-02 -1.873975992202758789e-02 -2.575172297656536102e-02 1.175796426832675934e-02 -2.547384053468704224e-02 -1.158536449074745178e-01 3.237856552004814148e-02 -5.347687285393476486e-03 -1.511195953935384750e-02 -6.449947506189346313e-02 -2.504423446953296661e-02 2.735540270805358887e-02 1.583265513181686401e-02 9.084369055926799774e-03 -4.209369217278435826e-05 3.879932314157485962e-02
-4.455751273781061172e-03 -3.317248076200485229e-02 2.684889826923608780e-03 1.870571263134479523e-02 2.903305180370807648e-02 4.657739028334617615e-02 -1.658784109167754650e-03 -5.296483170241117477e-03 2.635651454329490662e-02 -5.934516713023185730e-02 8.936955127865076065e-04 1.523982454091310501e-02 3.728179633617401123e-02 -2.124342368915677071e-03 2.073724195361137390e-02 3.745148656889796257e-03 3.635373711585998535e-02 -1.157129066996276379e-03 -5.194803699851036072e-02 1.979723572731018066e-02 -1.046729274094104767e-02 -1.350892931222915649e-01 3.591049462556838989e-02 -2.192006632685661316e-02 -1.807745918631553650e-02 -7.981441169977188110e-02 1.002115942537784576e-02 3.836892917752265930e-02 2.831574238371104002e-04 6.748614367097616196e-03 4.788680002093315125e-03 -4.685176070779561996e-03
5.377241410315036774e-03 -3.415039926767349243e-02 1.633583568036556244e-02 5.055513232946395874e-03 2.421158365905284882e-03 1.528296805918216705e-02 2.451203472446650267e-04 -1.043638680130243301e-02 4.437188152223825455e-03 -2.748550660908222198e-02 1.310222595930099487e-02 -6.032040342688560486e-03 3.224297240376472473e-02 -1.119515020400285721e-02 1.319021172821521759e-02 1.406664028763771057e-02 2.526482567191123962e-02 1.567104086279869080e-02 -4.600521922111511230e-02 2.643331326544284821e-02 7.819299586117267609e-03 -8.851591497659683228e-02 6.368547910824418068e-04 -2.016699127852916718e-02 -2.324591204524040222e-02 -6.931998580694198608e-02 2.212747745215892792e-02 1.947432942688465118e-02 -9.909349493682384491e-03 5.627950886264443398e-04 -3.204033942893147469e-03 6.764684803783893585e-04
4.258412122726440430e-02 1.528726797550916672e-02 1.221196632832288742e-02 2.505042031407356262e-02 1.416582800447940826e-02 -1.364558469504117966e-02 -1.889149658381938934e-02 7.290943060070276260e-03 -5.138265434652566910e-03 -7.577501237392425537e-02 7.288935012184083462e-04 2.599111571907997131e-02 1.209404878318309784e-02 4.313750937581062317e-02 -3.677783161401748657e-02 -1.812025904655456543e-02 8.806117810308933258e-03 -1.662866398692131042e-02 6.451796740293502808e-02 -2.341026812791824341e-02 2.217843383550643921e-02 3.629202395677566528e-02 3.385568782687187195e-02 -4.421650897711515427e-03 -7.264767773449420929e-03 -6.140043115010485053e-05 -3.946746885776519775e-02 -4.060583561658859253e-02 3.017080761492252350e-02 -9.666628204286098480e-03 -4.865836817771196365e-03 2.522470022086054087e-04
4.189412295818328857e-02 -2.235305681824684143e-02 1.940653286874294281e-02 3.425654396414756775e-02 3.262764587998390198e-02 3.021729411557316780e-03 -2.188418805599212646e-02 1.527064945548772812e-02 2.496445318683981895e-03 -8.955390006303787231e-02 -1.470116246491670609e-02 3.472992777824401855e-02 3.316338732838630676e-02 3.821087256073951721e-02 -4.116083681583404541e-02 -2.619293332099914551e-02 1.421664189547300339e-02 -2.683134749531745911e-02 4.307956621050834656e-02 -4.813844803720712662e-03 9.599336422979831696e-03 -2.475059591233730316e-02 3.700072318315505981e-02 9.497971273958683014e-03 -6.166595965623855591e-03 -2.479464374482631683e-02 -2.896418608725070953e-02 -2.011735737323760986e-02 2.259013429284095764e-02 -9.299336932599544525e-03 1.436419435776770115e-03 3.630604967474937439e-02
3.355722501873970032e-02 -4.304252192378044128e-02 2.851001359522342682e-02 6.443277001380920410e-02 4.791582375764846802e-02 2.263729833066463470e-02 -1.954600401222705841e-02 1.300599105888977647e-04 2.407462708652019501e-02 -8.065051585435867310e-02 -1.670071482658386230e-02 4.211166873574256897e-02 3.188266232609748840e-02 2.944073081016540527e-02 -2.282276935875415802e-02 -1.802134513854980469e-02 2.672624774277210236e-02 -2.932636812329292297e-02 -1.653240248560905457e-02 1.380534004420042038e-02 1.443182211369276047e-02 -7.927069067955017090e-02 1.244686078280210495e-02 3.504356136545538902e-03 -1.283862348645925522e-02 -5.396536737680435181e-02 -4.025971889495849609e-02 1.867616362869739532e-02 1.692365109920501709e-02 -1.522462628781795502e-02 3.499317448586225510e-03 2.726359665393829346e-02
2.334263361990451813e-02 -3.518459945917129517e-02 1.201341859996318817e-02 2.967443317174911499e-02 1.882783696055412292e-02 2.530965022742748260e-02 -1.312426012009382248e-02 -2.742449380457401276e-02 1.478885021060705185e-02 -6.953378766775131226e-02 -1.033646613359451294e-02 3.075042366981506348e-02 3.374644741415977478e-02 1.494430378079414368e-02 1.507559139281511307e-02 -2.167511172592639923e-02 6.258398760110139847e-03 -8.124616928398609161e-03 -5.103098973631858826e-02 2.713996171951293945e-02 3.071597777307033539e-02 -8.548762649297714233e-02 1.494577806442975998e-02 -1.993069238960742950e-02 -1.416364591568708420e-02 -7.054644078016281128e-02 -1.179845724254846573e-02 2.846419066190719604e-02 8.982584113255143166e-04 -1.135645713657140732e-02 5.834413226693868637e-03 -1.408925454597920179e-04
3.282856568694114685e-02 -3.648812323808670044e-02 1.879045367240905762e-02 9.194928221404552460e-03 -1.820753095671534538e-03 -1.031910302117466927e-03 3.684204304590821266e-03 -2.926309220492839813e-02 -4.115604795515537262e-03 -2.842331863939762115e-02 -4.961803089827299118e-03 1.403256412595510483e-02 3.383020311594009399e-02 1.210197992622852325e-02 2.759516239166259766e-02 -4.781155381351709366e-03 1.898162625730037689e-02 1.796209369786083698e-03 -4.305864498019218445e-02 2.414855547249317169e-02 4.230301827192306519e-02 -6.233794614672660828e-02 -8.536219596862792969e-03 -1.274736970663070679e-02 -2.312100864946842194e-02 -6.104500591754913330e-02 7.024581078439950943e-03 2.142057195305824280e-02 -1.549351494759321213e-02 -9.549199603497982025e-03 -1.057846378535032272e-02 -5.025937687605619431e-03
3.144560381770133972e-02 2.363988570868968964e-02 -2.871501492336392403e-03 -1.415802538394927979e-02 -1.047660317271947861e-02 -5.209678038954734802e-02 2.014758624136447906e-02 6.804208387620747089e-04 2.494321204721927643e-02 -4.840604960918426514e-02 -9.204865433275699615e-03 1.810575649142265320e-02 7.631070911884307861e-03 1.152364723384380341e-02 -6.052787229418754578e-02 -6.933885626494884491e-03 2.701160730794072151e-03 -3.828658163547515869e-02 6.106673926115036011e-02 -5.626997444778680801e-03 2.382889762520790100e-02 2.894509397447109222e-02 4.712596163153648376e-02 -1.519985147751867771e-03 2.957893535494804382e-02 3.852589800953865051e-02 -1.594511792063713074e-02 -4.813783988356590271e-02 -1.788266189396381378e-02 2.115637995302677155e-03 -3.447727765887975693e-03 -1.056444249115884304e-03
3.577661886811256409e-02 -1.213162764906883240e-02 2.371840178966522217e-02 1.390652381815016270e-03 -3.666658303700387478e-04 -3.070497885346412659e-02 -3.477118676528334618e-03 -4.453336296137422323e-04 1.926810294389724731e-02 -5.561808869242668152e-02 -2.356344833970069885e-02 3.735466301441192627e-02 2.717895433306694031e-02 1.803375221788883209e-02 -5.401302501559257507e-02 -1.212168484926223755e-02 4.676159936934709549e-03 -4.060786589980125427e-02 4.561271518468856812e-02 3.282130230218172073e-03 2.068556845188140869e-02 -1.738585159182548523e-02 3.825193643569946289e-02 2.252435870468616486e-02 2.099489048123359680e-02 1.781104318797588348e-02 -8.971010334789752960e-03 -3.328095003962516785e-02 -2.985146455466747284e-02 -6.586223375052213669e-03 3.800845937803387642e-03 3.832259401679039001e-02
3.583835810422897339e-02 -3.211756423115730286e-02 3.673100098967552185e-02 3.665648773312568665e-02 1.341098919510841370e-02 -9.439001791179180145e-03 -1.110421773046255112e-02 -1.694317907094955444e-02 2.228619530797004700e-02 -4.997091740369796753e-02 -2.850721217691898346e-02 3.571787849068641663e-02 2.614362910389900208e-02 1.743231527507305145e-02 -4.017619416117668152e-02 -5.936118308454751968e-03 1.573775894939899445e-02 -3.229523077607154846e-02 -4.948856774717569351e-03 2.653121203184127808e-02 2.547867037355899811e-02 -3.220399469137191772e-02 9.309731423854827881e-03 1.433809380978345871e-02 8.336948230862617493e-03 -2.171225287020206451e-02 -2.313743717968463898e-02 -6.678820122033357620e-03 -2.981338836252689362e-02 -9.499592706561088562e-03 8.645196445286273956e-03 3.519766405224800110e-02
4.031769186258316040e-02 -3.013185970485210419e-02 1.577040739357471466e-02 -4.008353222161531448e-03 -7.190854754298925400e-03 -6.623594090342521667e-03 -1.387451868504285812e-02 -3.886950016021728516e-02 1.849096268415451050e-03 -4.504476860165596008e-02 -1.928927004337310791e-02 2.532447502017021179e-02 2.643224596977233887e-02 1.316266600042581558e-02 -2.643422922119498253e-03 4.107782617211341858e-03 -4.930267576128244400e-03 -7.905406877398490906e-03 -4.136046022176742554e-02 3.399547562003135681e-02 4.471080377697944641e-02 -2.044742740690708160e-02 5.969963502138853073e-03 -8.880147710442543030e-03 1.020205859094858170e-02 -4.053563624620437622e-02 -6.081300787627696991e-03 2.171667991206049919e-03 -2.550775371491909027e-02 -3.914260771125555038e-03 9.464261122047901154e-03 2.086052112281322479e-02
5.322178825736045837e-02 -2.570631913840770721e-02 1.234912127256393433e-02 -3.732519224286079407e-02 -1.292521972209215164e-02 -1.868777535855770111e-02 2.724004909396171570e-03 -3.686505556106567383e-02 -1.607631146907806396e-02 -1.111819967627525330e-02 -8.362023159861564636e-03 1.421345490962266922e-02 3.288713097572326660e-02 2.204686030745506287e-02 2.427705191075801849e-02 1.868464611470699310e-02 1.220413204282522202e-02 -3.056238172575831413e-03 -3.426738083362579346e-02 3.161862492561340332e-02 5.599251016974449158e-02 -2.426861040294170380e-02 -7.678485009819269180e-03 -5.896690301597118378e-03 5.489749019034206867e-04 -2.925144508481025696e-02 -2.105572028085589409e-03 2.844978822395205498e-03 -3.662940487265586853e-02 -4.904264118522405624e-03 -7.872281596064567566e-03 8.423484861850738525e-03
-5.791320651769638062e-02 -1.436766330152750015e-02 5.851152166724205017e-02 3.835608437657356262e-02 -3.996952623128890991e-02 1.140920072793960571e-02 -1.952939317561686039e-03 3.349508345127105713e-02 -4.764326289296150208e-02 -2.263253927230834961e-02 -3.380670386832207441e-04 5.308042466640472412e-02 2.472507767379283905e-02 -1.173489447683095932e-02 4.775578621774911880e-03 1.180354971438646317e-02 -1.185084041208028793e-02 -4.200071096420288086e-02 -5.929395556449890137e-02 1.493678428232669830e-02 -4.090473800897598267e-02 6.104819476604461670e-03 -1.694882474839687347e-02 -2.758180908858776093e-02 4.139330238103866577e-03 6.643855012953281403e-03 -1.091926358640193939e-02 9.253021329641342163e-03 4.705254733562469482e-02 -6.736421585083007812e-02 -6.507802754640579224e-02 -6.841673702001571655e-02
-2.859838306903839111e-02 -5.663319677114486694e-02 4.880546778440475464e-02 8.959861472249031067e-03 -3.879975900053977966e-02 1.201039087027311325e-02 3.818340599536895752e-02 9.831144474446773529e-03 -1.828552968800067902e-02 -2.186219953000545502e-02 2.352914959192276001e-02 1.271346658468246460e-01 4.271220788359642029e-02 -4.738134145736694336e-02 6.162164360284805298e-02 2.977376058697700500e-02 1.331419963389635086e-02 -2.788745053112506866e-02 -4.554404318332672119e-02 -1.375363790430128574e-03 -4.200099036097526550e-02 5.209692940115928650e-02 6.156591232866048813e-03 -2.473144419491291046e-02 -6.374209187924861908e-03 2.436880208551883698e-02 -9.191431454382836819e-04 -3.073275834321975708e-02 4.591012001037597656e-02 -7.499990612268447876e-02 -5.216853320598602295e-02 -6.407465040683746338e-02
2.036103047430515289e-02 -2.154986560344696045e-02 3.384906426072120667e-02 -3.458891063928604126e-02 -1.764021441340446472e-02 5.108371260575950146e-04 2.919926680624485016e-02 -1.180776581168174744e-02 -6.533182226121425629e-03 7.272136863321065903e-03 2.119668759405612946e-02 1.196228563785552979e-01 4.083498567342758179e-02 -3.694229945540428162e-02 6.539116799831390381e-02 3.926463052630424500e-02 4.855683818459510803e-02 8.723005652427673340e-03 -1.676094718277454376e-02 -4.752419143915176392e-02 -5.350243672728538513e-02 8.640408515930175781e-02 1.834227889776229858e-02 -1.440926454961299896e-02 -4.336819052696228027e-02 1.972930692136287689e-02 -5.785324145108461380e-03 -4.127282276749610901e-02 2.313522249460220337e-02 -6.491840630769729614e-02 -5.048251897096633911e-02 -4.861036315560340881e-02
4.384399205446243286e-02 1.450497191399335861e-02 1.308421045541763306e-02 -7.551198452711105347e-02 -2.386836893856525421e-02 1.642312668263912201e-02 6.106215529143810272e-03 -3.720333427190780640e-02 -2.762594260275363922e-03 1.550132525153458118e-03 2.299420908093452454e-02 8.096390962600708008e-02 3.888749331235885620e-02 1.353911822661757469e-03 7.085745036602020264e-02 2.961168624460697174e-02 2.788475342094898224e-02 -1.360201369971036911e-02 2.898357808589935303e-02 -4.932506009936332703e-02 -3.719761222600936890e-02 6.579297035932540894e-02 2.448192797601222992e-02 -1.686879061162471771e-02 -2.008408866822719574e-02 1.193611975759267807e-02 -2.317868405953049660e-03 -5.172881856560707092e-02 1.686235703527927399e-02 -4.589712992310523987e-02 -5.909634381532669067e-02 -1.946745440363883972e-02
1.314028259366750717e-02 1.961999945342540741e-02 1.527312770485877991e-02 -4.199972748756408691e-02 -2.756057120859622955e-02 2.539473213255405426e-02 -3.926166519522666931e-02 -2.522407472133636475e-02 -1.915033906698226929e-02 1.301596174016594887e-03 5.167752970010042191e-03 2.653254196047782898e-02 1.726830936968326569e-02 2.608033642172813416e-02 3.480555489659309387e-02 -7.379484828561544418e-03 -1.063767005689442158e-03 -5.215277522802352905e-02 5.131429061293601990e-02 -3.336235508322715759e-02 -1.596951112151145935e-02 3.264587745070457458e-02 4.299234598875045776e-02 -3.039013780653476715e-02 -4.430054686963558197e-03 1.787471352145075798e-03 2.404720755293965340e-03 -4.335513710975646973e-02 3.389636287465691566e-03 -4.088578745722770691e-02 -6.041316315531730652e-02 5.787550937384366989e-03
-5.379741266369819641e-02 -4.218188114464282990e-03 2.031549438834190369e-02 3.255702182650566101e-02 -3.657336160540580750e-02 2.263165079057216644e-02 -3.197523951530456543e-02 5.601274594664573669e-02 -5.484388023614883423e-02 -2.633588388562202454e-02 2.729455381631851196e-02 -4.707277286797761917e-03 4.804481752216815948e-03 -1.834012009203433990e-02 -1.793887838721275330e-02 3.268108889460563660e-02 -1.839559711515903473e-02 -9.055683761835098267e-02 -5.427728965878486633e-02 3.338636457920074463e-02 -2.385304309427738190e-02 1.580860838294029236e-02 -4.634834080934524536e-02 -2.789179608225822449e-02 -2.264374494552612305e-02 -2.280991896986961365e-02 -4.860410094261169434e-02 -2.398228831589221954e-02 2.698760107159614563e-02 2.123761363327503204e-02 -4.409273713827133179e-02 -6.051845848560333252e-02
-4.214783012866973877e-02 -4.176137968897819519e-02 3.056839667260646820e-02 -8.900222368538379669e-03 -3.198786452412605286e-02 1.570955105125904083e-02 1.298722624778747559e-02 5.243777111172676086e-02 -1.253918185830116272e-02 -2.927843108773231506e-02 2.292364835739135742e-02 4.839131236076354980e-02 2.686440199613571167e-02 -5.699794366955757141e-02 3.269037976861000061e-02 6.778709590435028076e-02 4.909458104521036148e-03 -8.853296935558319092e-02 -4.228618741035461426e-02 1.118060108274221420e-02 -3.982813283801078796e-02 3.831109032034873962e-02 -1.753336004912853241e-02 -1.032205950468778610e-02 -3.122739866375923157e-02 -2.348689595237374306e-03 -4.207758978009223938e-02 -6.811235100030899048e-02 1.979681476950645447e-02 -1.368031138554215431e-03 -3.917732089757919312e-02 -7.245221734046936035e-02
9.581024758517742157e-03 -2.864718064665794373e-02 2.786140888929367065e-02 -6.422776728868484497e-02 -2.578631602227687836e-02 9.359480813145637512e-03 3.134121373295783997e-02 4.188792780041694641e-02 3.474092343822121620e-03 -1.074811164289712906e-02 5.396509077399969101e-03 5.863150209188461304e-02 3.069104999303817749e-02 -5.899496376514434814e-02 4.284330457448959351e-02 8.151300251483917236e-02 3.382724523544311523e-02 -4.661003872752189636e-02 -1.200270280241966248e-02 -1.576781645417213440e-02 -4.652914777398109436e-02 5.479466542601585388e-02 -1.175825204700231552e-02 1.477535627782344818e-02 -6.168466433882713318e-02 3.617177484557032585e-03 -5.296758934855461121e-02 -6.415201723575592041e-02 -5.523017607629299164e-03 -4.057346284389495850e-02 -2.430904842913150787e-02 -7.482242584228515625e-02
4.666242375969886780e-02 1.821411657147109509e-03 -1.648493780521675944e-04 -9.362451732158660889e-02 -3.986699879169464111e-02 3.405001387000083923e-02 5.076881498098373413e-03 1.189382094889879227e-02 2.632602350786328316e-03 -2.284407243132591248e-02 -4.052787087857723236e-03 3.825237229466438293e-02 1.337788812816143036e-02 -2.081949450075626373e-02 5.830530077219009399e-02 5.558495968580245972e-02 4.064972512423992157e-03 -5.222217738628387451e-02 1.617675460875034332e-02 -3.633934305980801582e-03 -3.987669944763183594e-02 4.117494076490402222e-02 6.524099502712488174e-03 1.572272926568984985e-02 -4.984548315405845642e-02 2.233720384538173676e-03 -4.054618626832962036e-02 -3.566687554121017456e-02 -3.676966764032840729e-03 -5.980077013373374939e-02 -3.635173663496971130e-02 -4.023795574903488159e-02
5.370170250535011292e-02 1.539032440632581711e-02 2.387356711551547050e-03 -8.111432939767837524e-02 -3.939150273799896240e-02 6.879325956106185913e-02 -3.270545601844787598e-02 8.810191415250301361e-03 -2.417131885886192322e-02 -2.789303101599216461e-02 -2.640092978253960609e-03 1.800203882157802582e-02 -2.413196675479412079e-02 1.231455337256193161e-02 1.106577366590499878e-02 5.506789311766624451e-03 -2.210046723484992981e-02 -6.732747703790664673e-02 3.939992934465408325e-02 5.752498283982276917e-03 -2.940223924815654755e-02 4.201981797814369202e-02 3.277009353041648865e-02 -1.926597207784652710e-02 -2.049811370670795441e-02 5.292094312608242035e-03 -3.888250514864921570e-02 1.380602130666375160e-03 6.450536893680691719e-04 -9.094253182411193848e-02 -4.386475309729576111e-02 1.189001929014921188e-02
-1.523854210972785950e-02 1.759321801364421844e-02 5.063588265329599380e-03 -2.204741723835468292e-02 1.301008462905883789e-02 2.575594745576381683e-02 -4.400103166699409485e-02 6.936927139759063721e-02 -4.306054860353469849e-02 7.417127490043640137e-03 5.839156359434127808e-02 -6.830697506666183472e-02 2.527209185063838959e-02 2.130956016480922699e-02 -1.739588752388954163e-02 3.890658542513847351e-02 -2.404293231666088104e-02 -5.425105988979339600e-02 -1.359509862959384918e-02 4.685752838850021362e-02 1.190100051462650299e-02 2.859012037515640259e-02 -2.222043462097644806e-02 -3.152108937501907349e-02 -1.144306268543004990e-02 -4.371504485607147217e-02 -4.617659002542495728e-02 -2.000693976879119873e-02 -3.260950092226266861e-03 5.145803093910217285e-02 -1.199549902230501175e-02 -1.463947538286447525e-02
-2.528459578752517700e-02 -2.933977544307708740e-02 1.669319532811641693e-02 -6.184859201312065125e-02 7.441299501806497574e-03 9.134538471698760986e-03 2.128661237657070160e-02 9.337889403104782104e-02 3.892637090757489204e-03 -6.352437194436788559e-03 4.178366437554359436e-02 -3.700203448534011841e-02 4.456581920385360718e-02 -1.838273182511329651e-02 1.490834634751081467e-02 5.652926862239837646e-02 -1.656332053244113922e-02 -5.312604457139968872e-02 -1.050003687851130962e-03 3.235005075111985207e-03 -2.476625330746173859e-02 3.150967881083488464e-02 -2.270710095763206482e-02 1.149797625839710236e-02 -3.123072348535060883e-02 -2.962007373571395874e-02 -3.250608220696449280e-02 -5.540376156568527222e-02 2.123794704675674438e-02 3.890679031610488892e-02 -9.503676556050777435e-03 -4.659949801862239838e-03
1.443440373986959457e-02 -2.738111279904842377e-02 5.802597152069211006e-04 -8.651058375835418701e-02 7.986456155776977539e-03 6.739383097738027573e-03 4.371763393282890320e-02 1.041318848729133606e-01 2.893541753292083740e-02 -1.926605938933789730e-03 1.614126935601234436e-02 -2.284468151628971100e-02 2.927815355360507965e-02 -4.407949745655059814e-02 2.173161692917346954e-02 5.772085115313529968e-02 1.376481913030147552e-02 -1.193367317318916321e-02 2.575325546786189079e-03 -2.184713818132877350e-02 -3.483828157186508179e-02 4.674057289958000183e-02 -4.486156255006790161e-02 4.869800433516502380e-02 -5.095171555876731873e-02 -8.177563548088073730e-03 -5.217846855521202087e-02 -6.616050750017166138e-02 2.767515555024147034e-02 -1.646064221858978271e-02 -5.811533192172646523e-04 -1.982981571927666664e-03
3.761658817529678345e-02 -5.463103763759136200e-03 -2.909229695796966553e-02 -1.010362803936004639e-01 3.248704364523291588e-03 3.580776229500770569e-02 1.551759056746959686e-02 8.194393664598464966e-02 2.835033275187015533e-02 -3.838994726538658142e-02 -3.374827560037374496e-03 -1.206301804631948471e-02 -3.032461390830576420e-04 -4.384448006749153137e-02 4.470445588231086731e-02 2.808682806789875031e-02 8.522398420609533787e-04 -1.158270239830017090e-02 1.660030521452426910e-02 -2.700928598642349243e-02 -2.455225773155689240e-02 5.421802029013633728e-02 -4.493929073214530945e-02 5.567494034767150879e-02 -5.670214816927909851e-02 1.298643276095390320e-02 -3.758601471781730652e-02 -5.058224499225616455e-02 1.192266680300235748e-02 -4.543076455593109131e-02 -2.977200085297226906e-03 1.772039011120796204e-02
6.995005905628204346e-02 2.135826647281646729e-02 -4.871219396591186523e-02 -7.474349439144134521e-02 1.153973955661058426e-02 7.122793048620223999e-02 -2.363936789333820343e-02 5.810264125466346741e-02 -7.680065929889678955e-03 -7.628528773784637451e-02 -1.094717904925346375e-02 8.433426730334758759e-03 -3.190840035676956177e-02 -3.619283437728881836e-02 9.385312907397747040e-03 9.738611057400703430e-03 -3.297983482480049133e-02 -3.636845946311950684e-02 3.010375797748565674e-02 -1.566677913069725037e-02 -1.084531843662261963e-02 7.003773748874664307e-02 -1.701279170811176300e-02 8.158597163856029510e-03 -2.818321809172630310e-02 5.621947720646858215e-02 -3.139686584472656250e-02 -1.115041412413120270e-02 7.067306432873010635e-03 -1.105111762881278992e-01 -7.555614691227674484e-03 3.715824335813522339e-02
1.478515472263097763e-02 4.592679440975189209e-02 -2.015864243730902672e-03 -1.722981780767440796e-02 2.263149246573448181e-02 2.499982155859470367e-02 -7.047812640666961670e-02 1.412346726283431053e-03 -4.271735623478889465e-02 5.310574546456336975e-02 1.889061182737350464e-02 -2.645291760563850403e-02 2.423397079110145569e-02 6.791417300701141357e-02 9.638898074626922607e-03 1.491236872971057892e-02 -1.723609864711761475e-02 -2.245578728616237640e-02 -3.040276654064655304e-02 2.387727424502372742e-02 4.833444207906723022e-02 2.025700360536575317e-02 -4.867238923907279968e-03 -5.740659544244408607e-04 2.413229271769523621e-02 -6.060558930039405823e-02 -2.881793305277824402e-02 -2.911179559305310249e-03 -3.835508227348327637e-02 2.199008315801620483e-02 -1.829684898257255554e-02 3.254933282732963562e-02
8.873255923390388489e-03 -4.316672682762145996e-03 2.025943994522094727e-02 -4.909853264689445496e-02 2.164110541343688965e-02 -3.254795912653207779e-03 3.242597682401537895e-03 5.047913268208503723e-02 4.917750600725412369e-03 4.627774283289909363e-02 -5.774410674348473549e-04 -2.896426990628242493e-02 4.091162979602813721e-02 2.871042676270008087e-02 2.644153311848640442e-02 1.891882345080375671e-02 -4.561041016131639481e-03 -2.560876309871673584e-02 -8.629309944808483124e-03 7.627371815033257008e-04 1.419597119092941284e-02 2.273873798549175262e-02 -6.947104819118976593e-03 2.538954839110374451e-02 -8.889521704986691475e-04 -3.712811693549156189e-02 -1.783145591616630554e-02 -3.809340298175811768e-02 -9.935990907251834869e-03 3.076936118304729462e-02 -1.905310712754726410e-02 4.121981561183929443e-02
1.453461218625307083e-02 -2.540886402130126953e-02 3.113750182092189789e-02 -5.109042301774024963e-02 2.152041532099246979e-02 -6.139384582638740540e-03 5.124868080019950867e-02 7.032568007707595825e-02 3.560629487037658691e-02 2.684805728495121002e-02 -1.861950941383838654e-02 -3.004694543778896332e-02 2.611081488430500031e-02 1.495253760367631912e-03 3.173536062240600586e-02 3.197352215647697449e-02 2.663655951619148254e-02 1.401542872190475464e-02 1.887990906834602356e-02 -2.001560106873512268e-02 -1.030215341597795486e-02 4.607482627034187317e-02 -2.929612435400485992e-02 4.919021576642990112e-02 -2.471060119569301605e-02 -2.243672311305999756e-02 -3.165754675865173340e-02 -6.381332129240036011e-02 1.367154438048601151e-02 -4.418910946696996689e-03 -9.189864620566368103e-03 4.750123247504234314e-02
-9.883706457912921906e-03 -2.943995781242847443e-02 1.138115115463733673e-02 -5.135679244995117188e-02 4.894688259810209274e-03 1.431556791067123413e-02 3.387743979692459106e-02 6.081239134073257446e-02 5.391801148653030396e-02 -2.203207463026046753e-02 -3.785420954227447510e-02 -1.936973072588443756e-02 -4.541622474789619446e-03 -2.912667021155357361e-02 5.095604062080383301e-02 1.911501400172710419e-02 1.328689744696021080e-03 1.748142391443252563e-02 1.800362952053546906e-02 -1.746087148785591125e-02 -8.225220255553722382e-03 5.620582774281501770e-02 -4.992362856864929199e-02 5.705543607473373413e-02 -3.333734720945358276e-02 -8.644685149192810059e-03 -1.950020319782197475e-03 -5.742124095559120178e-02 1.533749327063560486e-02 -2.551333606243133545e-02 -1.119266822934150696e-02 4.743380472064018250e-02
4.581086803227663040e-03 -2.115778438746929169e-02 -1.842438429594039917e-02 -3.009680658578872681e-02 1.284809876233339310e-02 3.837324678897857666e-02 1.305266469717025757e-02 3.851206973195075989e-02 1.583584584295749664e-02 -6.864928454160690308e-02 -4.220226407051086426e-02 -5.071016959846019745e-03 -4.734072461724281311e-02 -4.008428007364273071e-02 2.176762744784355164e-02 1.580714248120784760e-02 -3.627377375960350037e-02 -1.140752434730529785e-02 1.030825730413198471e-02 -6.620591972023248672e-03 -8.712949231266975403e-03 5.676973611116409302e-02 -2.999995835125446320e-02 3.526220098137855530e-02 -1.532246731221675873e-02 3.872124478220939636e-02 5.813945084810256958e-03 -1.851335912942886353e-02 2.385268732905387878e-02 -6.295677274465560913e-02 -1.269671507179737091e-02 4.219569265842437744e-02
3.426575288176536560e-02 8.455237746238708496e-02 2.011965215206146240e-02 -2.172080334275960922e-03 -2.390742488205432892e-02 2.063820697367191315e-02 -1.098065543919801712e-02 -1.718308031558990479e-02 -2.934601344168186188e-02 4.727426171302795410e-02 2.654867991805076599e-02 -5.105185788124799728e-03 3.299232944846153259e-02 3.752840682864189148e-02 -4.860524088144302368e-02 -2.601591125130653381e-02 -5.252673290669918060e-03 9.545260109007358551e-03 -5.499041453003883362e-02 -9.891966357827186584e-03 1.388896070420742035e-02 1.575302146375179291e-02 4.161363467574119568e-03 -2.739791758358478546e-02 2.401941828429698944e-02 -6.621875613927841187e-02 -3.120921365916728973e-02 2.397282049059867859e-02 -3.154738992452621460e-02 6.101890001446008682e-03 -4.797217622399330139e-02 3.930099308490753174e-02
3.488723561167716980e-02 1.979011297225952148e-02 1.177882216870784760e-02 -4.390669241547584534e-02 -1.474418956786394119e-02 1.307514496147632599e-03 3.436966985464096069e-02 8.640073239803314209e-03 1.014166884124279022e-02 5.417975410819053650e-02 1.172375120222568512e-02 -1.051420345902442932e-02 3.875914588570594788e-02 1.346281822770833969e-02 -2.796987071633338928e-02 -2.844070270657539368e-02 -2.891300804913043976e-02 -1.181929954327642918e-03 -9.540094062685966492e-03 -2.241397649049758911e-02 -5.211855168454349041e-04 4.143194109201431274e-02 -1.208774559199810028e-02 9.252036106772720814e-04 6.052849348634481430e-03 -4.298759624361991882e-02 -3.737402707338333130e-02 1.416234672069549561e-02 2.162340469658374786e-02 2.276146039366722107e-02 -5.514058470726013184e-02 3.749405965209007263e-02
2.460368163883686066e-02 -1.369876600801944733e-02 8.492779918015003204e-03 -3.707098215818405151e-02 -5.794891039840877056e-04 -1.312151085585355759e-02 6.883718818426132202e-02 2.258301898837089539e-02 2.639625035226345062e-02 3.837775811553001404e-02 -1.618373394012451172e-02 -1.275643985718488693e-02 2.199675329029560089e-02 3.720178501680493355e-03 1.068610814400017262e-03 -3.745726868510246277e-02 -1.240707095712423325e-02 2.568868361413478851e-02 3.112658113241195679e-02 -1.860640384256839752e-02 -2.447605505585670471e-02 3.616588562726974487e-02 -1.091061998158693314e-02 2.510348800569772720e-03 -2.319669118151068687e-03 -3.035262972116470337e-02 -4.986812546849250793e-02 -1.452084537595510483e-02 5.015447363257408142e-02 2.125392854213714600e-02 -4.046691581606864929e-02 4.077875614166259766e-02
-2.101806923747062683e-02 -1.870323717594146729e-02 -1.466931193135678768e-03 -3.118527866899967194e-02 -5.246752407401800156e-04 6.821734830737113953e-03 6.080589815974235535e-02 2.630531601607799530e-02 4.874728620052337646e-02 -1.980855129659175873e-02 -2.477923966944217682e-02 -1.075694896280765533e-02 1.182578597217798233e-02 -4.107953980565071106e-03 3.131984174251556396e-02 -5.291238054633140564e-02 -4.166207462549209595e-02 2.557709626853466034e-02 2.296014875173568726e-02 -1.659831218421459198e-02 -1.045695971697568893e-02 1.191214658319950104e-02 -3.128946572542190552e-02 -1.245348248630762100e-02 -3.377452958375215530e-04 6.142004858702421188e-03 -1.934146275743842125e-03 -5.357428919523954391e-03 5.058506131172180176e-02 2.137790992856025696e-02 -3.317683935165405273e-02 2.929290011525154114e-02
-3.916339948773384094e-02 -2.469975687563419342e-02 -2.524932613596320152e-03 -3.912311047315597534e-03 1.688703894615173340e-03 9.128260426223278046e-03 3.897230699658393860e-02 2.213317714631557465e-02 2.773713506758213043e-02 -6.551252305507659912e-02 -3.652237355709075928e-02 -2.404508367180824280e-02 -2.271835319697856903e-02 -1.393929868936538696e-02 2.794387191534042358e-02 -3.608699515461921692e-02 -5.766528099775314331e-02 -1.094352640211582184e-02 6.821621209383010864e-03 -8.722353726625442505e-03 -2.137178368866443634e-02 -3.500826284289360046e-02 1.148018054664134979e-03 -3.488121181726455688e-02 9.104248136281967163e-03 4.712934046983718872e-02 8.982270024716854095e-03 2.624231204390525818e-02 5.384222790598869324e-02 6.891887169331312180e-03 -3.492018580436706543e-02 3.091737627983093262e-03
