-1.931755244731903076e-02
3.346228599548339844e-02
9.604299813508987427e-02
-2.002708986401557922e-02
6.833601742982864380e-02
-5.290990322828292847e-02
-2.447496354579925537e-02
2.716032415628433228e-02
-5.332116410136222839e-02
1.616329886019229889e-02
-6.730873137712478638e-02
3.377560153603553772e-02
1.874054968357086182e-02
9.590764343738555908e-02
-4.256755113601684570e-03
7.794746197760105133e-03
5.662786588072776794e-02
-1.635571755468845367e-02
4.851739481091499329e-02
-7.777985930442810059e-02
3.375877439975738525e-02
-4.434092435985803604e-03
1.439340133219957352e-02
1.191559340804815292e-02
-4.086926952004432678e-02
3.447145456448197365e-03
-6.322983652353286743e-02
-4.996338486671447754e-02
-1.815896667540073395e-02
3.804343193769454956e-02
6.295330822467803955e-02
1.696861465461552143e-03
2.100528590381145477e-02
3.185322880744934082e-02
5.720775201916694641e-02
9.299831464886665344e-03
-6.442289054393768311e-02
2.672931738197803497e-02
1.297911908477544785e-02
3.895284235477447510e-02
3.079733345657587051e-03
-4.737966135144233704e-02
9.570484608411788940e-02
5.699252709746360779e-02
-1.635433360934257507e-02
-1.240137312561273575e-02
-1.923888339661061764e-03
3.528150916099548340e-02
8.507005125284194946e-02
1.870303414762020111e-02
-1.346743199974298477e-02
1.171868760138750076e-02
3.237852081656455994e-02
-7.842521183192729950e-03
7.368934154510498047e-02
3.148594871163368225e-02
4.857368767261505127e-03
-5.747529119253158569e-02
2.665582858026027679e-02
2.940600365400314331e-02
-2.215523272752761841e-02
-4.921833798289299011e-02
1.272192038595676422e-02
-2.478085644543170929e-02
